<unk>	0
<eod>	0
in	-0
ər	-1
ar	-2
an	-3
ın	-4
də	-5
il	-6
ir	-7
▁b	-8
▁m	-9
da	-10
iy	-11
lər	-12
al	-13
ən	-14
ət	-15
▁v	-16
▁t	-17
▁s	-18
əs	-19
as	-20
▁o	-21
lar	-22
ay	-23
▁q	-24
un	-25
▁e	-26
əl	-27
▁y	-28
▁h	-29
▁k	-30
▁i	-31
▁və	-32
▁d	-33
at	-34
ik	-35
▁g	-36
ün	-37
dı	-38
mi	-39
ək	-40
▁A	-41
aq	-42
am	-43
st	-44
er	-45
di	-46
ur	-47
dir	-48
▁ol	-49
əm	-50
dən	-51
lı	-52
▁n	-53
lərin	-54
▁il	-55
▁a	-56
▁mü	-57
iyy	-58
▁B	-59
li	-60
lə	-61
zər	-62
ey	-63
az	-64
on	-65
aş	-66
əh	-67
əy	-68
▁ç	-69
▁M	-70
inin	-71
▁ki	-72
or	-73
▁da	-74
ların	-75
can	-76
asın	-77
▁ü	-78
▁x	-79
bay	-80
is	-81
iz	-82
▁bir	-83
en	-84
dan	-85
baycan	-86
▁r	-87
__	-88
▁ö	-89
zərbaycan	-90
ır	-91
ində	-92
▁f	-93
ası	-94
▁ş	-95
ul	-96
▁p	-97
▁də	-98
ab	-99
əd	-100
▁gö	-101
ah	-102
ləri	-103
dır	-104
əb	-105
iyyət	-106
əsi	-107
ış	-108
öv	-109
▁Azərbaycan	-110
ib	-111
im	-112
▁et	-113
ağ	-114
ak	-115
▁1	-116
▁S	-117
lik	-118
es	-119
ub	-120
ol	-121
ür	-122
dil	-123
it	-124
iq	-125
ax	-126
▁in	-127
inə	-128
▁ilə	-129
iş	-130
▁İ	-131
miş	-132
▁R	-133
ıl	-134
▁bu	-135
ci	-136
ini	-137
ad	-138
eç	-139
▁Q	-140
▁Ə	-141
et	-142
um	-143
id	-144
ları	-145
▁T	-146
əz	-147
af	-148
liy	-149
▁on	-150
▁2	-151
▁H	-152
us	-153
əf	-154
la	-155
if	-156
ev	-157
iya	-158
ında	-159
▁edil	-160
ük	-161
ov	-162
əq	-163
▁K	-164
lan	-165
▁əs	-166
▁iş	-167
▁c	-168
▁D	-169
du	-170
▁ar	-171
ilm	-172
lət	-173
ədə	-174
▁ver	-175
əş	-176
anın	-177
▁al	-178
▁ist	-179
____	-180
▁üç	-181
ox	-182
əc	-183
alar	-184
▁N	-185
mək	-186
▁z	-187
uş	-188
ro	-189
ız	-190
ması	-191
▁gör	-192
▁üçün	-193
üm	-194
▁baş	-195
ra	-196
▁P	-197
▁döv	-198
lıq	-199
▁yar	-200
ının	-201
▁olun	-202
ari	-203
kt	-204
▁O	-205
ım	-206
pub	-207
ilər	-208
▁“	-209
espub	-210
ki	-211
sə	-212
espublik	-213
asının	-214
▁öz	-215
üş	-216
mış	-217
av	-218
indən	-219
▁tər	-220
lu	-221
çı	-222
▁keç	-223
əv	-224
ent	-225
em	-226
ələrin	-227
▁əl	-228
əti	-229
▁olan	-230
▁olm	-231
si	-232
miz	-233
ələr	-234
▁(	-235
▁u	-236
lən	-237
öy	-238
▁Respublik	-239
ac	-240
▁Bu	-241
alq	-242
unun	-243
▁son	-244
▁öl	-245
ist	-246
asında	-247
▁kimi	-248
diy	-249
ma	-250
əsində	-251
▁hər	-252
alı	-253
əli	-254
▁yer	-255
▁çox	-256
şı	-257
lığ	-258
ut	-259
▁Ş	-260
ül	-261
üt	-262
▁mən	-263
ına	-264
▁l	-265
▁edir	-266
▁E	-267
iv	-268
▁X	-269
əx	-270
▁Y	-271
..	-272
adə	-273
üs	-274
ez	-275
▁-	-276
om	-277
▁qar	-278
oy	-279
▁20	-280
▁gəl	-281
▁üz	-282
▁F	-283
▁dövlət	-284
əmin	-285
cə	-286
ləş	-287
ada	-288
ını	-289
gər	-290
arix	-291
▁keçir	-292
anı	-293
dər	-294
▁ölk	-295
dur	-296
▁sah	-297
larının	-298
▁C	-299
▁təs	-300
stər	-301
adı	-302
▁G	-303
əyə	-304
el	-305
ıx	-306
▁"	-307
▁pro	-308
adi	-309
məsi	-310
▁göstər	-311
iyyat	-312
maq	-313
mən	-314
mət	-315
▁tarix	-316
lərinin	-317
▁19	-318
▁oldu	-319
▁tərəf	-320
dar	-321
▁V	-322
▁bil	-323
ədən	-324
uq	-325
ekt	-326
▁3	-327
▁nə	-328
▁haq	-329
əyat	-330
▁olar	-331
________	-332
▁əm	-333
öyük	-334
kiş	-335
eni	-336
▁ər	-337
mişdir	-338
▁gün	-339
ğun	-340
kişaf	-341
uz	-342
əsinin	-343
kil	-344
ap	-345
ıq	-346
▁or	-347
▁həyat	-348
▁təş	-349
ilə	-350
üny	-351
liyev	-352
▁sonra	-353
▁di	-354
▁məs	-355
▁onun	-356
araq	-357
diyi	-358
ənin	-359
▁el	-360
tis	-361
illi	-362
man	-363
üz	-364
▁dey	-365
▁çıx	-366
ident	-367
▁dah	-368
▁ay	-369
iyas	-370
▁əsas	-371
ütün	-372
daş	-373
▁inkişaf	-374
lam	-375
rez	-376
ğı	-377
▁haqq	-378
ri	-379
▁qur	-380
▁Əliyev	-381
rezident	-382
mə	-383
▁məh	-384
cı	-385
ilməsi	-386
▁fə	-387
eyn	-388
▁ic	-389
▁ad	-390
sı	-391
▁daha	-392
▁təh	-393
▁müh	-394
öz	-395
par	-396
dim	-397
▁isə	-398
san	-399
rə	-400
▁qal	-401
▁bağ	-402
laş	-403
▁an	-404
▁görə	-405
▁böyük	-406
orm	-407
▁zam	-408
▁fəal	-409
▁yaş	-410
▁L	-411
▁yol	-412
əsinə	-413
əhər	-414
bi	-415
iyyəti	-416
▁yax	-417
üq	-418
▁Respublikasının	-419
▁sən	-420
ənd	-421
ürk	-422
▁dər	-423
ran	-424
▁həm	-425
elə	-426
▁yaz	-427
▁re	-428
cü	-429
ələri	-430
▁təd	-431
liyi	-432
lara	-433
asına	-434
ıb	-435
▁im	-436
▁haqqında	-437
cu	-438
▁yeni	-439
ğu	-440
olo	-441
▁qey	-442
azir	-443
muş	-444
▁xalq	-445
▁düny	-446
▁ən	-447
▁bütün	-448
kı	-449
lay	-450
▁art	-451
ek	-452
bir	-453
akı	-454
ilən	-455
▁mər	-456
▁dəy	-457
▁təşkil	-458
ru	-459
▁qarşı	-460
▁ildə	-461
▁qay	-462
▁apar	-463
ağı	-464
sin	-465
▁etmək	-466
▁siyas	-467
▁var	-468
▁az	-469
▁ya	-470
▁əh	-471
rmən	-472
▁do	-473
xt	-474
▁olaraq	-475
aya	-476
lərdə	-477
▁idi	-478
siy	-479
▁Prezident	-480
▁edən	-481
üquq	-482
ta	-483
▁tut	-484
▁üzrə	-485
dik	-486
▁düş	-487
lərini	-488
▁məq	-489
▁yan	-490
lərə	-491
▁təl	-492
▁biz	-493
ic	-494
▁söz	-495
üsus	-496
▁4	-497
yən	-498
sil	-499
azır	-500
▁vəz	-501
ənc	-502
eh	-503
▁tərəfindən	-504
▁yaradı	-505
ör	-506
▁mad	-507
tir	-508
sa	-509
00	-510
öh	-511
ot	-512
dırıl	-513
▁his	-514
ədər	-515
üb	-516
axt	-517
▁şəx	-518
unda	-519
ından	-520
esab	-521
▁oğ	-522
▁şəhər	-523
ləndir	-524
▁bar	-525
▁digər	-526
▁U	-527
▁mün	-528
▁şər	-529
ətən	-530
▁5	-531
▁On	-532
əss	-533
▁yük	-534
arət	-535
əlli	-536
ilir	-537
▁dövr	-538
▁möv	-539
▁hüquq	-540
anda	-541
▁istif	-542
bər	-543
▁xüsus	-544
övlət	-545
▁bax	-546
unu	-547
▁–	-548
xil	-549
isi	-550
qtis	-551
▁ə	-552
▁Ç	-553
asiya	-554
ök	-555
▁İn	-556
əlum	-557
ji	-558
atı	-559
▁de	-560
▁bağlı	-561
▁dil	-562
▁qədər	-563
yn	-564
lərinə	-565
▁sər	-566
▁Respublikası	-567
xalq	-568
ram	-569
▁arasında	-570
▁nəzər	-571
▁st	-572
▁istifadə	-573
▁fəaliyyət	-574
▁hazır	-575
▁mək	-576
ləşdir	-577
▁insan	-578
▁əv	-579
▁nüm	-580
os	-581
una	-582
əyyən	-583
▁mal	-584
▁məsəl	-585
op	-586
əsini	-587
eynəl	-588
▁qəb	-589
▁daxil	-590
kar	-591
.1	-592
▁hesab	-593
▁tək	-594
▁say	-595
eynəlxalq	-596
ex	-597
adan	-598
▁Azərbaycanın	-599
▁Dövlət	-600
▁nəti	-601
▁Bakı	-602
öl	-603
gi	-604
asını	-605
▁maddə	-606
▁İl	-607
▁həyata	-608
▁əraz	-609
▁müəyyən	-610
▁məlum	-611
▁əlaq	-612
uy	-613
mışdır	-614
kəz	-615
əmiyyət	-616
larda	-617
▁at	-618
dət	-619
lərində	-620
▁201	-621
asib	-622
▁etm	-623
▁göz	-624
kəm	-625
arı	-626
▁təmin	-627
ağa	-628
▁qan	-629
əcək	-630
▁Z	-631
▁xid	-632
larını	-633
▁mədən	-634
raf	-635
▁edilməsi	-636
ayon	-637
▁qeyd	-638
inci	-639
▁iqtis	-640
▁Hey	-641
▁gen	-642
osi	-643
▁yüks	-644
▁Qar	-645
lığı	-646
lük	-647
lü	-648
akt	-649
▁etdir	-650
üc	-651
▁ge	-652
▁Nazir	-653
təb	-654
▁tələb	-655
▁ilk	-656
üf	-657
▁id	-658
▁kon	-659
oş	-660
məd	-661
▁qoy	-662
▁lay	-663
əfər	-664
▁tam	-665
imiz	-666
vəl	-667
ılı	-668
▁özün	-669
▁oğlu	-670
▁çək	-671
acaq	-672
▁qəbul	-673
▁belə	-674
art	-675
▁hiss	-676
▁6	-677
▁hal	-678
rin	-679
▁qər	-680
ok	-681
▁Bir	-682
▁ağ	-683
eş	-684
▁vaxt	-685
əng	-686
ih	-687
▁iştir	-688
▁şəxs	-689
ef	-690
▁həmin	-691
ilik	-692
iyə	-693
ətb	-694
0-	-695
dığı	-696
▁təb	-697
əndə	-698
▁təq	-699
▁ir	-700
▁deyil	-701
may	-702
▁rəh	-703
▁nətic	-704
▁barədə	-705
larına	-706
abr	-707
▁tədbir	-708
▁I	-709
▁münasib	-710
▁uğ	-711
▁dav	-712
▁«	-713
▁əmək	-714
▁milli	-715
▁xidmət	-716
tab	-717
dü	-718
▁müd	-719
▁olmuş	-720
ca	-721
ayət	-722
üv	-723
əyi	-724
van	-725
ərq	-726
dür	-727
əlif	-728
▁qaz	-729
▁200	-730
mr	-731
dilər	-732
ön	-733
oz	-734
▁məlumat	-735
▁Av	-736
▁rayon	-737
▁çat	-738
▁ölkə	-739
▁Heydər	-740
ham	-741
iyyə	-742
▁rəhbər	-743
ımız	-744
▁kom	-745
orp	-746
▁kənd	-747
lardan	-748
▁kitab	-749
eri	-750
tim	-751
sul	-752
▁müəlli	-753
▁aş	-754
▁təhsil	-755
fi	-756
ait	-757
▁biri	-758
xtəlif	-759
▁iki	-760
osial	-761
ələrinin	-762
▁onların	-763
ırdı	-764
omi	-765
aları	-766
▁dəyiş	-767
dib	-768
bət	-769
rop	-770
▁seç	-771
anış	-772
▁bur	-773
əni	-774
________________	-775
▁ədə	-776
▁geniş	-777
akim	-778
▁bildir	-779
▁su	-780
asit	-781
▁yet	-782
lərdən	-783
▁böl	-784
yan	-785
izm	-786
▁7	-787
qiq	-788
exn	-789
▁münasibət	-790
▁şək	-791
▁iştirak	-792
▁ək	-793
rı	-794
amət	-795
▁qiy	-796
▁əsər	-797
▁üm	-798
ers	-799
▁bilər	-800
▁Ö	-801
irdi	-802
əvi	-803
masına	-804
▁uy	-805
qa	-806
▁bilm	-807
▁həl	-808
▁Al	-809
▁elə	-810
ud	-811
▁beynəlxalq	-812
▁növ	-813
asiy	-814
▁min	-815
▁Türk	-816
▁müxtəlif	-817
lərindən	-818
▁yüksək	-819
▁əvvəl	-820
▁sist	-821
▁nümay	-822
▁yox	-823
alan	-824
.2	-825
iki	-826
▁davam	-827
səd	-828
ətin	-829
▁uz	-830
rat	-831
▁İlham	-832
dakı	-833
▁fik	-834
dım	-835
ya	-836
▁istiq	-837
▁pros	-838
ilmiş	-839
əst	-840
kən	-841
▁xan	-842
akin	-843
stan	-844
oru	-845
▁müv	-846
▁tap	-847
od	-848
▁olunmuş	-849
undan	-850
▁İs	-851
ob	-852
qan	-853
▁№	-854
▁Ü	-855
▁heç	-856
larla	-857
əyin	-858
Azərbaycan	-859
ver	-860
▁məktəb	-861
▁edilmiş	-862
▁ox	-863
▁bər	-864
▁8	-865
▁dəf	-866
ğul	-867
▁vəzif	-868
▁edə	-869
▁kö	-870
▁tarixi	-871
▁vətən	-872
larında	-873
olog	-874
▁An	-875
▁if	-876
▁müst	-877
izə	-878
xan	-879
▁vasit	-880
əssis	-881
ti	-882
▁uyğun	-883
▁9	-884
iqi	-885
ətir	-886
ayan	-887
▁zaman	-888
▁form	-889
üvv	-890
ığ	-891
▁xüsusi	-892
▁torp	-893
▁siyasi	-894
ılan	-895
▁ermən	-896
▁hakim	-897
tima	-898
▁Rus	-899
est	-900
bl	-901
kan	-902
▁müddət	-903
evr	-904
▁nö	-905
lərlə	-906
▁Ermən	-907
▁qor	-908
ed	-909
▁sax	-910
▁olur	-911
luq	-912
▁olunur	-913
iqq	-914
▁El	-915
▁sosial	-916
arici	-917
▁mil	-918
dam	-919
per	-920
▁müq	-921
▁qiymət	-922
▁türk	-923
▁av	-924
caq	-925
▁proses	-926
▁layih	-927
▁na	-928
ləy	-929
ndər	-930
asir	-931
yni	-932
ündə	-933
▁edib	-934
diq	-935
lah	-936
▁Mü	-937
ərək	-938
ılması	-939
▁təşkilat	-940
▁təc	-941
▁diqq	-942
▁vur	-943
▁çal	-944
çi	-945
ğunu	-946
ələn	-947
▁iqtisadi	-948
...	-949
eft	-950
▁səv	-951
əqil	-952
əmməd	-953
▁əks	-954
▁par	-955
▁qərar	-956
▁məqsəd	-957
▁uğur	-958
afiq	-959
ədi	-960
▁olunan	-961
▁Avrop	-962
▁istiqamət	-963
▁güc	-964
▁qanun	-965
▁eh	-966
▁onu	-967
▁alın	-968
▁li	-969
▁elmi	-970
▁etdiyi	-971
▁müb	-972
▁sür	-973
▁təqdim	-974
irlər	-975
istan	-976
min	-977
oğ	-978
oq	-979
▁doğ	-980
▁səviyy	-981
▁şəkil	-982
▁Ar	-983
▁müs	-984
▁ib	-985
▁dəst	-986
▁dair	-987
oloji	-988
....	-989
azı	-990
▁alt	-991
▁Əliyevin	-992
liyinin	-993
iri	-994
stit	-995
▁gətir	-996
▁olub	-997
▁azad	-998
çilər	-999
malı	-1000
▁sal	-1001
▁maraq	-1002
▁akt	-1003
▁səb	-1004
▁Azərbaycanda	-1005
sal	-1006
▁sistem	-1007
▁başqa	-1008
▁təsdiq	-1009
▁yaradıl	-1010
▁hey	-1011
əsiz	-1012
▁ictima	-1013
▁olduğu	-1014
biyyat	-1015
▁üzv	-1016
üd	-1017
▁ilin	-1018
▁sev	-1019
▁199	-1020
3-	-1021
▁idar	-1022
dıq	-1023
abağ	-1024
▁qüvv	-1025
▁gənc	-1026
▁şa	-1027
▁əməkdaş	-1028
▁edilir	-1029
▁Mər	-1030
▁edilm	-1031
ələrdə	-1032
▁zər	-1033
▁yaran	-1034
▁yanaş	-1035
▁səh	-1036
siz	-1037
ika	-1038
mız	-1039
▁am	-1040
din	-1041
▁qayda	-1042
▁sır	-1043
▁kəs	-1044
▁mərkəz	-1045
8-	-1046
1-	-1047
5-	-1048
itet	-1049
▁isteh	-1050
▁hərbi	-1051
▁məş	-1052
▁mədəniyyət	-1053
▁etmiş	-1054
▁çalış	-1055
rup	-1056
siya	-1057
▁Milli	-1058
ƏR	-1059
iliy	-1060
ast	-1061
▁danış	-1062
əlik	-1063
larından	-1064
▁təm	-1065
▁dünya	-1066
▁texn	-1067
mağa	-1068
▁Mən	-1069
▁tik	-1070
▁səbəb	-1071
▁hök	-1072
▁imkan	-1073
aç	-1074
müş	-1075
▁müvafiq	-1076
iyanın	-1077
▁yaxın	-1078
əlidir	-1079
▁10	-1080
arib	-1081
▁probl	-1082
qram	-1083
2-	-1084
▁müstəqil	-1085
▁Məh	-1086
▁inf	-1087
▁0	-1088
▁aşağı	-1089
▁Kon	-1090
tür	-1091
▁ev	-1092
▁qız	-1093
▁dəyər	-1094
ii	-1095
▁bəy	-1096
▁əlav	-1097
▁artıq	-1098
▁olmaq	-1099
▁malik	-1100
▁rol	-1101
▁yetir	-1102
▁Am	-1103
▁Qan	-1104
▁uş	-1105
▁etdi	-1106
edi	-1107
▁çıxış	-1108
▁torpaq	-1109
▁üzər	-1110
4-	-1111
mizin	-1112
əsən	-1113
▁orqan	-1114
▁diqqət	-1115
dırılması	-1116
▁nümayəndə	-1117
ovet	-1118
▁xarici	-1119
▁qurul	-1120
ansı	-1121
▁en	-1122
▁tətb	-1123
▁tutul	-1124
kün	-1125
▁ona	-1126
usu	-1127
▁şərait	-1128
məyə	-1129
▁şəkildə	-1130
amı	-1131
▁hadi	-1132
9-	-1133
▁müəssis	-1134
▁ob	-1135
▁əməl	-1136
▁bəz	-1137
cud	-1138
▁ik	-1139
ələrində	-1140
▁üst	-1141
▁edər	-1142
▁aç	-1143
əsindən	-1144
▁dəfə	-1145
ərr	-1146
▁adam	-1147
ili	-1148
azım	-1149
▁top	-1150
pl	-1151
ant	-1152
▁Biz	-1153
▁verir	-1154
çinin	-1155
▁Prezidenti	-1156
▁yarat	-1157
mir	-1158
ünü	-1159
aln	-1160
▁.	-1161
▁mey	-1162
▁Ağ	-1163
aların	-1164
▁tarixli	-1165
▁nəzərdə	-1166
▁nömr	-1167
ivers	-1168
▁əhal	-1169
▁ədəbiyyat	-1170
▁Qarabağ	-1171
tər	-1172
ılır	-1173
nam	-1174
▁mühüm	-1175
ulu	-1176
▁çıxar	-1177
dığ	-1178
▁ət	-1179
▁Komi	-1180
eda	-1181
▁is	-1182
rans	-1183
ilib	-1184
▁sənəd	-1185
▁zamanı	-1186
▁açı	-1187
maz	-1188
ətinin	-1189
▁po	-1190
6-	-1191
▁hansı	-1192
▁problem	-1193
▁eyni	-1194
tif	-1195
▁təhlük	-1196
▁hərək	-1197
gion	-1198
7-	-1199
▁müasir	-1200
iyası	-1201
▁int	-1202
iyasının	-1203
▁olduğunu	-1204
▁möh	-1205
▁bizim	-1206
alnız	-1207
▁tə	-1208
II	-1209
▁sahib	-1210
▁nazir	-1211
▁yaradıcı	-1212
▁Məc	-1213
▁əldə	-1214
▁əhəmiyyət	-1215
▁qab	-1216
nin	-1217
▁tən	-1218
əkk	-1219
▁sahəsində	-1220
▁görüş	-1221
▁mövcud	-1222
▁edilən	-1223
▁Avropa	-1224
▁əlavə	-1225
dafi	-1226
▁adı	-1227
▁məhsul	-1228
ati	-1229
▁düz	-1230
rik	-1231
▁əsgər	-1232
▁qrup	-1233
▁icra	-1234
▁j	-1235
▁qəz	-1236
ovun	-1237
eat	-1238
▁uşaq	-1239
▁iç	-1240
ünün	-1241
▁müharib	-1242
▁yay	-1243
▁döy	-1244
▁olmuşdur	-1245
umi	-1246
▁imz	-1247
▁fərq	-1248
▁əsasən	-1249
▁çevr	-1250
ləm	-1251
▁Ab	-1252
▁ön	-1253
▁ek	-1254
larımız	-1255
▁eht	-1256
əlb	-1257
▁gələn	-1258
qaz	-1259
▁hazırlan	-1260
qiqat	-1261
iversitet	-1262
▁təsir	-1263
▁cüm	-1264
▁yaxşı	-1265
▁baz	-1266
▁yazı	-1267
əmi	-1268
ünə	-1269
yr	-1270
▁kən	-1271
▁başçı	-1272
eçə	-1273
▁Mərkəz	-1274
▁Az	-1275
yekt	-1276
▁Son	-1277
▁idarə	-1278
▁müt	-1279
əhr	-1280
ina	-1281
▁boy	-1282
ux	-1283
▁ərz	-1284
ult	-1285
var	-1286
amış	-1287
▁elm	-1288
alaş	-1289
irk	-1290
▁aid	-1291
▁dərəc	-1292
▁nəz	-1293
▁Baş	-1294
▁ibarət	-1295
lığın	-1296
▁qarşıs	-1297
▁zamanda	-1298
urn	-1299
eq	-1300
▁respublik	-1301
▁ictimai	-1302
▁yerləş	-1303
▁lazım	-1304
cid	-1305
▁sənət	-1306
ova	-1307
▁yaşay	-1308
▁Hər	-1309
▁can	-1310
▁sil	-1311
yabr	-1312
▁din	-1313
ahi	-1314
3.	-1315
▁yalnız	-1316
▁tərk	-1317
▁bit	-1318
▁18	-1319
▁səd	-1320
▁vəziyyət	-1321
AN	-1322
▁nəticəsində	-1323
▁man	-1324
▁göndər	-1325
ünki	-1326
▁mus	-1327
▁ı	-1328
▁12	-1329
ilərin	-1330
▁ümum	-1331
▁xat	-1332
▁cəmiyyət	-1333
lk	-1334
▁etmişdir	-1335
tə	-1336
▁Əs	-1337
ərrüf	-1338
ond	-1339
▁bay	-1340
▁istəy	-1341
ədim	-1342
ilmişdir	-1343
▁fikir	-1344
na	-1345
rət	-1346
▁Rusiya	-1347
▁vətəndaş	-1348
▁,	-1349
▁bəl	-1350
▁hadisə	-1351
▁əsr	-1352
dın	-1353
əmər	-1354
▁neft	-1355
▁illərdə	-1356
▁Lakin	-1357
adın	-1358
▁nömrəli	-1359
▁get	-1360
▁region	-1361
imi	-1362
ron	-1363
▁as	-1364
▁təyin	-1365
tı	-1366
İN	-1367
▁ətraf	-1368
▁iy	-1369
▁öyr	-1370
▁fa	-1371
▁qazan	-1372
▁yerinə	-1373
▁neçə	-1374
laşdır	-1375
▁düşün	-1376
▁met	-1377
sız	-1378
▁həll	-1379
▁azərbaycan	-1380
▁məc	-1381
isində	-1382
adiyyat	-1383
mışdı	-1384
▁daş	-1385
▁hüquqi	-1386
▁döyüş	-1387
Lİ	-1388
▁tur	-1389
▁Ermənistan	-1390
▁proqram	-1391
▁səs	-1392
yü	-1393
▁xar	-1394
lis	-1395
▁yenidən	-1396
iklik	-1397
▁göstərir	-1398
ativ	-1399
▁bölg	-1400
”.	-1401
▁cav	-1402
afqaz	-1403
masını	-1404
liyin	-1405
tar	-1406
axçı	-1407
▁artır	-1408
▁Onun	-1409
▁11	-1410
▁götür	-1411
▁dol	-1412
▁Belə	-1413
iç	-1414
▁istehsal	-1415
▁müm	-1416
▁şe	-1417
▁gözəl	-1418
▁inkişafı	-1419
uh	-1420
▁əsasında	-1421
aşa	-1422
▁dem	-1423
xtar	-1424
▁iz	-1425
ədar	-1426
▁Or	-1427
ələrə	-1428
▁mübar	-1429
▁işğ	-1430
ort	-1431
asından	-1432
▁müqav	-1433
▁keçirilən	-1434
kad	-1435
rukt	-1436
▁2.	-1437
▁müş	-1438
▁mərh	-1439
▁mümkün	-1440
▁mah	-1441
hur	-1442
▁qeyri	-1443
▁cəh	-1444
▁cümlə	-1445
landır	-1446
sor	-1447
▁erməni	-1448
abit	-1449
irəm	-1450
▁burada	-1451
▁dən	-1452
▁məz	-1453
▁soy	-1454
bur	-1455
▁nail	-1456
ormasiya	-1457
▁ifadə	-1458
▁uzun	-1459
▁1.	-1460
▁ot	-1461
▁onlar	-1462
▁formalaş	-1463
▁ərzində	-1464
▁15	-1465
ern	-1466
▁birinci	-1467
▁müəllim	-1468
▁real	-1469
eatr	-1470
ələrini	-1471
əbər	-1472
▁tətbiq	-1473
lığa	-1474
▁siyasət	-1475
▁gəlir	-1476
.1.	-1477
▁xanım	-1478
ıcı	-1479
alarının	-1480
kadem	-1481
▁növb	-1482
▁va	-1483
▁başlay	-1484
▁qoş	-1485
▁edərək	-1486
gün	-1487
4.	-1488
ali	-1489
▁Un	-1490
▁ax	-1491
▁Naxçı	-1492
▁dəyişiklik	-1493
ladı	-1494
ərç	-1495
▁Əl	-1496
▁dost	-1497
ənub	-1498
gə	-1499
▁pay	-1500
ara	-1501
▁plan	-1502
ılaş	-1503
▁müdafi	-1504
eg	-1505
▁oyn	-1506
▁təsərrüf	-1507
▁ix	-1508
▁verən	-1509
▁şey	-1510
▁Məmməd	-1511
ust	-1512
iləri	-1513
▁yen	-1514
pr	-1515
▁yanaşı	-1516
▁hökum	-1517
irə	-1518
▁qoyul	-1519
masında	-1520
sın	-1521
▁olduq	-1522
▁norm	-1523
ildi	-1524
▁arx	-1525
▁ümumi	-1526
▁dağ	-1527
19	-1528
stitut	-1529
▁Mir	-1530
▁ayrı	-1531
▁təcr	-1532
kr	-1533
▁işğal	-1534
▁rəs	-1535
▁qon	-1536
▁üzərində	-1537
iyev	-1538
▁nümun	-1539
lif	-1540
üseyn	-1541
▁altında	-1542
▁xarakt	-1543
ruktur	-1544
urnal	-1545
əmiş	-1546
▁öyrən	-1547
▁aşağıdakı	-1548
ılmış	-1549
ator	-1550
əsr	-1551
▁nəfər	-1552
▁baxım	-1553
▁olması	-1554
▁mövz	-1555
der	-1556
▁səfər	-1557
▁edilmişdir	-1558
atının	-1559
malıdır	-1560
diyini	-1561
▁əlaqədar	-1562
ələrinə	-1563
▁bun	-1564
▁xey	-1565
▁əvəz	-1566
asi	-1567
▁tərkib	-1568
▁başa	-1569
▁cavab	-1570
ləğ	-1571
▁həmçinin	-1572
ayev	-1573
▁yolu	-1574
ırlar	-1575
kin	-1576
▁qəl	-1577
sip	-1578
▁mərhəl	-1579
▁azərbaycanlı	-1580
▁kim	-1581
▁zəng	-1582
▁dir	-1583
▁cin	-1584
zadə	-1585
▁prin	-1586
AS	-1587
▁olunması	-1588
▁xəbər	-1589
20	-1590
əql	-1591
imizin	-1592
▁mənim	-1593
gil	-1594
▁mövq	-1595
▁xət	-1596
▁iqtisadiyyat	-1597
▁nəzərə	-1598
▁tədbirlər	-1599
yar	-1600
▁elekt	-1601
SR	-1602
▁Nazirliyi	-1603
▁sıra	-1604
▁tədqiqat	-1605
▁Əli	-1606
▁Sovet	-1607
▁mat	-1608
▁Üm	-1609
▁cümlədən	-1610
veric	-1611
okrat	-1612
▁qiymətləndir	-1613
▁söy	-1614
▁işlər	-1615
▁orta	-1616
.2.	-1617
▁möhkəm	-1618
irin	-1619
▁çətin	-1620
▁bənd	-1621
▁ne	-1622
▁Qafqaz	-1623
ərəf	-1624
eyf	-1625
▁nəş	-1626
▁prinsip	-1627
ban	-1628
oc	-1629
▁əz	-1630
▁miq	-1631
sun	-1632
ununla	-1633
ip	-1634
▁İt	-1635
atlar	-1636
▁həq	-1637
▁fər	-1638
▁Amma	-1639
likdə	-1640
▁Şur	-1641
▁dur	-1642
ark	-1643
ətta	-1644
▁Bur	-1645
▁ildən	-1646
▁Əh	-1647
▁vəs	-1648
tifaq	-1649
sk	-1650
məy	-1651
ərçiv	-1652
erial	-1653
▁xəst	-1654
▁prezident	-1655
▁səl	-1656
▁demək	-1657
▁tanın	-1658
▁başlan	-1659
▁müra	-1660
▁Qanunun	-1661
▁təhlükəsiz	-1662
▁daşı	-1663
tən	-1664
▁cid	-1665
▁halda	-1666
▁fəaliyyəti	-1667
▁ərazi	-1668
▁Xalq	-1669
▁qədim	-1670
▁müraci	-1671
▁millət	-1672
ologiya	-1673
▁rus	-1674
mişdi	-1675
▁saxlan	-1676
▁Qər	-1677
▁edilsin	-1678
ahı	-1679
▁Universitet	-1680
▁çərçiv	-1681
▁obyekt	-1682
▁hərəkət	-1683
▁it	-1684
▁edirdi	-1685
▁köç	-1686
izi	-1687
▁özünü	-1688
▁for	-1689
uc	-1690
▁xarakter	-1691
ilməsinə	-1692
▁İş	-1693
liyini	-1694
ahid	-1695
ündən	-1696
ep	-1697
▁ası	-1698
▁Çünki	-1699
ala	-1700
sən	-1701
▁poz	-1702
əhrəm	-1703
▁ikinci	-1704
ssiy	-1705
lub	-1706
▁təcrüb	-1707
▁çağ	-1708
atın	-1709
▁illər	-1710
▁komi	-1711
▁qəzet	-1712
▁Sər	-1713
çilik	-1714
ayı	-1715
▁Fər	-1716
sinin	-1717
mun	-1718
iyasi	-1719
ank	-1720
▁ciddi	-1721
▁Pro	-1722
▁ener	-1723
ayda	-1724
izin	-1725
abin	-1726
▁bələd	-1727
▁sözləri	-1728
▁yerli	-1729
▁Nazirlər	-1730
▁edəc	-1731
▁ölkəmiz	-1732
▁Həmin	-1733
▁Hüseyn	-1734
▁ruh	-1735
▁adlı	-1736
yə	-1737
emi	-1738
▁SSR	-1739
▁ölkənin	-1740
▁fakt	-1741
▁Təh	-1742
▁görün	-1743
▁qul	-1744
▁hakimiyyət	-1745
▁sağ	-1746
▁tel	-1747
▁keçirilməsi	-1748
masının	-1749
▁part	-1750
▁qı	-1751
▁təklif	-1752
▁17	-1753
əzər	-1754
of	-1755
▁Düny	-1756
▁keyf	-1757
▁mətb	-1758
▁bin	-1759
▁nəzarət	-1760
▁hələ	-1761
ami	-1762
▁un	-1763
oll	-1764
▁zəngin	-1765
▁mədəni	-1766
........	-1767
▁şeir	-1768
zib	-1769
▁mis	-1770
ektor	-1771
eyi	-1772
aşdır	-1773
▁St	-1774
lərimiz	-1775
▁silah	-1776
▁əsrin	-1777
▁may	-1778
▁bac	-1779
rib	-1780
▁dayan	-1781
▁məhz	-1782
),	-1783
əqliyyat	-1784
▁arz	-1785
acib	-1786
üst	-1787
▁alim	-1788
▁Prezidentinin	-1789
▁Naxçıvan	-1790
▁rəq	-1791
abinet	-1792
inq	-1793
ektiv	-1794
ütöv	-1795
▁bərp	-1796
▁qorun	-1797
▁təz	-1798
məsinə	-1799
duğu	-1800
▁ödən	-1801
▁gələcək	-1802
▁ma	-1803
▁informasiya	-1804
isinin	-1805
▁asılı	-1806
▁tez	-1807
▁jurnal	-1808
urs	-1809
▁Gənc	-1810
▁Vətən	-1811
▁ziy	-1812
▁çatdır	-1813
▁Beynəlxalq	-1814
iyyətlə	-1815
lıqlı	-1816
ərim	-1817
▁ter	-1818
▁cür	-1819
▁kat	-1820
ətlə	-1821
▁etməyə	-1822
▁yaxud	-1823
▁Türkiyə	-1824
▁cəlb	-1825
▁ənən	-1826
▁Komit	-1827
yon	-1828
▁məşğul	-1829
▁bəzi	-1830
▁Qey	-1831
▁müz	-1832
ensi	-1833
abər	-1834
nun	-1835
maqla	-1836
▁pr	-1837
▁olmayan	-1838
yun	-1839
▁mə	-1840
əxs	-1841
AR	-1842
▁necə	-1843
).	-1844
nın	-1845
ələrlə	-1846
▁qadın	-1847
▁sənay	-1848
▁qayı	-1849
▁vurğul	-1850
▁irəli	-1851
ıram	-1852
ələrdən	-1853
▁dünyanın	-1854
çu	-1855
həd	-1856
5.	-1857
lində	-1858
▁tamam	-1859
vi	-1860
▁sığ	-1861
sədi	-1862
ual	-1863
▁Ali	-1864
ımızın	-1865
".	-1866
malar	-1867
▁sədri	-1868
ürcü	-1869
ətli	-1870
▁ord	-1871
▁Meh	-1872
▁ola	-1873
▁ali	-1874
ibar	-1875
▁xoş	-1876
▁meydan	-1877
▁vacib	-1878
▁ail	-1879
▁AB	-1880
▁açıq	-1881
▁nəşr	-1882
▁nəs	-1883
▁abi	-1884
əqq	-1885
▁lazımdır	-1886
IN	-1887
▁16	-1888
inda	-1889
br	-1890
▁xər	-1891
▁müraciət	-1892
əlman	-1893
▁Bütün	-1894
▁kr	-1895
▁çərçivəsində	-1896
lanan	-1897
ser	-1898
lığının	-1899
▁zərur	-1900
▁vəsait	-1901
əkar	-1902
ağın	-1903
ES	-1904
çik	-1905
lak	-1906
əşdir	-1907
iyada	-1908
öb	-1909
▁əy	-1910
▁mühit	-1911
▁yön	-1912
▁olmaqla	-1913
▁prof	-1914
stitus	-1915
▁müzak	-1916
liyinə	-1917
omat	-1918
▁musiqi	-1919
▁şəhəri	-1920
zibati	-1921
▁13	-1922
las	-1923
▁ayr	-1924
▁mənt	-1925
▁14	-1926
▁məqsədi	-1927
ədii	-1928
▁məqsədilə	-1929
▁görül	-1930
▁Mərkəzi	-1931
▁bütöv	-1932
▁ağır	-1933
▁işləri	-1934
rar	-1935
▁İr	-1936
▁Şərq	-1937
▁təbii	-1938
▁qurum	-1939
▁şəhərində	-1940
▁İran	-1941
▁film	-1942
oqraf	-1943
adır	-1944
▁bərabər	-1945
▁dərin	-1946
▁lider	-1947
▁əməkdaşlıq	-1948
ost	-1949
alıq	-1950
vət	-1951
▁ür	-1952
▁dəstək	-1953
▁dövrdə	-1954
gin	-1955
laq	-1956
▁sahədə	-1957
alıdır	-1958
▁Kabinet	-1959
▁şərt	-1960
mil	-1961
uxarı	-1962
raz	-1963
▁məsul	-1964
▁fəl	-1965
manın	-1966
▁idey	-1967
▁məhkəm	-1968
▁peş	-1969
▁mənb	-1970
luğu	-1971
▁etdik	-1972
ris	-1973
▁daxili	-1974
▁hakimiyyəti	-1975
mı	-1976
ülh	-1977
▁sa	-1978
▁yoxdur	-1979
laşdırıl	-1980
▁olunub	-1981
alın	-1982
məti	-1983
iyyətli	-1984
▁layiq	-1985
▁qanunveric	-1986
▁kömək	-1987
▁Təb	-1988
ünas	-1989
▁avt	-1990
▁Dağ	-1991
▁Məs	-1992
öhbət	-1993
▁səmər	-1994
əbb	-1995
nı	-1996
▁müav	-1997
və	-1998
▁özü	-1999
aqiş	-2000
▁yaşayan	-2001
▁yad	-2002
▁hissəsi	-2003
əsilə	-2004
məz	-2005
▁sar	-2006
dənin	-2007
▁Şah	-2008
ırıq	-2009
▁şair	-2010
eks	-2011
▁dövründə	-2012
▁san	-2013
▁ün	-2014
▁qarşısında	-2015
▁ərazisində	-2016
▁stan	-2017
▁qarşılıqlı	-2018
dud	-2019
▁yaradılması	-2020
▁Mədən	-2021
▁dek	-2022
▁tikin	-2023
AY	-2024
▁birgə	-2025
lamaq	-2026
▁dünyada	-2027
▁3.	-2028
səf	-2029
▁həsr	-2030
▁material	-2031
▁ABŞ	-2032
▁abidə	-2033
”,	-2034
▁Türkiy	-2035
▁mətbu	-2036
əcəy	-2037
▁həmiş	-2038
▁Sən	-2039
▁Hac	-2040
▁keçmiş	-2041
irik	-2042
▁ora	-2043
▁istiqamətində	-2044
mayaraq	-2045
▁ort	-2046
▁hamı	-2047
▁vardır	-2048
izam	-2049
▁kiçik	-2050
▁rej	-2051
▁hav	-2052
▁məb	-2053
▁yat	-2054
ologiy	-2055
▁etibar	-2056
▁bundan	-2057
▁əhat	-2058
▁addım	-2059
▁Ümum	-2060
əxsus	-2061
▁Azərbaycana	-2062
andan	-2063
▁qır	-2064
amız	-2065
itab	-2066
▁adına	-2067
▁edirlər	-2068
▁məcbur	-2069
▁səlah	-2070
lənməsi	-2071
▁dön	-2072
▁şirk	-2073
▁Ancaq	-2074
iyyətinin	-2075
örmət	-2076
▁Öz	-2077
▁təsv	-2078
▁qat	-2079
▁birlikdə	-2080
lin	-2081
▁münaqiş	-2082
▁uzaq	-2083
▁dini	-2084
▁olacaq	-2085
▁nümayiş	-2086
kv	-2087
▁Böyük	-2088
▁əməliyyat	-2089
he	-2090
▁tör	-2091
▁işlə	-2092
milli	-2093
daşı	-2094
▁şöb	-2095
dılar	-2096
▁qəhrəm	-2097
▁yardım	-2098
▁indi	-2099
▁onlara	-2100
ləşdirilməsi	-2101
orta	-2102
▁inkişafına	-2103
▁eləcə	-2104
liyə	-2105
▁mənəvi	-2106
▁198	-2107
lor	-2108
▁Həm	-2109
ksiy	-2110
▁islah	-2111
ənab	-2112
lığını	-2113
gir	-2114
▁Akadem	-2115
za	-2116
▁AZ	-2117
eral	-2118
nə	-2119
▁verilməsi	-2120
ılıb	-2121
▁konf	-2122
çılıq	-2123
dığını	-2124
▁teatr	-2125
▁cinayət	-2126
▁güclü	-2127
ana	-2128
mam	-2129
▁bi	-2130
▁Ona	-2131
▁inc	-2132
çılar	-2133
iyyəsi	-2134
▁məm	-2135
üsü	-2136
▁ixtis	-2137
▁maliyyə	-2138
▁naziri	-2139
ələrindən	-2140
əncam	-2141
▁qarş	-2142
▁istər	-2143
▁düşmən	-2144
▁idman	-2145
▁Allah	-2146
▁qaç	-2147
▁tox	-2148
▁edilib	-2149
lat	-2150
çısı	-2151
ss	-2152
lamış	-2153
▁Qeyd	-2154
lament	-2155
▁Qur	-2156
örd	-2157
dəki	-2158
▁hətta	-2159
suz	-2160
▁Qaz	-2161
▁hab	-2162
lim	-2163
▁İc	-2164
ida	-2165
ucu	-2166
iqtis	-2167
etik	-2168
▁yüz	-2169
▁müdafiə	-2170
▁hüc	-2171
▁birləş	-2172
▁müqavil	-2173
▁rə	-2174
▁həmişə	-2175
ənn	-2176
▁demokrat	-2177
▁küt	-2178
dul	-2179
▁strat	-2180
▁istis	-2181
▁hissə	-2182
▁sin	-2183
▁sub	-2184
▁icr	-2185
▁həqiq	-2186
▁bazar	-2187
zim	-2188
▁yarım	-2189
▁üzvü	-2190
▁üsul	-2191
▁cəhət	-2192
▁edirəm	-2193
▁Ay	-2194
▁Burada	-2195
▁bədii	-2196
mayıl	-2197
ktyabr	-2198
çisi	-2199
▁buna	-2200
▁dövlətin	-2201
▁gir	-2202
▁Bakıda	-2203
▁mühaf	-2204
▁tanış	-2205
▁dəqiq	-2206
▁İnstitut	-2207
sının	-2208
▁bunu	-2209
sman	-2210
▁vasitəsilə	-2211
▁sur	-2212
▁ehtiy	-2213
iqtisadi	-2214
acağ	-2215
▁sonr	-2216
əlil	-2217
▁sıx	-2218
▁Mirz	-2219
▁J	-2220
▁nəqliyyat	-2221
▁Ər	-2222
▁[	-2223
aziş	-2224
▁ədəbi	-2225
▁şəh	-2226
▁Ölk	-2227
▁habelə	-2228
▁eş	-2229
▁ins	-2230
▁maraqlı	-2231
▁profes	-2232
▁İslam	-2233
ec	-2234
icarət	-2235
▁Di	-2236
▁yaşayış	-2237
▁uğr	-2238
ələ	-2239
ahat	-2240
vər	-2241
▁gül	-2242
▁baxmayaraq	-2243
▁pul	-2244
▁çap	-2245
nik	-2246
ahidə	-2247
▁müəllif	-2248
prel	-2249
entyabr	-2250
liğ	-2251
şa	-2252
ımı	-2253
▁başçısı	-2254
▁onları	-2255
▁rəng	-2256
tib	-2257
▁Mu	-2258
▁At	-2259
▁doğru	-2260
▁aydın	-2261
▁burax	-2262
▁xadi	-2263
▁sərhəd	-2264
▁dəniz	-2265
anlar	-2266
▁İttifaq	-2267
▁əhəmiyyətli	-2268
üç	-2269
lığında	-2270
atur	-2271
▁təmsil	-2272
▁sayı	-2273
uzey	-2274
əliy	-2275
▁sadə	-2276
kəmli	-2277
▁həd	-2278
şünas	-2279
▁Azər	-2280
▁Həsən	-2281
▁xalqın	-2282
▁edəcək	-2283
▁müsəlman	-2284
▁turizm	-2285
▁sülh	-2286
▁sor	-2287
▁mod	-2288
▁ərazilər	-2289
asim	-2290
▁başladı	-2291
▁Fond	-2292
▁bor	-2293
▁üstün	-2294
şıq	-2295
▁duy	-2296
asiyası	-2297
ƏT	-2298
▁rəsmi	-2299
▁olmay	-2300
▁tapş	-2301
▁yeri	-2302
lanır	-2303
iət	-2304
▁Konstitus	-2305
▁sat	-2306
▁Tur	-2307
▁Bel	-2308
dum	-2309
▁Kom	-2310
▁dərs	-2311
▁Mos	-2312
▁daim	-2313
üy	-2314
pər	-2315
çək	-2316
▁ab	-2317
▁Dağlıq	-2318
▁yüksəl	-2319
▁Onlar	-2320
▁olundu	-2321
▁çağır	-2322
▁əhatə	-2323
urdu	-2324
▁qət	-2325
oyabr	-2326
▁sim	-2327
▁özünün	-2328
▁lakin	-2329
lil	-2330
dəs	-2331
▁yığ	-2332
siniz	-2333
▁Mədəniyyət	-2334
▁milyon	-2335
oh	-2336
▁30	-2337
▁göstərən	-2338
▁təbliğ	-2339
cüm	-2340
▁ehtiya	-2341
▁dipl	-2342
▁Tərəf	-2343
▁komp	-2344
▁qap	-2345
▁şah	-2346
▁Cənub	-2347
ıı	-2348
▁AZƏR	-2349
üfuz	-2350
▁qayğı	-2351
▁inzibati	-2352
qt	-2353
▁Bundan	-2354
etmə	-2355
məklə	-2356
▁Məhəmməd	-2357
▁veril	-2358
▁verilir	-2359
məyi	-2360
▁aradan	-2361
ektoru	-2362
ləyir	-2363
▁şəxsiyyət	-2364
▁tal	-2365
▁söhbət	-2366
▁eks	-2367
▁ölkədə	-2368
▁Gör	-2369
▁Azar	-2370
2.	-2371
▁stat	-2372
▁olsun	-2373
▁fiz	-2374
lıqla	-2375
▁təşəbb	-2376
▁olunmuşdur	-2377
6.	-2378
▁araşdır	-2379
liklə	-2380
arası	-2381
▁struktur	-2382
▁qis	-2383
▁keçirilir	-2384
▁səy	-2385
▁mon	-2386
▁kənar	-2387
▁nüfuz	-2388
vest	-2389
▁Gürcü	-2390
▁Par	-2391
▁kompl	-2392
▁edildi	-2393
arif	-2394
▁uğrunda	-2395
əll	-2396
▁of	-2397
▁div	-2398
1.	-2399
▁mərkəzi	-2400
imal	-2401
indəki	-2402
aman	-2403
▁mük	-2404
▁mübarizə	-2405
▁öndər	-2406
▁səviyyədə	-2407
▁ba	-2408
bəy	-2409
▁yerləşən	-2410
ləndirilməsi	-2411
əmiyyəti	-2412
▁dekabr	-2413
▁İsmayıl	-2414
▁kin	-2415
▁:	-2416
▁25	-2417
ani	-2418
atları	-2419
▁Təd	-2420
▁202	-2421
▁almaq	-2422
▁göstərilən	-2423
▁ide	-2424
▁val	-2425
ətdə	-2426
▁qəs	-2427
▁qardaş	-2428
lüy	-2429
▁uç	-2430
▁razı	-2431
▁dili	-2432
▁ölüm	-2433
mrük	-2434
▁Yeni	-2435
▁fəlsəf	-2436
▁təx	-2437
▁Əhməd	-2438
▁tab	-2439
▁beş	-2440
▁səf	-2441
▁hökm	-2442
düyü	-2443
ata	-2444
▁aparıl	-2445
▁xatır	-2446
▁insanların	-2447
▁Dünya	-2448
dalət	-2449
▁xüsusiyyət	-2450
▁xərc	-2451
əxt	-2452
▁əhalinin	-2453
str	-2454
▁müavini	-2455
adığı	-2456
▁giz	-2457
▁Nazirliyinin	-2458
▁yerdə	-2459
▁Moskv	-2460
▁imzalan	-2461
dikdə	-2462
qır	-2463
cıl	-2464
mür	-2465
▁bal	-2466
▁məşhur	-2467
▁Şuş	-2468
inc	-2469
▁197	-2470
əff	-2471
▁mu	-2472
▁inan	-2473
▁ondan	-2474
▁Əgər	-2475
▁məruz	-2476
six	-2477
▁191	-2478
▁itir	-2479
▁amil	-2480
▁ibarətdir	-2481
▁bilməz	-2482
▁bərpa	-2483
ement	-2484
▁daşıy	-2485
▁II	-2486
▁kar	-2487
iliyi	-2488
▁ölkəmizin	-2489
tub	-2490
▁məbləğ	-2491
▁fərqli	-2492
ici	-2493
▁məqal	-2494
▁büd	-2495
ni	-2496
▁SSRİ	-2497
▁illik	-2498
abiq	-2499
etr	-2500
eyt	-2501
▁xeyli	-2502
əliklə	-2503
bas	-2504
▁oktyabr	-2505
▁orq	-2506
▁sentyabr	-2507
▁1-	-2508
əri	-2509
▁işıq	-2510
▁tutulmuş	-2511
ahim	-2512
gent	-2513
▁ancaq	-2514
▁üs	-2515
▁ölç	-2516
▁ör	-2517
anə	-2518
▁çay	-2519
▁mükaf	-2520
▁hücum	-2521
▁Əmək	-2522
mur	-2523
▁pot	-2524
isti	-2525
▁fil	-2526
▁məntəq	-2527
▁kəndi	-2528
amaq	-2529
▁ger	-2530
▁etsin	-2531
▁imt	-2532
▁rəhbərliyi	-2533
▁sözü	-2534
▁Əb	-2535
▁mi	-2536
▁kitabxan	-2537
▁verdi	-2538
▁tanı	-2539
▁Kr	-2540
▁azal	-2541
ümüz	-2542
▁ham	-2543
mədən	-2544
▁maddi	-2545
övq	-2546
▁Osman	-2547
▁Ermənist	-2548
ayrı	-2549
▁bəyan	-2550
pi	-2551
▁müşahidə	-2552
siyasi	-2553
▁şəxsi	-2554
▁kif	-2555
▁XX	-2556
▁gedən	-2557
▁uc	-2558
▁təlim	-2559
ülən	-2560
▁tip	-2561
▁noyabr	-2562
umuz	-2563
▁həc	-2564
▁enerji	-2565
▁dokt	-2566
▁mübariz	-2567
▁səmərəli	-2568
▁verilən	-2569
▁texniki	-2570
▁uğurla	-2571
▁siyasəti	-2572
▁aprel	-2573
▁yanında	-2574
▁potensi	-2575
▁Bununla	-2576
əsidir	-2577
▁təkcə	-2578
▁dedi	-2579
▁yönəl	-2580
▁mənə	-2581
kilər	-2582
əfli	-2583
▁Sonra	-2584
mamış	-2585
edit	-2586
▁hallarda	-2587
gen	-2588
iyahı	-2589
▁elan	-2590
ədir	-2591
lob	-2592
▁gedir	-2593
işi	-2594
BAY	-2595
▁dörd	-2596
▁yuxarı	-2597
▁verilm	-2598
oğlu	-2599
CAN	-2600
ökum	-2601
bar	-2602
▁baxımından	-2603
pan	-2604
▁keyfiyyət	-2605
▁gər	-2606
▁görür	-2607
▁İdar	-2608
▁görkəmli	-2609
onal	-2610
▁qaldır	-2611
ks	-2612
adil	-2613
▁əksər	-2614
000	-2615
onun	-2616
eli	-2617
▁kil	-2618
ahib	-2619
▁tib	-2620
▁sənətkar	-2621
▁hörmət	-2622
▁süb	-2623
▁bunun	-2624
layır	-2625
▁koll	-2626
BAYCAN	-2627
▁tərtib	-2628
EV	-2629
▁tərəfdən	-2630
▁Alman	-2631
7.	-2632
▁sə	-2633
▁kök	-2634
obil	-2635
alarında	-2636
itar	-2637
sik	-2638
▁yəni	-2639
ski	-2640
▁vahid	-2641
▁göstəric	-2642
▁dəyişikliklər	-2643
▁Azarbaycan	-2644
olk	-2645
▁müəyyənləşdir	-2646
▁insanlar	-2647
▁ticarət	-2648
yev	-2649
▁zəruri	-2650
▁xüsusilə	-2651
▁tənzim	-2652
ayır	-2653
▁xatir	-2654
▁aparılan	-2655
▁kifayət	-2656
▁xalqının	-2657
▁Mad	-2658
▁təsvir	-2659
▁axtar	-2660
▁İst	-2661
▁Eyni	-2662
ell	-2663
daq	-2664
▁qaydada	-2665
▁seçki	-2666
▁geri	-2667
▁qov	-2668
azırda	-2669
▁olsa	-2670
ama	-2671
▁şəxslər	-2672
lır	-2673
▁dilində	-2674
▁Kitab	-2675
▁düzgün	-2676
lanması	-2677
▁Cav	-2678
0.	-2679
▁fun	-2680
lənir	-2681
▁mar	-2682
oli	-2683
əşkil	-2684
▁yaradır	-2685
lığına	-2686
▁sovet	-2687
▁çev	-2688
▁elektron	-2689
▁196	-2690
▁ermənilər	-2691
ətə	-2692
▁mart	-2693
▁məktub	-2694
▁təmiz	-2695
dart	-2696
exan	-2697
uman	-2698
▁ixtisas	-2699
▁tərcüm	-2700
iyi	-2701
▁kütlə	-2702
▁ifa	-2703
iniz	-2704
lobal	-2705
yor	-2706
▁har	-2707
▁yanvar	-2708
bul	-2709
əddin	-2710
qust	-2711
▁məhdud	-2712
mal	-2713
▁22	-2714
say	-2715
▁Tarix	-2716
▁qəhrəman	-2717
▁tarixində	-2718
▁sübut	-2719
übh	-2720
ələndir	-2721
alarına	-2722
qar	-2723
▁bayram	-2724
iyaya	-2725
taxt	-2726
laşdırılması	-2727
▁nis	-2728
▁məsələləri	-2729
▁reda	-2730
▁cənab	-2731
▁mülk	-2732
▁orada	-2733
gird	-2734
izami	-2735
▁keçirilm	-2736
▁bacar	-2737
▁nəticə	-2738
LİY	-2739
▁fevr	-2740
▁mətbuat	-2741
▁məni	-2742
▁bilir	-2743
zi	-2744
mid	-2745
▁Xəzər	-2746
▁Buna	-2747
gilis	-2748
aha	-2749
dək	-2750
▁ailə	-2751
▁birləşdir	-2752
▁nar	-2753
▁qərara	-2754
ibi	-2755
▁professor	-2756
▁qeydiyyat	-2757
▁sabit	-2758
▁konfrans	-2759
əssam	-2760
▁rom	-2761
▁çar	-2762
mar	-2763
brahim	-2764
▁iddi	-2765
▁fəaliyyətinin	-2766
▁yaxş	-2767
anına	-2768
əyən	-2769
ğın	-2770
▁Mus	-2771
▁qabil	-2772
▁Bay	-2773
lisi	-2774
▁İqtis	-2775
apit	-2776
ılmışdır	-2777
▁Cənubi	-2778
▁kiş	-2779
qil	-2780
iyar	-2781
ror	-2782
umu	-2783
▁bəh	-2784
kə	-2785
▁rayonunun	-2786
sında	-2787
▁avadan	-2788
▁iştirakçı	-2789
▁qoşun	-2790
▁gəlib	-2791
əbək	-2792
vestis	-2793
▁tətbiqi	-2794
▁jurnalist	-2795
▁verdiyi	-2796
▁Amer	-2797
alarda	-2798
8.	-2799
▁manat	-2800
▁fiziki	-2801
▁sektor	-2802
anının	-2803
▁ust	-2804
▁AZƏRBAYCAN	-2805
əsənət	-2806
▁müsbət	-2807
▁nam	-2808
▁öv	-2809
▁anlay	-2810
▁yaxşılaş	-2811
atların	-2812
sert	-2813
▁mət	-2814
şaq	-2815
▁Bil	-2816
▁mür	-2817
▁Təşkil	-2818
▁deyə	-2819
ləh	-2820
▁21	-2821
▁rəhbəri	-2822
▁Elə	-2823
usunun	-2824
▁etməsi	-2825
▁qısa	-2826
▁aşkar	-2827
▁Br	-2828
▁vermək	-2829
▁4.	-2830
məli	-2831
▁oxuy	-2832
eyh	-2833
▁sənaye	-2834
riban	-2835
alara	-2836
▁sistemi	-2837
▁kan	-2838
▁olmalıdır	-2839
MT	-2840
ğa	-2841
▁24	-2842
▁dünyaya	-2843
▁ətrafında	-2844
əndi	-2845
mır	-2846
dıl	-2847
▁day	-2848
adüf	-2849
▁amma	-2850
mas	-2851
mada	-2852
madan	-2853
▁uğurlu	-2854
pert	-2855
▁faiz	-2856
▁ehtiyac	-2857
▁bizə	-2858
▁məqam	-2859
əmə	-2860
▁musiq	-2861
bə	-2862
rac	-2863
mda	-2864
▁ağac	-2865
eviz	-2866
▁ölkəmizdə	-2867
namə	-2868
▁günü	-2869
diri	-2870
əkkür	-2871
▁hesabına	-2872
▁tay	-2873
▁baxış	-2874
ultan	-2875
adr	-2876
▁meda	-2877
▁siyahı	-2878
siyası	-2879
luğun	-2880
AT	-2881
▁sağlam	-2882
▁təsərrüfatı	-2883
dədir	-2884
▁borc	-2885
▁malikdir	-2886
ind	-2887
anıb	-2888
▁salın	-2889
▁Komissiy	-2890
▁quruc	-2891
asp	-2892
▁qalan	-2893
▁quruluş	-2894
▁dərəcədə	-2895
▁qızı	-2896
▁işçilər	-2897
bəttə	-2898
▁sığorta	-2899
▁öh	-2900
lıb	-2901
▁qonaq	-2902
ülmüş	-2903
ars	-2904
yas	-2905
▁baxımdan	-2906
▁boyu	-2907
",	-2908
▁Ən	-2909
▁böy	-2910
alının	-2911
▁ədalət	-2912
qo	-2913
▁Part	-2914
▁növbəti	-2915
dikdən	-2916
▁imzal	-2917
201	-2918
▁saylı	-2919
▁etməklə	-2920
▁23	-2921
▁şəhid	-2922
axı	-2923
▁100	-2924
▁heyvan	-2925
▁hökumət	-2926
əxəssis	-2927
▁adət	-2928
▁tərb	-2929
▁isteda	-2930
▁dep	-2931
▁sahibkar	-2932
fer	-2933
rast	-2934
▁tamaş	-2935
▁normativ	-2936
▁töh	-2937
uluq	-2938
▁prezidenti	-2939
▁kam	-2940
hiz	-2941
▁təkmil	-2942
▁bunlar	-2943
▁yek	-2944
▁Cüm	-2945
sını	-2946
▁imper	-2947
uli	-2948
▁iyul	-2949
▁Ax	-2950
ubil	-2951
▁demokratik	-2952
ırdılar	-2953
PU	-2954
kret	-2955
▁pozul	-2956
▁ulu	-2957
▁bitir	-2958
LİK	-2959
eji	-2960
▁bələdiyyəsi	-2961
mər	-2962
▁mövzu	-2963
estiv	-2964
▁psix	-2965
▁Yer	-2966
▁İndi	-2967
▁deyir	-2968
▁ölkələri	-2969
mayan	-2970
▁işi	-2971
▁yetiş	-2972
▁mexan	-2973
larımızın	-2974
ümü	-2975
▁Abbas	-2976
▁Art	-2977
▁194	-2978
▁element	-2979
▁parç	-2980
▁Muxtar	-2981
▁Xoc	-2982
▁İbrahim	-2983
bu	-2984
məlidir	-2985
▁rəhbərlik	-2986
pərvər	-2987
▁alır	-2988
▁bildirdi	-2989
muşdur	-2990
▁tədris	-2991
▁işə	-2992
▁Beləliklə	-2993
▁obraz	-2994
▁Məmmədov	-2995
▁Osmanlı	-2996
ill	-2997
▁Bak	-2998
▁sisteminin	-2999
▁danışıq	-3000
AM	-3001
▁raz	-3002
▁mem	-3003
▁keçən	-3004
▁ada	-3005
▁sın	-3006
▁Mirzə	-3007
▁standart	-3008
▁şü	-3009
omatik	-3010
▁Mal	-3011
▁namiz	-3012
▁xal	-3013
▁Əsas	-3014
Zİ	-3015
▁müzakirə	-3016
▁mövqe	-3017
▁töhf	-3018
▁şəxslərin	-3019
▁sual	-3020
▁Məhkəm	-3021
dıqdan	-3022
əcəkdir	-3023
▁komissiy	-3024
▁Maddə	-3025
alıb	-3026
uya	-3027
mağı	-3028
1,	-3029
▁məxsus	-3030
▁yazıçı	-3031
exniki	-3032
▁bildirib	-3033
▁insanın	-3034
▁texnologiy	-3035
▁önəm	-3036
▁qəsəb	-3037
▁ləğ	-3038
usunda	-3039
▁Qor	-3040
▁universitet	-3041
arlıq	-3042
▁avqust	-3043
əddəs	-3044
▁yenə	-3045
▁şagird	-3046
▁Ulu	-3047
manı	-3048
▁ehtiyat	-3049
ƏN	-3050
▁əmin	-3051
alarını	-3052
▁Elm	-3053
sına	-3054
▁Nizami	-3055
▁məsələ	-3056
▁Səf	-3057
▁şəbək	-3058
▁miqdar	-3059
lad	-3060
▁Bun	-3061
▁gü	-3062
başa	-3063
▁üzərinə	-3064
aqq	-3065
diki	-3066
ayis	-3067
▁XI	-3068
tez	-3069
▁alınması	-3070
▁Əf	-3071
▁dövlətinin	-3072
▁mübadil	-3073
▁Təhsil	-3074
əncə	-3075
▁Məsələn	-3076
▁1,	-3077
olu	-3078
lama	-3079
dikləri	-3080
▁məsələlər	-3081
▁gərgin	-3082
EN	-3083
▁BMT	-3084
▁sav	-3085
▁alan	-3086
ətləri	-3087
diyev	-3088
▁ölkələrin	-3089
▁oxucu	-3090
lüyü	-3091
▁səhn	-3092
oğraf	-3093
ayıb	-3094
▁Gün	-3095
▁pers	-3096
isinə	-3097
▁tamamilə	-3098
ing	-3099
sen	-3100
▁təsərrüfat	-3101
▁bununla	-3102
ləmək	-3103
▁maddələr	-3104
▁faci	-3105
▁işlən	-3106
▁azadlıq	-3107
▁nailiyyət	-3108
mu	-3109
▁tikintis	-3110
▁tutur	-3111
▁təchiz	-3112
lış	-3113
omobil	-3114
▁mahnı	-3115
baş	-3116
LİYEV	-3117
▁zərər	-3118
▁2-	-3119
sinə	-3120
ag	-3121
ıldı	-3122
əyan	-3123
▁etir	-3124
▁özünə	-3125
▁Kam	-3126
aric	-3127
▁orqanlarının	-3128
▁192	-3129
▁27	-3130
▁Hacı	-3131
▁qorx	-3132
▁verib	-3133
▁gömrük	-3134
▁olmadı	-3135
▁Abdul	-3136
▁Şurasının	-3137
▁kapit	-3138
▁təkrar	-3139
▁yubil	-3140
▁Xarici	-3141
linin	-3142
asil	-3143
▁Şir	-3144
rasiya	-3145
▁Mah	-3146
▁RES	-3147
▁paytaxt	-3148
▁həv	-3149
▁Hökum	-3150
İY	-3151
▁Təs	-3152
▁kör	-3153
▁rast	-3154
▁investis	-3155
dəlik	-3156
ışı	-3157
▁direktoru	-3158
maqda	-3159
▁dövləti	-3160
▁cəz	-3161
PUB	-3162
LƏR	-3163
▁fayda	-3164
rastruktur	-3165
10	-3166
▁hazırlanması	-3167
▁kəmər	-3168
▁Məcəll	-3169
▁gəlmiş	-3170
▁konkret	-3171
▁mütəxəssis	-3172
▁sonrakı	-3173
▁the	-3174
uk	-3175
▁növbədə	-3176
▁RESPUB	-3177
qın	-3178
▁nümayəndələri	-3179
▁edirik	-3180
ASI	-3181
▁rolu	-3182
mat	-3183
▁müsabiq	-3184
▁saat	-3185
▁Hazırda	-3186
▁vər	-3187
hal	-3188
▁terror	-3189
▁ödə	-3190
▁meydana	-3191
eqor	-3192
▁bəst	-3193
▁hüququ	-3194
qilab	-3195
▁qabaq	-3196
▁mərasim	-3197
adir	-3198
▁maddəsinin	-3199
▁öldür	-3200
▁adlandır	-3201
mü	-3202
▁küç	-3203
▁Seç	-3204
▁anadan	-3205
▁Universitetinin	-3206
▁Dər	-3207
▁gec	-3208
▁əmlak	-3209
▁gündən	-3210
50	-3211
▁xalqı	-3212
▁sədr	-3213
▁tamaşa	-3214
iyyətin	-3215
▁akadem	-3216
▁bəhs	-3217
▁dəmir	-3218
məsini	-3219
▁aləm	-3220
▁qələb	-3221
eder	-3222
▁mədəniyyəti	-3223
▁vermiş	-3224
əkkəb	-3225
▁olduğun	-3226
ərdə	-3227
2,	-3228
▁vəziyyəti	-3229
ig	-3230
tik	-3231
▁*	-3232
udi	-3233
▁parlament	-3234
əvv	-3235
res	-3236
▁res	-3237
▁şəxsin	-3238
▁RESPUBLİK	-3239
lanmış	-3240
▁dis	-3241
▁İnsan	-3242
▁Min	-3243
▁tanınmış	-3244
▁28	-3245
▁məhv	-3246
▁qlobal	-3247
▁Sal	-3248
▁adını	-3249
▁oy	-3250
▁infrastruktur	-3251
▁iyun	-3252
▁Rayon	-3253
xal	-3254
▁ƏLİYEV	-3255
▁toxun	-3256
▁Qul	-3257
▁bul	-3258
▁ürək	-3259
▁0,	-3260
▁səhif	-3261
▁sahələrdə	-3262
▁Yar	-3263
▁tar	-3264
▁qurğu	-3265
oloq	-3266
▁Şəhər	-3267
▁la	-3268
▁oyun	-3269
▁Xid	-3270
inal	-3271
▁Neft	-3272
məsinin	-3273
▁maş	-3274
ğunun	-3275
▁qüvvəyə	-3276
▁xil	-3277
▁Çox	-3278
▁kadr	-3279
lərarası	-3280
duq	-3281
▁onda	-3282
▁bilik	-3283
▁Respublikasında	-3284
▁Qanununun	-3285
land	-3286
▁içər	-3287
laşma	-3288
▁bən	-3289
TA	-3290
qur	-3291
bəxt	-3292
................	-3293
▁məlumatlar	-3294
istik	-3295
▁orqanları	-3296
diş	-3297
▁•	-3298
▁qoruy	-3299
▁ilkin	-3300
▁elektrik	-3301
▁inkişafında	-3302
anlı	-3303
▁əsl	-3304
▁fevral	-3305
▁ölkələrdə	-3306
▁Saziş	-3307
▁qayn	-3308
▁tənq	-3309
▁sayəsində	-3310
▁həlli	-3311
▁biridir	-3312
▁Müh	-3313
tərəfli	-3314
▁köçür	-3315
▁İk	-3316
▁yağ	-3317
▁müddətində	-3318
enin	-3319
▁zon	-3320
▁büdc	-3321
▁keçiril	-3322
▁məsləh	-3323
▁Bəz	-3324
▁Cümhur	-3325
3,	-3326
▁qarış	-3327
diyim	-3328
▁Ölkə	-3329
▁oper	-3330
▁cəhətdən	-3331
▁müqayis	-3332
▁ləğv	-3333
▁Ģ	-3334
idir	-3335
▁zir	-3336
layan	-3337
▁başlamış	-3338
▁ardı	-3339
▁davamlı	-3340
issor	-3341
▁alıb	-3342
▁Müs	-3343
▁qərarı	-3344
▁о	-3345
▁ana	-3346
acaqdır	-3347
liyində	-3348
▁arasındakı	-3349
iyaz	-3350
▁Fran	-3351
▁məhkəmə	-3352
▁29	-3353
▁təhlil	-3354
▁əsaslı	-3355
mələri	-3356
ləyən	-3357
▁Sosial	-3358
▁kredit	-3359
əlim	-3360
▁razılaş	-3361
▁Ermənistanın	-3362
▁vil	-3363
▁icaz	-3364
met	-3365
▁iştirakı	-3366
▁verilmiş	-3367
▁soyqır	-3368
▁tədbirlərin	-3369
▁Fondunun	-3370
▁qayıt	-3371
▁fak	-3372
▁başq	-3373
▁kor	-3374
▁yerə	-3375
gah	-3376
▁kütləvi	-3377
▁26	-3378
▁ötən	-3379
▁Və	-3380
məsində	-3381
▁fəx	-3382
▁qanunvericilik	-3383
▁metod	-3384
▁Proqram	-3385
▁zə	-3386
▁etdirən	-3387
tr	-3388
▁doğma	-3389
▁tan	-3390
III	-3391
ahan	-3392
▁Kənd	-3393
▁§	-3394
▁olmaz	-3395
▁ört	-3396
▁cənub	-3397
usif	-3398
;.	-3399
▁gerçək	-3400
und	-3401
▁Kor	-3402
əcəyi	-3403
▁Teatr	-3404
▁mürəkkəb	-3405
▁boş	-3406
əbh	-3407
▁195	-3408
▁tem	-3409
ven	-3410
▁tayf	-3411
▁ingilis	-3412
ləq	-3413
şu	-3414
▁Kabinetinin	-3415
▁inşa	-3416
ləşmiş	-3417
ovr	-3418
5,	-3419
əth	-3420
▁Bizim	-3421
masından	-3422
▁sərəncam	-3423
▁düşür	-3424
▁Onların	-3425
arkən	-3426
▁əb	-3427
aloq	-3428
▁əvvəlki	-3429
lükdə	-3430
▁daxilində	-3431
edici	-3432
▁dağı	-3433
▁meş	-3434
▁xadim	-3435
hş	-3436
əki	-3437
▁5.	-3438
▁özündə	-3439
▁Bunun	-3440
▁mövqey	-3441
▁50	-3442
▁əsərləri	-3443
asiyasının	-3444
▁bank	-3445
▁qulluq	-3446
▁əmələ	-3447
iyyətini	-3448
dük	-3449
layıb	-3450
▁qızıl	-3451
mənin	-3452
▁məzm	-3453
çiliy	-3454
▁başlı	-3455
▁xətt	-3456
▁Gürcüstan	-3457
▁Cəfər	-3458
▁ov	-3459
▁Birinci	-3460
aj	-3461
▁dar	-3462
▁yerləşdir	-3463
▁cəmiyyətin	-3464
▁təşkili	-3465
▁Re	-3466
▁funksiy	-3467
▁doktoru	-3468
▁təəss	-3469
▁əlaqələrin	-3470
▁ömr	-3471
7,	-3472
ülü	-3473
▁Digər	-3474
▁Komitəsinin	-3475
məmiş	-3476
landırıl	-3477
4,	-3478
▁hazırda	-3479
▁bol	-3480
▁ziyalı	-3481
▁ümummilli	-3482
▁istiqamətdə	-3483
▁ərəb	-3484
ğam	-3485
dıqları	-3486
▁Məhz	-3487
▁rəssam	-3488
▁təsis	-3489
▁şübh	-3490
▁müzakir	-3491
▁ayında	-3492
▁aq	-3493
edaqo	-3494
ahət	-3495
▁töv	-3496
▁Ord	-3497
▁Bal	-3498
▁qoşul	-3499
▁istedad	-3500
▁institut	-3501
▁İşlər	-3502
▁aparıcı	-3503
arəti	-3504
apon	-3505
▁qorunması	-3506
▁dəvət	-3507
▁Qız	-3508
▁xalqımızın	-3509
ılmaz	-3510
▁Mək	-3511
▁ardıcıl	-3512
ekay	-3513
▁dəyişdir	-3514
▁gəldi	-3515
▁rayonu	-3516
salı	-3517
ka	-3518
▁Xüsus	-3519
eyin	-3520
İNİN	-3521
▁içində	-3522
arın	-3523
▁193	-3524
▁təsiri	-3525
▁avtomobil	-3526
▁səlahiyyət	-3527
▁fəaliyyətini	-3528
ix	-3529
▁kurs	-3530
▁müharibə	-3531
adət	-3532
asım	-3533
▁Gəncə	-3534
ədək	-3535
▁etdilər	-3536
▁işlərin	-3537
▁vergi	-3538
ça	-3539
▁məsləhət	-3540
▁strateji	-3541
▁zəif	-3542
int	-3543
▁Su	-3544
İK	-3545
məs	-3546
▁dövrü	-3547
▁aparılması	-3548
▁nöqt	-3549
▁yazır	-3550
▁Tədbir	-3551
▁təf	-3552
▁Sultan	-3553
▁tutulan	-3554
▁bəzən	-3555
▁rejim	-3556
▁özəl	-3557
▁maarif	-3558
əmir	-3559
▁məcburi	-3560
əbbət	-3561
ayn	-3562
müşdür	-3563
6,	-3564
▁sif	-3565
▁arzu	-3566
▁ümid	-3567
▁ser	-3568
▁yaradıcılıq	-3569
▁mas	-3570
▁aktyor	-3571
ült	-3572
▁icrası	-3573
abil	-3574
inki	-3575
duz	-3576
▁olmayaraq	-3577
▁əş	-3578
▁bayr	-3579
▁sahil	-3580
▁fon	-3581
▁kəsb	-3582
dikcə	-3583
▁izah	-3584
▁XV	-3585
val	-3586
▁tapşır	-3587
▁ef	-3588
▁Qanun	-3589
▁hesabat	-3590
▁peşəkar	-3591
▁subyekt	-3592
00-	-3593
▁suy	-3594
▁Səh	-3595
▁ordu	-3596
▁adından	-3597
▁düzəl	-3598
▁deput	-3599
işli	-3600
məyən	-3601
▁etdirir	-3602
▁Göy	-3603
iləşdir	-3604
▁əlamət	-3605
▁Sey	-3606
▁çevir	-3607
▁edək	-3608
▁Qayda	-3609
▁regional	-3610
▁tədqiq	-3611
ilməsini	-3612
▁silahlı	-3613
9.	-3614
▁yarı	-3615
▁Qərb	-3616
aks	-3617
▁səmi	-3618
▁çünki	-3619
8,	-3620
▁toplan	-3621
▁Dem	-3622
▁üçüncü	-3623
▁Xocalı	-3624
▁xaric	-3625
▁Sil	-3626
▁üstünlük	-3627
▁qo	-3628
▁təzy	-3629
ge	-3630
kur	-3631
▁siz	-3632
sub	-3633
▁əgər	-3634
▁hissəsində	-3635
▁qapı	-3636
▁Daha	-3637
▁kons	-3638
▁Mehriban	-3639
▁körp	-3640
çiləri	-3641
iyalar	-3642
▁təsadüf	-3643
▁Ver	-3644
▁coğraf	-3645
▁birbaşa	-3646
▁nəsil	-3647
mini	-3648
▁inam	-3649
əbs	-3650
▁təbiət	-3651
▁fond	-3652
▁bağlıdır	-3653
▁sir	-3654
▁40	-3655
▁olduqda	-3656
▁Azərbaycanı	-3657
▁bür	-3658
ikası	-3659
▁yaratmaq	-3660
▁Xan	-3661
▁surətdə	-3662
urd	-3663
▁Müəlli	-3664
▁Sab	-3665
arlar	-3666
ənilən	-3667
▁Kat	-3668
▁Yusif	-3669
▁doğur	-3670
məl	-3671
gör	-3672
▁Turizm	-3673
▁İkinci	-3674
▁mühafiz	-3675
▁illərində	-3676
▁hava	-3677
▁nəh	-3678
unt	-3679
▁muzey	-3680
▁namizəd	-3681
▁qalx	-3682
▁müəllifi	-3683
arə	-3684
▁İlk	-3685
əriman	-3686
▁3-	-3687
lann	-3688
▁verg	-3689
▁təbrik	-3690
▁İcra	-3691
▁ayır	-3692
▁olduqca	-3693
▁Top	-3694
ağız	-3695
▁nizam	-3696
▁dərc	-3697
tan	-3698
▁yerləşir	-3699
mizi	-3700
▁qəlb	-3701
▁qiymətli	-3702
atına	-3703
▁ixrac	-3704
▁edilməsinə	-3705
illik	-3706
▁televiz	-3707
▁ci	-3708
▁Mil	-3709
ikasiya	-3710
▁kompleks	-3711
▁Siz	-3712
▁radi	-3713
bəst	-3714
▁Şam	-3715
kum	-3716
▁etdirilməsi	-3717
▁keçirilib	-3718
▁münasibətilə	-3719
eyr	-3720
▁Yax	-3721
▁sini	-3722
ılmasına	-3723
▁respublikamız	-3724
▁məsuliyyət	-3725
▁qaytar	-3726
▁daşın	-3727
▁səc	-3728
▁yum	-3729
▁Füz	-3730
▁qüd	-3731
▁çoxlu	-3732
▁yaşam	-3733
▁Frans	-3734
lunun	-3735
iyasında	-3736
▁Yəni	-3737
dr	-3738
▁rayonunda	-3739
▁əsrdə	-3740
lənən	-3741
ayıl	-3742
▁atəş	-3743
▁əlaqələri	-3744
▁üzvləri	-3745
▁tabe	-3746
▁şimal	-3747
ernet	-3748
▁kön	-3749
▁müddə	-3750
▁Oyun	-3751
▁müdiri	-3752
▁Təbr	-3753
▁xəstəlik	-3754
idi	-3755
▁xidməti	-3756
edaqoji	-3757
▁dövrün	-3758
saylı	-3759
▁daimi	-3760
▁Mis	-3761
▁şik	-3762
▁Üz	-3763
▁əməkdaşlığın	-3764
▁istəyirəm	-3765
bit	-3766
▁sərg	-3767
texniki	-3768
UN	-3769
idd	-3770
▁sakin	-3771
▁yür	-3772
əvan	-3773
▁xilas	-3774
itan	-3775
▁Kar	-3776
▁As	-3777
▁deyildir	-3778
▁Rusiyanın	-3779
▁respublika	-3780
▁genişləndir	-3781
▁övlad	-3782
▁and	-3783
▁kollektiv	-3784
stanın	-3785
məm	-3786
ğan	-3787
▁fərdi	-3788
▁siyasətinin	-3789
▁gətirib	-3790
alt	-3791
▁yekun	-3792
ment	-3793
▁incəsənət	-3794
▁otur	-3795
▁W	-3796
lassik	-3797
▁imk	-3798
işin	-3799
▁sp	-3800
▁inteq	-3801
▁hədə	-3802
▁prosesi	-3803
lərimizin	-3804
əşf	-3805
əkim	-3806
sində	-3807
▁müharibəsi	-3808
▁deyib	-3809
▁tərcümə	-3810
▁Məclis	-3811
üley	-3812
dıqda	-3813
▁qida	-3814
aqları	-3815
▁Seçki	-3816
kü	-3817
eb	-3818
▁fikr	-3819
nes	-3820
▁təltif	-3821
▁ermənilərin	-3822
▁oxum	-3823
▁edilməlidir	-3824
▁Asiya	-3825
▁iri	-3826
▁Orta	-3827
▁bizi	-3828
▁keçirdiyi	-3829
yer	-3830
▁hekay	-3831
▁ep	-3832
▁məğ	-3833
▁poez	-3834
▁böh	-3835
olun	-3836
pektiv	-3837
▁Əv	-3838
▁Sizin	-3839
yut	-3840
▁pis	-3841
▁Mar	-3842
▁sahəsi	-3843
▁akademik	-3844
▁qara	-3845
▁human	-3846
ülür	-3847
▁göstərilir	-3848
ayın	-3849
▁icl	-3850
amışdır	-3851
18	-3852
▁onunla	-3853
ıma	-3854
▁avadanlıq	-3855
nət	-3856
▁sürətlə	-3857
▁dal	-3858
iin	-3859
▁Türkiyənin	-3860
ətini	-3861
▁müddətdə	-3862
▁göstərmək	-3863
▁təsəvv	-3864
▁həyatı	-3865
▁mülkiyyət	-3866
▁cəhd	-3867
▁artırılması	-3868
tor	-3869
▁nisb	-3870
▁çətinlik	-3871
▁aparılır	-3872
▁yazılı	-3873
▁təmir	-3874
▁aktiv	-3875
▁mühafizə	-3876
▁çıxan	-3877
ustaf	-3878
▁müqəddəs	-3879
▁qad	-3880
▁dərk	-3881
AL	-3882
▁dostluq	-3883
▁xas	-3884
▁ko	-3885
▁yarış	-3886
tin	-3887
▁En	-3888
▁ortaya	-3889
İn	-3890
▁Sərəncam	-3891
200	-3892
▁Fransa	-3893
▁bilən	-3894
▁redakt	-3895
▁Cəmiyyət	-3896
▁tərəqq	-3897
▁inqilab	-3898
▁maliyy	-3899
▁niş	-3900
▁Şa	-3901
▁bəş	-3902
allar	-3903
▁sizin	-3904
▁fakült	-3905
▁göy	-3906
ilməlidir	-3907
▁şirkət	-3908
alarından	-3909
rəy	-3910
isini	-3911
▁mövcuddur	-3912
▁Qüvv	-3913
▁Qub	-3914
▁keçirir	-3915
▁oxş	-3916
lisin	-3917
oda	-3918
▁ekspert	-3919
▁fəs	-3920
end	-3921
▁asan	-3922
▁Tər	-3923
ülməsi	-3924
▁istəyir	-3925
▁Səm	-3926
mızı	-3927
▁vardı	-3928
maları	-3929
▁etmişdi	-3930
▁verilmişdir	-3931
▁gücləndir	-3932
▁2,	-3933
▁öncə	-3934
tok	-3935
▁gəz	-3936
▁er	-3937
▁Aş	-3938
kun	-3939
▁tədbirləri	-3940
ovruz	-3941
▁Agent	-3942
▁mümkündür	-3943
düy	-3944
▁içərisində	-3945
▁aşıq	-3946
▁kəndində	-3947
ğını	-3948
ərkən	-3949
piya	-3950
▁pey	-3951
▁gələcəkdə	-3952
▁cər	-3953
▁mərkəzində	-3954
▁başlıca	-3955
▁dərəcə	-3956
ƏS	-3957
▁qən	-3958
▁Təbii	-3959
▁Qara	-3960
▁məhəbbət	-3961
▁hökuməti	-3962
▁təhlükəsizlik	-3963
▁Ukr	-3964
▁üslub	-3965
▁həcm	-3966
▁hadis	-3967
▁İnkişaf	-3968
▁edirdilər	-3969
▁Bağ	-3970
▁fəaliyyətinə	-3971
▁mənada	-3972
▁bas	-3973
▁səfir	-3974
▁—	-3975
▁ələ	-3976
anr	-3977
övh	-3978
eyir	-3979
▁Uşaq	-3980
▁fot	-3981
miĢ	-3982
▁düşünc	-3983
▁gənclər	-3984
▁Ass	-3985
▁perspektiv	-3986
asiyanın	-3987
se	-3988
▁Müdafi	-3989
bol	-3990
▁cəbh	-3991
yaz	-3992
▁həbs	-3993
azımi	-3994
▁Pol	-3995
liyyə	-3996
▁olmam	-3997
▁Gül	-3998
▁təşəbbüsü	-3999
mədi	-4000
▁narahat	-4001
Bu	-4002
lav	-4003
▁festiv	-4004
▁biləcək	-4005
▁tutaraq	-4006
ığı	-4007
adıq	-4008
ba	-4009
bək	-4010
▁III	-4011
ahlı	-4012
▁dram	-4013
▁şəraitində	-4014
▁Olim	-4015
RE	-4016
▁Zər	-4017
▁söylə	-4018
adək	-4019
layev	-4020
lək	-4021
▁Komitəsi	-4022
bil	-4023
▁ötür	-4024
▁Nur	-4025
▁vilayət	-4026
▁AT	-4027
▁əksini	-4028
lari	-4029
çıların	-4030
▁For	-4031
▁Rəs	-4032
▁olunmasına	-4033
ahir	-4034
▁dövlətlərin	-4035
sr	-4036
▁strateg	-4037
▁istənilən	-4038
▁qol	-4039
iylə	-4040
▁keçirmək	-4041
ahis	-4042
▁mane	-4043
▁lə	-4044
▁sözlə	-4045
▁sərbəst	-4046
▁əvvəlcə	-4047
▁tutan	-4048
▁kəskin	-4049
daşlıq	-4050
▁təşəbbüs	-4051
▁XIX	-4052
▁sinif	-4053
▁si	-4054
avüz	-4055
▁şərəf	-4056
ıntı	-4057
ideyn	-4058
darlıq	-4059
bənd	-4060
▁istifadəyə	-4061
▁kaf	-4062
▁dan	-4063
▁əlaqələr	-4064
▁ri	-4065
.1-	-4066
▁Man	-4067
▁tənqid	-4068
▁sak	-4069
▁boru	-4070
▁görmək	-4071
▁Məktəb	-4072
imizə	-4073
▁vətənpərvər	-4074
ivil	-4075
▁etnik	-4076
▁rejissor	-4077
ələb	-4078
lükəsiz	-4079
▁doğul	-4080
.)	-4081
dətli	-4082
▁istisna	-4083
ilməsində	-4084
▁münasibətlərin	-4085
▁lazımi	-4086
ura	-4087
▁canlı	-4088
atlı	-4089
▁model	-4090
▁Mustaf	-4091
▁diplomatik	-4092
▁Bəl	-4093
EA	-4094
▁Kərim	-4095
▁qurtar	-4096
▁münasibətləri	-4097
▁don	-4098
▁Artıq	-4099
ilməsinin	-4100
aba	-4101
▁qorum	-4102
▁başlayır	-4103
▁tərkibində	-4104
▁Hərbi	-4105
ch	-4106
sək	-4107
▁Rəh	-4108
mələr	-4109
▁zidd	-4110
▁mətn	-4111
▁bəstəkar	-4112
mud	-4113
▁Mur	-4114
▁mül	-4115
▁əf	-4116
▁iq	-4117
▁km	-4118
aspor	-4119
əməxsus	-4120
aqif	-4121
▁əc	-4122
ləyib	-4123
▁Məlum	-4124
▁gəlin	-4125
əyini	-4126
siyanın	-4127
0,	-4128
▁kol	-4129
▁sahibi	-4130
▁tikintisi	-4131
▁dov	-4132
▁ediblər	-4133
▁minnət	-4134
▁təsəvvür	-4135
ij	-4136
11	-4137
▁mənz	-4138
▁Yan	-4139
9,	-4140
▁vəzifə	-4141
İR	-4142
allı	-4143
▁bilmir	-4144
▁keçirilmiş	-4145
▁sevg	-4146
▁dinam	-4147
formasiya	-4148
▁mütləq	-4149
ton	-4150
▁ünvan	-4151
▁zav	-4152
▁məkan	-4153
▁katibi	-4154
▁nit	-4155
▁İtal	-4156
ələşdir	-4157
▁Onu	-4158
▁Bakıya	-4159
▁münasibətlər	-4160
aliz	-4161
▁sənayes	-4162
şən	-4163
▁xah	-4164
OV	-4165
ultur	-4166
▁2009-	-4167
ter	-4168
▁qür	-4169
idə	-4170
ızı	-4171
eter	-4172
▁şərq	-4173
▁2014-	-4174
▁qurulması	-4175
amiz	-4176
▁Amerika	-4177
▁Əmir	-4178
▁resurs	-4179
▁təzyiq	-4180
▁Əz	-4181
▁Feder	-4182
▁təcavüz	-4183
kər	-4184
stanbul	-4185
▁saray	-4186
iyalı	-4187
minən	-4188
▁Əlbəttə	-4189
▁tax	-4190
əkil	-4191
pion	-4192
▁nəinki	-4193
adiq	-4194
▁İnstitutunun	-4195
yasiya	-4196
▁yaxından	-4197
▁qalib	-4198
▁Novruz	-4199
AD	-4200
▁kommun	-4201
▁cəs	-4202
rior	-4203
▁edildiyi	-4204
çıq	-4205
laraq	-4206
▁Hesab	-4207
▁yaradılmış	-4208
.2-	-4209
▁hün	-4210
asitə	-4211
▁RESPUBLİKASI	-4212
▁mövzusunda	-4213
ladığı	-4214
▁Zəng	-4215
▁Ser	-4216
▁şəhərinin	-4217
▁Quliyev	-4218
▁şəklində	-4219
standa	-4220
▁vermişdir	-4221
▁möht	-4222
▁tövsiy	-4223
▁divar	-4224
sam	-4225
▁özünəməxsus	-4226
zadənin	-4227
▁idarəetmə	-4228
mon	-4229
▁gərək	-4230
▁layihə	-4231
▁hissi	-4232
▁tikinti	-4233
▁həyatında	-4234
▁həqiqət	-4235
aca	-4236
do	-4237
▁deyildi	-4238
▁xoşbəxt	-4239
▁w	-4240
▁6.	-4241
imum	-4242
▁müqavilə	-4243
mayıb	-4244
▁görünür	-4245
▁əsir	-4246
▁başlayaraq	-4247
asa	-4248
▁AM	-4249
▁güz	-4250
▁quruculu	-4251
oran	-4252
▁uğurlar	-4253
▁istehsalı	-4254
▁Gö	-4255
▁Tel	-4256
alardan	-4257
▁hissəsinin	-4258
▁yubiley	-4259
▁mənsub	-4260
▁ila	-4261
risti	-4262
▁islam	-4263
▁klassik	-4264
▁vəf	-4265
▁vaxtı	-4266
▁ekoloji	-4267
▁Təhlükəsiz	-4268
▁anlayış	-4269
saq	-4270
▁imtina	-4271
▁yaşayır	-4272
▁Uz	-4273
epar	-4274
ağının	-4275
▁sənədlər	-4276
▁çoxsaylı	-4277
əniz	-4278
▁Şuşa	-4279
▁Oğ	-4280
▁bəs	-4281
▁Süley	-4282
şah	-4283
▁/	-4284
▁oz	-4285
▁istəd	-4286
▁əvvəllərində	-4287
▁fir	-4288
ləmə	-4289
indan	-4290
ENT	-4291
▁Elekt	-4292
▁Hətta	-4293
▁general	-4294
empion	-4295
form	-4296
▁bilav	-4297
▁elmləri	-4298
əşəm	-4299
eganə	-4300
fə	-4301
▁sadəcə	-4302
▁Sum	-4303
▁qonşu	-4304
ide	-4305
▁vo	-4306
▁alman	-4307
▁qalmış	-4308
▁gənclərin	-4309
▁Af	-4310
▁ye	-4311
▁onlardan	-4312
▁qada	-4313
▁törət	-4314
▁Xidmət	-4315
▁medi	-4316
▁fikrin	-4317
▁Kür	-4318
▁səviyyəsində	-4319
▁müstəqillik	-4320
alə	-4321
▁ədəbiyyatı	-4322
eyx	-4323
ımıza	-4324
▁davran	-4325
▁Yapon	-4326
▁qarşısını	-4327
▁dəstəyi	-4328
▁təhsili	-4329
▁çalışan	-4330
▁Yaş	-4331
▁məğlub	-4332
imizi	-4333
əqqəti	-4334
lının	-4335
▁deməkdir	-4336
▁San	-4337
▁üns	-4338
idro	-4339
▁sahələrində	-4340
əliyev	-4341
▁gündə	-4342
▁kağız	-4343
▁mübahis	-4344
▁sü	-4345
iyyətinə	-4346
aktik	-4347
▁rəisi	-4348
▁kitabı	-4349
▁layihəsi	-4350
ağına	-4351
▁əlver	-4352
qayı	-4353
▁alaraq	-4354
dular	-4355
▁konsep	-4356
▁İqtisadi	-4357
▁Müq	-4358
▁Er	-4359
▁daşıyır	-4360
xana	-4361
▁peşə	-4362
▁seçkilər	-4363
▁ey	-4364
▁tibb	-4365
▁enerj	-4366
▁Hüquq	-4367
▁hamısı	-4368
▁komanda	-4369
▁düşən	-4370
▁nəticəsi	-4371
atını	-4372
rətli	-4373
▁Şurası	-4374
▁əslində	-4375
▁rolunu	-4376
▁sonunda	-4377
».	-4378
yıq	-4379
▁Yazı	-4380
▁Qasım	-4381
▁icazə	-4382
▁dilinin	-4383
▁Ġ	-4384
▁xeyir	-4385
lənmiş	-4386
▁nitq	-4387
▁ölkələr	-4388
15	-4389
▁mö	-4390
▁illərin	-4391
düm	-4392
▁görülən	-4393
atda	-4394
onim	-4395
▁Daş	-4396
▁2010-	-4397
▁əq	-4398
▁həqiqi	-4399
▁işlərinin	-4400
▁rahat	-4401
▁etməlidir	-4402
ünür	-4403
▁potensial	-4404
▁xanın	-4405
▁yaddaş	-4406
▁etdiyini	-4407
adlı	-4408
▁inform	-4409
▁ziyarət	-4410
▁heyəti	-4411
▁Birləşmiş	-4412
▁indiki	-4413
▁nümayəndəsi	-4414
▁İstanbul	-4415
▁gecə	-4416
▁köçkün	-4417
▁tələblərinə	-4418
▁əsəri	-4419
▁Akademiyasının	-4420
▁Əvvəl	-4421
▁xadimi	-4422
▁Nə	-4423
timai	-4424
▁zəh	-4425
▁şəraitdə	-4426
▁kəşf	-4427
▁sanki	-4428
___	-4429
▁xüsusən	-4430
▁möhkəmləndir	-4431
▁Şim	-4432
ahidi	-4433
▁şikayət	-4434
▁Ad	-4435
▁dəfələrlə	-4436
ild	-4437
evik	-4438
▁xidmətləri	-4439
isk	-4440
▁növü	-4441
▁Məclisin	-4442
▁Britan	-4443
erin	-4444
ətinə	-4445
çt	-4446
▁mənaf	-4447
▁prosesində	-4448
▁gediş	-4449
▁Silahlı	-4450
azılığa	-4451
▁him	-4452
ədvəl	-4453
▁Kabineti	-4454
▁səth	-4455
▁ayının	-4456
▁tök	-4457
▁güm	-4458
▁bilavasitə	-4459
çü	-4460
ksiya	-4461
ımızı	-4462
▁tibbi	-4463
▁Müasir	-4464
▁Hakim	-4465
ərəfli	-4466
mit	-4467
▁çıxır	-4468
▁diqqəti	-4469
▁İd	-4470
olklor	-4471
▁ehtir	-4472
▁mübadiləsi	-4473
▁məskun	-4474
▁Yun	-4475
▁gey	-4476
İL	-4477
timal	-4478
▁məhkum	-4479
▁muğam	-4480
▁yerində	-4481
▁Elmlər	-4482
▁dərhal	-4483
▁istəm	-4484
▁səciyy	-4485
▁Nəsi	-4486
▁həkim	-4487
▁salam	-4488
▁üstündə	-4489
▁quy	-4490
iyyətə	-4491
▁mexanizm	-4492
▁Yol	-4493
▁pal	-4494
▁pub	-4495
▁qala	-4496
▁inkişafının	-4497
▁məsaf	-4498
ristian	-4499
▁naminə	-4500
▁hərtərəfli	-4501
sini	-4502
▁mülki	-4503
▁4-	-4504
▁zor	-4505
▁ödəniş	-4506
ağında	-4507
▁5-	-4508
əncamı	-4509
▁yaranan	-4510
indi	-4511
çıları	-4512
aqlar	-4513
▁rəsm	-4514
▁edilə	-4515
▁sivil	-4516
▁islahatlar	-4517
atında	-4518
əliyik	-4519
▁qəna	-4520
▁Keç	-4521
rioritet	-4522
▁90	-4523
▁ömür	-4524
diyinə	-4525
▁arzul	-4526
ber	-4527
lıqda	-4528
▁Qır	-4529
30	-4530
▁Konf	-4531
rum	-4532
▁komit	-4533
üncü	-4534
lo	-4535
▁meh	-4536
daxil	-4537
qayıt	-4538
▁mənş	-4539
▁yaratdığı	-4540
əxlaq	-4541
əmbər	-4542
▁Mon	-4543
uncu	-4544
ava	-4545
▁Çin	-4546
larım	-4547
▁şəhərin	-4548
▁ul	-4549
▁31	-4550
DENT	-4551
▁nəticələri	-4552
▁İttifaqı	-4553
▁konsert	-4554
▁etn	-4555
mizdə	-4556
AB	-4557
▁müəssisələrinin	-4558
maya	-4559
▁kont	-4560
veç	-4561
▁rif	-4562
iyasına	-4563
itərəfli	-4564
▁forması	-4565
▁investisiya	-4566
▁əhali	-4567
▁Konven	-4568
re	-4569
▁axır	-4570
▁yaşlı	-4571
liz	-4572
▁PRE	-4573
asinda	-4574
▁könül	-4575
▁əleyh	-4576
birinə	-4577
▁Süleyman	-4578
▁sahələri	-4579
laşdırma	-4580
▁Tam	-4581
emin	-4582
abitə	-4583
▁Vaqif	-4584
ens	-4585
▁nəf	-4586
▁birlik	-4587
▁valideyn	-4588
▁müsahib	-4589
▁ənənəvi	-4590
əhlə	-4591
▁Razılığa	-4592
▁önəmli	-4593
▁saziş	-4594
▁tipli	-4595
▁tapşırıq	-4596
lilər	-4597
▁hüquqlarının	-4598
▁təbi	-4599
▁qalır	-4600
əcəyini	-4601
▁nisbətən	-4602
▁iradə	-4603
▁məktəbi	-4604
▁dəyərləndir	-4605
▁birində	-4606
uda	-4607
▁prioritet	-4608
▁respublikanın	-4609
alizm	-4610
▁bölüş	-4611
▁etdikləri	-4612
▁formada	-4613
lal	-4614
▁Müst	-4615
▁qrupu	-4616
övr	-4617
▁Nizam	-4618
▁birinin	-4619
▁ittifaq	-4620
▁pen	-4621
▁yaradıcılığı	-4622
umun	-4623
▁trans	-4624
▁Ərəb	-4625
mişlər	-4626
▁cəmiyyəti	-4627
▁park	-4628
▁sərvət	-4629
imə	-4630
▁adi	-4631
yla	-4632
ərin	-4633
▁des	-4634
▁Aşıq	-4635
▁zabit	-4636
▁əşy	-4637
▁Bunu	-4638
▁əsası	-4639
▁Qurban	-4640
▁Elmi	-4641
▁Əliyeva	-4642
▁göstərdiyi	-4643
rom	-4644
▁bağlan	-4645
üddətli	-4646
▁öhdəlik	-4647
▁daxildir	-4648
nif	-4649
vad	-4650
▁verilib	-4651
▁Dax	-4652
▁tərbiy	-4653
▁bütövlükdə	-4654
▁təxminən	-4655
▁səlahiyyətli	-4656
aye	-4657
▁olmasına	-4658
▁qeydə	-4659
urlar	-4660
▁ac	-4661
əsin	-4662
▁Ümumiyyətlə	-4663
▁işçi	-4664
ININ	-4665
▁barəsində	-4666
övqəl	-4667
▁Şirvan	-4668
▁diqqətə	-4669
▁əlverişli	-4670
▁gor	-4671
içək	-4672
▁2011-	-4673
▁orqanı	-4674
hesab	-4675
▁yolunda	-4676
▁xahiş	-4677
▁təşəkkür	-4678
▁sayda	-4679
▁keçid	-4680
▁təqdir	-4681
gəl	-4682
isindən	-4683
▁Sar	-4684
çının	-4685
▁yurd	-4686
▁etdirmək	-4687
▁Almaniya	-4688
adlıq	-4689
eti	-4690
▁fars	-4691
▁ölçü	-4692
▁yoldaş	-4693
iik	-4694
ral	-4695
▁Mol	-4696
▁tutulur	-4697
▁duran	-4698
▁yazdığı	-4699
▁Birliyinin	-4700
▁Kİ	-4701
dülər	-4702
▁yola	-4703
▁çalışır	-4704
▁Olimpiya	-4705
▁problemləri	-4706
əyib	-4707
▁məmnun	-4708
ılsın	-4709
▁vari	-4710
ans	-4711
▁istir	-4712
Kİ	-4713
▁köh	-4714
);	-4715
▁sənin	-4716
▁təcrübə	-4717
əffəq	-4718
uf	-4719
▁60	-4720
xar	-4721
▁Hökuməti	-4722
▁xarakterli	-4723
▁qürur	-4724
▁səmimi	-4725
▁Ədə	-4726
▁çatdırıl	-4727
▁şüur	-4728
▁Paş	-4729
əsə	-4730
▁etibarlı	-4731
▁möhtəşəm	-4732
▁internet	-4733
▁yaradan	-4734
▁Ağdam	-4735
▁etmişlər	-4736
▁Qəb	-4737
▁Ümumi	-4738
▁eff	-4739
üstəm	-4740
▁kəl	-4741
▁müddəti	-4742
▁Bax	-4743
▁qış	-4744
▁Nəriman	-4745
▁şərh	-4746
▁imkanları	-4747
▁Bank	-4748
çilərin	-4749
▁turist	-4750
lok	-4751
▁yaxınlaş	-4752
▁almış	-4753
▁parlaq	-4754
dırmaq	-4755
ZİDENT	-4756
▁Qazaxı	-4757
▁oxu	-4758
dilməsi	-4759
▁ta	-4760
▁Həmçinin	-4761
le	-4762
▁yeganə	-4763
▁İm	-4764
▁2013-	-4765
▁qarşıl	-4766
▁layihələr	-4767
▁qanunvericiliy	-4768
▁cəm	-4769
12	-4770
▁ikitərəfli	-4771
▁sərf	-4772
peratur	-4773
▁Naxçıv	-4774
ərb	-4775
▁aktlarının	-4776
sev	-4777
▁AMEA	-4778
▁məhsulları	-4779
▁Mənim	-4780
▁Füzuli	-4781
▁bədən	-4782
▁fəxri	-4783
▁port	-4784
▁addımlar	-4785
▁Mərkəzinin	-4786
▁boyun	-4787
▁rəqəm	-4788
▁PREZİDENT	-4789
▁Moskva	-4790
▁müvəffəq	-4791
▁bütövlüy	-4792
▁təbəq	-4793
▁nüfuzlu	-4794
▁maşın	-4795
▁unu	-4796
aşdırıl	-4797
▁aktual	-4798
ədr	-4799
yam	-4800
▁Qal	-4801
▁bildirir	-4802
▁mənfi	-4803
▁hadisələr	-4804
▁dövlətimizin	-4805
▁kür	-4806
eynal	-4807
▁iddia	-4808
▁başçısının	-4809
▁gözlən	-4810
ağını	-4811
▁3,	-4812
▁doğr	-4813
▁vasitəsi	-4814
▁tarixinin	-4815
▁Sev	-4816
▁ətraflı	-4817
▁törəd	-4818
▁etibarən	-4819
▁fikri	-4820
▁açılış	-4821
▁Şimali	-4822
azim	-4823
istika	-4824
▁Təbriz	-4825
▁uçot	-4826
oviç	-4827
▁yaranmış	-4828
▁maq	-4829
▁Əd	-4830
qud	-4831
▁2016-	-4832
▁diaspor	-4833
▁başlanğı	-4834
cək	-4835
efon	-4836
▁şöbəsinin	-4837
▁Zaq	-4838
ilirdi	-4839
▁lab	-4840
ST	-4841
▁2020-	-4842
ülf	-4843
▁bat	-4844
şünaslıq	-4845
▁uşaqların	-4846
ətlər	-4847
▁partiya	-4848
▁hüquqları	-4849
▁İdarə	-4850
▁dialoq	-4851
▁dəyərli	-4852
əbr	-4853
▁Rəş	-4854
▁əhəmiyyəti	-4855
▁əlaqə	-4856
▁adamlar	-4857
▁Göz	-4858
▁oğlan	-4859
estr	-4860
▁dinamik	-4861
▁olmuşdu	-4862
▁Sumqayıt	-4863
▁Muzey	-4864
▁hazırlanmış	-4865
kəl	-4866
şevik	-4867
AP	-4868
▁Sam	-4869
▁şöh	-4870
▁sevin	-4871
oma	-4872
▁İrəvan	-4873
sün	-4874
▁hökmdar	-4875
▁Fir	-4876
▁klub	-4877
▁ixt	-4878
tih	-4879
▁vurul	-4880
▁sənədlərin	-4881
madı	-4882
eddi	-4883
▁medal	-4884
▁ġ	-4885
▁vit	-4886
▁sifar	-4887
▁bəşər	-4888
▁taley	-4889
▁kənarda	-4890
ütb	-4891
▁Tək	-4892
enant	-4893
azar	-4894
▁zəm	-4895
▁faydalı	-4896
▁janr	-4897
▁mədəniyyətinin	-4898
▁vasitələrinin	-4899
▁qoh	-4900
▁sürət	-4901
▁müdrik	-4902
▁müvəqqəti	-4903
▁olmadan	-4904
▁35	-4905
for	-4906
abad	-4907
ilikdə	-4908
▁versin	-4909
▁etiraz	-4910
▁onlarla	-4911
ologiyası	-4912
Mən	-4913
▁səviyyəsi	-4914
▁tərz	-4915
mədə	-4916
▁imkanlar	-4917
▁rəqab	-4918
▁bəlkə	-4919
▁hündür	-4920
▁çağırış	-4921
▁Dil	-4922
▁Sur	-4923
oqrafiya	-4924
▁gəm	-4925
▁qurban	-4926
▁həy	-4927
əndis	-4928
▁iclas	-4929
asız	-4930
▁zirv	-4931
▁obyektiv	-4932
▁yerlərdə	-4933
▁həvəs	-4934
▁Ümummilli	-4935
▁kül	-4936
▁2012-	-4937
▁eşit	-4938
eytenant	-4939
▁nəzarəti	-4940
▁yarar	-4941
▁məsələsi	-4942
▁tr	-4943
ahür	-4944
siyasının	-4945
▁Respublika	-4946
▁əhalisi	-4947
and	-4948
▁Nadir	-4949
▁е	-4950
▁gedib	-4951
▁doldur	-4952
▁günah	-4953
▁şairin	-4954
▁Müstəqil	-4955
▁olmasını	-4956
▁sahə	-4957
mənəvi	-4958
▁sözün	-4959
ht	-4960
▁Mahmud	-4961
▁Hüseynov	-4962
▁giriş	-4963
acağı	-4964
▁İttifaqının	-4965
yu	-4966
▁imkanı	-4967
▁sırasında	-4968
▁hü	-4969
▁komplek	-4970
▁Maliyyə	-4971
▁heyətinin	-4972
▁2008-	-4973
▁yaradılan	-4974
▁əsasını	-4975
▁Səməd	-4976
ellekt	-4977
▁əlaqələndir	-4978
lisist	-4979
▁etdirilir	-4980
Türk	-4981
▁xalqına	-4982
▁yux	-4983
▁rəy	-4984
▁məhrum	-4985
ilmək	-4986
▁təşv	-4987
▁soruş	-4988
▁hansısa	-4989
▁əhalisinin	-4990
▁ədəd	-4991
▁Şər	-4992
▁çirk	-4993
▁mükəm	-4994
▁olunduğu	-4995
əbi	-4996
arx	-4997
▁əmr	-4998
▁5,	-4999
▁Ba	-5000
▁20-	-5001
▁quş	-5002
alicə	-5003
▁;	-5004
dilli	-5005
▁təzahür	-5006
og	-5007
acir	-5008
QD	-5009
lusu	-5010
▁7.	-5011
ıbəy	-5012
▁Gənclər	-5013
▁yaxınlığında	-5014
▁layiqli	-5015
▁qovuş	-5016
▁etməyi	-5017
işət	-5018
▁olunurdu	-5019
▁temperatur	-5020
▁çök	-5021
▁qaldırılması	-5022
▁işin	-5023
▁Seyid	-5024
lənməsinə	-5025
▁birinə	-5026
yön	-5027
▁dam	-5028
▁olduğundan	-5029
▁qoyub	-5030
iyyətində	-5031
sınız	-5032
usuna	-5033
▁od	-5034
▁nin	-5035
▁müəllimi	-5036
övqəladə	-5037
Mİ	-5038
hüquq	-5039
▁təhsilin	-5040
çin	-5041
▁ümumiyyətlə	-5042
lənin	-5043
▁maddəsində	-5044
▁190	-5045
uma	-5046
▁əksəriyyəti	-5047
süz	-5048
▁Fik	-5049
▁mükafat	-5050
masi	-5051
▁Məş	-5052
▁Bayram	-5053
▁konst	-5054
▁pl	-5055
▁oynayır	-5056
əqin	-5057
ənlər	-5058
▁inki	-5059
kili	-5060
▁nağ	-5061
▁xətti	-5062
giltər	-5063
▁komandan	-5064
ırda	-5065
▁dahi	-5066
gül	-5067
vil	-5068
dığım	-5069
ilərinin	-5070
▁Hal	-5071
▁poetik	-5072
▁Kim	-5073
▁Yuxarı	-5074
▁mükəmməl	-5075
▁düşmüş	-5076
▁vəziyyətdə	-5077
▁ip	-5078
▁Fon	-5079
▁Müdafiə	-5080
▁etmə	-5081
▁minnətdar	-5082
▁işləm	-5083
▁mənzil	-5084
atik	-5085
əyir	-5086
▁vasitələri	-5087
su	-5088
▁məscid	-5089
gid	-5090
▁Cin	-5091
▁mənzər	-5092
▁Qorqud	-5093
altı	-5094
▁Təhlükəsizlik	-5095
▁Ötən	-5096
çay	-5097
▁keçirilmişdir	-5098
üstü	-5099
▁etmir	-5100
▁Şəm	-5101
▁Üç	-5102
▁Daxili	-5103
▁Ge	-5104
lığından	-5105
▁sınaq	-5106
▁hissəsini	-5107
▁müstəqilliyi	-5108
KO	-5109
▁üzü	-5110
▁texnik	-5111
▁saxlamaq	-5112
▁sol	-5113
▁həf	-5114
likləri	-5115
muşdu	-5116
▁tərəfdar	-5117
▁Rüstəm	-5118
▁biznes	-5119
burq	-5120
▁Ədliyyə	-5121
▁Bol	-5122
▁yataq	-5123
▁qaldı	-5124
13	-5125
ayi	-5126
▁folklor	-5127
ARI	-5128
▁Parlament	-5129
▁prinsipi	-5130
asiyalar	-5131
▁proqramı	-5132
▁Avstr	-5133
▁əsərlər	-5134
▁fəaliyyətə	-5135
əfiq	-5136
▁metr	-5137
▁Heç	-5138
gən	-5139
▁normal	-5140
neft	-5141
▁medalı	-5142
▁gəmi	-5143
▁dinc	-5144
▁Məcəlləsinin	-5145
▁İki	-5146
laşmış	-5147
▁əxlaq	-5148
▁məlumatların	-5149
▁Qızıl	-5150
▁fəlsəfə	-5151
▁dövlətçilik	-5152
▁daşım	-5153
▁kateqor	-5154
▁1993-	-5155
▁səsi	-5156
▁əleyhinə	-5157
▁iqtisadiyyatın	-5158
▁2015-	-5159
laşdırılmış	-5160
ler	-5161
▁kişi	-5162
▁vaxtlar	-5163
▁70	-5164
▁əkin	-5165
▁Səfər	-5166
Qar	-5167
▁qaynaq	-5168
ənkər	-5169
▁Bakının	-5170
▁ses	-5171
▁rez	-5172
▁aparan	-5173
lardır	-5174
▁tərbiyə	-5175
▁irəlil	-5176
▁Tan	-5177
▁hazırlıq	-5178
▁düşünür	-5179
▁qaldırıl	-5180
▁aparmaq	-5181
ğəmbər	-5182
▁sün	-5183
▁unut	-5184
▁hərb	-5185
▁müəllimin	-5186
▁bel	-5187
▁Müəllif	-5188
▁yaşadığı	-5189
ultik	-5190
▁Əsgər	-5191
▁saxlay	-5192
qulu	-5193
ınız	-5194
▁yazırdı	-5195
▁səbəbdən	-5196
▁sevgi	-5197
▁siyasətin	-5198
▁zavod	-5199
▁verildi	-5200
alinin	-5201
▁ürəy	-5202
▁atası	-5203
va	-5204
▁Sə	-5205
▁istərsə	-5206
--	-5207
▁nadir	-5208
▁sistemində	-5209
güz	-5210
qul	-5211
▁axtarış	-5212
▁qaydaları	-5213
yaslı	-5214
▁mühafizəsi	-5215
▁32	-5216
▁dik	-5217
▁döz	-5218
▁kafed	-5219
▁hakimiyyətə	-5220
▁təsnif	-5221
▁bacarıq	-5222
40	-5223
▁Universiteti	-5224
bin	-5225
▁aldığı	-5226
▁Lay	-5227
▁ah	-5228
▁ATƏT	-5229
▁Sizə	-5230
▁deyən	-5231
▁artisti	-5232
erik	-5233
▁münasibətdə	-5234
▁miqy	-5235
▁şairi	-5236
▁təfəkkür	-5237
▁audi	-5238
▁yolla	-5239
▁4,	-5240
▁10-	-5241
▁Türkiyədə	-5242
▁Bor	-5243
yəvi	-5244
▁Əslində	-5245
▁sonralar	-5246
▁sadiq	-5247
ultikultur	-5248
▁Paris	-5249
▁variant	-5250
ayış	-5251
▁tarixinə	-5252
▁Düş	-5253
▁oğul	-5254
▁uşaqlar	-5255
▁əsaslan	-5256
bayev	-5257
▁2006-	-5258
▁ölkələrində	-5259
▁alıram	-5260
▁Film	-5261
▁əbədi	-5262
▁fərman	-5263
ric	-5264
▁vaxtında	-5265
əyyar	-5266
▁çiçək	-5267
ard	-5268
▁olunmalıdır	-5269
▁2018-	-5270
▁sorğu	-5271
iyaların	-5272
▁Doğ	-5273
▁sab	-5274
▁ərazidə	-5275
noz	-5276
▁Şəki	-5277
▁Prezidentinə	-5278
qres	-5279
▁qələmə	-5280
▁mot	-5281
çılığı	-5282
▁aldı	-5283
▁Qarab	-5284
▁yayıl	-5285
üsx	-5286
▁6,	-5287
dığımız	-5288
▁De	-5289
▁hədəf	-5290
yard	-5291
▁qərb	-5292
▁Gəl	-5293
▁sənəti	-5294
____________	-5295
▁baĢ	-5296
▁cəmi	-5297
rada	-5298
▁Azərbaycanlı	-5299
ƏD	-5300
izmi	-5301
▁Val	-5302
▁Qafqazda	-5303
▁problemlər	-5304
poz	-5305
▁ata	-5306
▁Şeyx	-5307
▁müqaviləsi	-5308
▁vəfat	-5309
nov	-5310
bəyli	-5311
▁gücü	-5312
▁dövlətlər	-5313
tokol	-5314
▁Moskvada	-5315
onent	-5316
▁çəkil	-5317
▁xristian	-5318
liyindən	-5319
▁vaxtda	-5320
bat	-5321
unan	-5322
▁ayaq	-5323
▁hasil	-5324
▁qaçqın	-5325
ərg	-5326
pa	-5327
iss	-5328
əxan	-5329
atlarının	-5330
▁güzəş	-5331
▁zəhmət	-5332
▁du	-5333
60	-5334
▁yaranması	-5335
osm	-5336
▁Uzun	-5337
▁qrupunun	-5338
▁əziz	-5339
▁Bildir	-5340
▁dolu	-5341
avi	-5342
oyun	-5343
▁göstərdi	-5344
▁çoxdur	-5345
lıqdan	-5346
▁xüsusiyyətləri	-5347
▁IV	-5348
▁Sabir	-5349
don	-5350
▁bilməd	-5351
▁göstəriş	-5352
▁Araz	-5353
▁Tə	-5354
ilmə	-5355
▁In	-5356
▁Tey	-5357
▁2007-	-5358
▁emal	-5359
▁indiy	-5360
▁işinə	-5361
pekt	-5362
lərim	-5363
▁Qəz	-5364
▁alınmış	-5365
ayna	-5366
▁ton	-5367
məsindən	-5368
▁meto	-5369
▁aparır	-5370
enz	-5371
▁1918-	-5372
əmək	-5373
▁Əziz	-5374
imizdə	-5375
▁müqavim	-5376
▁yetişdir	-5377
▁Rəsul	-5378
▁problemlərin	-5379
▁qohum	-5380
▁nüsx	-5381
▁müdafiəsi	-5382
▁kitabxana	-5383
▁Qarabağın	-5384
Al	-5385
nək	-5386
ləşmə	-5387
dılması	-5388
ass	-5389
tay	-5390
acağını	-5391
siyaya	-5392
.-	-5393
▁düşüncə	-5394
▁Pr	-5395
dad	-5396
▁Torp	-5397
▁təminatı	-5398
▁ili	-5399
▁ayrıca	-5400
▁istismar	-5401
dövlət	-5402
rəm	-5403
▁Ak	-5404
▁Söz	-5405
▁qoydu	-5406
▁keçirən	-5407
▁istehlak	-5408
▁Lənkər	-5409
▁məktəbin	-5410
▁38	-5411
▁cari	-5412
▁mühitin	-5413
▁soyqırımı	-5414
▁humanitar	-5415
▁Hələ	-5416
▁vətəndaşların	-5417
ail	-5418
▁kino	-5419
▁istedadlı	-5420
▁dərindən	-5421
mm	-5422
▁müəssisələri	-5423
mizə	-5424
ülük	-5425
▁tələbə	-5426
▁İngiltər	-5427
▁edərkən	-5428
nda	-5429
▁Qədim	-5430
199	-5431
▁bilərik	-5432
Dövlət	-5433
▁cəmiyyətdə	-5434
iblər	-5435
CO	-5436
əxş	-5437
▁Ley	-5438
amb	-5439
▁arxiv	-5440
▁çoxu	-5441
alında	-5442
▁siviliz	-5443
▁xalqların	-5444
▁maliyyələşdir	-5445
▁33	-5446
▁mark	-5447
diyiniz	-5448
amil	-5449
▁imza	-5450
▁Bab	-5451
olkov	-5452
▁qələm	-5453
▁idilər	-5454
ülə	-5455
ation	-5456
▁səfiri	-5457
anıq	-5458
▁koman	-5459
▁görüb	-5460
▁daşıyan	-5461
usunu	-5462
▁təşkilatlar	-5463
17	-5464
▁qa	-5465
▁Nəti	-5466
sədə	-5467
liq	-5468
bəti	-5469
▁təməl	-5470
▁müalicə	-5471
günkü	-5472
▁verə	-5473
▁milyard	-5474
▁problemi	-5475
▁təhlükəsizliyi	-5476
lıqlar	-5477
▁intellekt	-5478
▁təşkilatların	-5479
▁prosesinin	-5480
▁Tif	-5481
▁işinin	-5482
▁80	-5483
▁xəz	-5484
▁olacaqdır	-5485
▁etim	-5486
▁isti	-5487
▁qraf	-5488
▁bağış	-5489
▁telefon	-5490
izmin	-5491
▁dövrünün	-5492
mışlar	-5493
▁danışıqlar	-5494
rak	-5495
▁haqda	-5496
ünya	-5497
▁Bəzi	-5498
▁bah	-5499
▁olmur	-5500
▁qalıb	-5501
▁almışdır	-5502
▁tul	-5503
▁poçt	-5504
▁başlayıb	-5505
▁Müharib	-5506
son	-5507
▁bilərlər	-5508
▁məsələlərin	-5509
▁bərpası	-5510
lanma	-5511
▁ağrı	-5512
▁qoruyub	-5513
▁vərəq	-5514
aqlı	-5515
▁inkişafını	-5516
▁şt	-5517
ke	-5518
veri	-5519
▁qarşılan	-5520
ınc	-5521
▁qüvvələri	-5522
▁fəda	-5523
▁məhsuldar	-5524
oqrafik	-5525
▁qiyməti	-5526
▁olmağa	-5527
▁səbəbi	-5528
▁nazirinin	-5529
▁sevinc	-5530
▁yarada	-5531
larin	-5532
▁ehtiram	-5533
▁Azərbaycanla	-5534
▁apardığı	-5535
▁2017-	-5536
▁dastan	-5537
▁günlərdə	-5538
▁televiziya	-5539
▁müx	-5540
▁münasibəti	-5541
▁6-	-5542
▁44	-5543
▁alq	-5544
▁bəri	-5545
▁coğrafi	-5546
ilməz	-5547
▁Hindi	-5548
EY	-5549
▁blok	-5550
olit	-5551
orator	-5552
▁vəhş	-5553
▁Millət	-5554
▁Abdullayev	-5555
▁sərt	-5556
▁rəğ	-5557
»,	-5558
▁The	-5559
Bakı	-5560
▁müəssisələrində	-5561
▁yenilik	-5562
▁etdiyimiz	-5563
▁insanlara	-5564
▁lövh	-5565
inad	-5566
▁tərəfdaş	-5567
əncər	-5568
▁səhv	-5569
▁xərit	-5570
▁Qanunveric	-5571
mıĢ	-5572
▁qadağan	-5573
▁göstərilməsi	-5574
eksan	-5575
▁Əliyevə	-5576
▁işğaldan	-5577
▁7-	-5578
▁altı	-5579
lərdir	-5580
▁anlam	-5581
▁gizli	-5582
▁aiddir	-5583
ian	-5584
arıstan	-5585
▁Be	-5586
▁üzə	-5587
▁təminat	-5588
DA	-5589
▁tanım	-5590
Azər	-5591
▁məzmun	-5592
itor	-5593
ilan	-5594
▁34	-5595
ərdi	-5596
▁Arif	-5597
▁yalan	-5598
▁Üzeyir	-5599
▁Ədəbiyyat	-5600
utbol	-5601
▁yürüş	-5602
▁valyut	-5603
▁rek	-5604
▁pedaqoji	-5605
▁sürətli	-5606
▁2005-	-5607
ımın	-5608
lərimizi	-5609
▁çevril	-5610
▁bab	-5611
▁Qarayev	-5612
▁2004-	-5613
ofiq	-5614
▁gətirir	-5615
avir	-5616
ommun	-5617
▁həyatın	-5618
ensiv	-5619
kuror	-5620
▁1992-	-5621
▁regionda	-5622
▁prose	-5623
▁nümunələri	-5624
tal	-5625
irmi	-5626
▁Əmin	-5627
anlıq	-5628
ilərək	-5629
��	-5630
▁sayılır	-5631
ko	-5632
uyğun	-5633
oler	-5634
pres	-5635
▁Cəl	-5636
14	-5637
▁Po	-5638
ifik	-5639
acı	-5640
riq	-5641
▁İnc	-5642
▁tutub	-5643
▁çəkir	-5644
▁təkan	-5645
▁olardı	-5646
▁yaşıl	-5647
maqdadır	-5648
▁əsaslanan	-5649
mdar	-5650
▁İctimai	-5651
▁demişdir	-5652
▁VƏ	-5653
▁Cəlil	-5654
▁Tərəflər	-5655
▁fikrincə	-5656
▁ulduz	-5657
▁çıxıb	-5658
▁Alban	-5659
▁nəzəri	-5660
▁davranış	-5661
▁Ber	-5662
▁metal	-5663
ometr	-5664
ER	-5665
▁kəsi	-5666
▁istirahət	-5667
▁Arx	-5668
▁Fət	-5669
ləşdirilmiş	-5670
imin	-5671
▁qulluqçu	-5672
▁Layih	-5673
▁yolunun	-5674
▁pil	-5675
sir	-5676
▁Fondu	-5677
KT	-5678
▁nəzərdən	-5679
▁artması	-5680
▁işini	-5681
▁dəh	-5682
▁Axund	-5683
▁bitki	-5684
▁Qəhrəm	-5685
▁Elektron	-5686
▁tezliklə	-5687
▁7,	-5688
asan	-5689
▁insanları	-5690
▁Vil	-5691
ışdır	-5692
▁memarlıq	-5693
▁fəlsəfi	-5694
▁Koll	-5695
▁vəzifəli	-5696
▁Nik	-5697
▁gələr	-5698
▁Ev	-5699
▁bəyin	-5700
▁çəkilən	-5701
▁oc	-5702
ilərə	-5703
▁sahələrinin	-5704
avuş	-5705
▁op	-5706
xalif	-5707
eya	-5708
usun	-5709
.,	-5710
▁həcmi	-5711
▁mühəndis	-5712
onu	-5713
▁növləri	-5714
▁adlandırıl	-5715
ındakı	-5716
▁Görüş	-5717
▁igid	-5718
▁otaq	-5719
▁sərmay	-5720
▁qarşısının	-5721
▁şəxslərə	-5722
▁hadisələrin	-5723
▁Avropada	-5724
▁ocaq	-5725
▁hüdud	-5726
Biz	-5727
ıla	-5728
▁rəqs	-5729
▁etiraf	-5730
▁yaşamaq	-5731
luğunu	-5732
▁vitse	-5733
ira	-5734
▁gürcü	-5735
▁hay	-5736
▁adamları	-5737
eoloji	-5738
olerant	-5739
ha	-5740
keş	-5741
çiliyi	-5742
▁dö	-5743
larımızı	-5744
▁Həyat	-5745
▁çevrilir	-5746
▁səsləndir	-5747
▁yetirilməsi	-5748
süm	-5749
▁rifah	-5750
dön	-5751
▁işləyən	-5752
▁yazılmış	-5753
▁öyrənilməsi	-5754
sizlik	-5755
▁Cavid	-5756
▁Sovetinin	-5757
▁köhnə	-5758
▁Nat	-5759
▁Ne	-5760
▁yaranır	-5761
ədd	-5762
▁frans	-5763
ımızda	-5764
▁himay	-5765
▁qorunub	-5766
xah	-5767
iyanı	-5768
▁Amerik	-5769
şr	-5770
bilisi	-5771
gist	-5772
▁duyğu	-5773
▁həmkar	-5774
▁est	-5775
ASININ	-5776
▁Ukrayna	-5777
▁məhsullarının	-5778
▁rəm	-5779
▁birini	-5780
ekst	-5781
ləşir	-5782
▁minlərlə	-5783
alət	-5784
▁həyatının	-5785
▁azı	-5786
▁yaradılmışdır	-5787
▁pər	-5788
▁Akademik	-5789
▁atasının	-5790
▁rəngli	-5791
▁yem	-5792
mişəm	-5793
▁Başqa	-5794
▁İqtisadiyyat	-5795
otik	-5796
▁Texn	-5797
▁dilinə	-5798
Az	-5799
▁yaradılıb	-5800
ea	-5801
▁vəzifələri	-5802
▁toy	-5803
▁mövqeyi	-5804
▁Əm	-5805
▁kur	-5806
▁yolunu	-5807
▁bəndini	-5808
▁Konstitusiya	-5809
ənən	-5810
▁məqsədlə	-5811
▁layihələrin	-5812
▁Oğuz	-5813
▁edilməsini	-5814
etika	-5815
ünc	-5816
▁dövrlərdə	-5817
▁Siyasi	-5818
▁başına	-5819
▁Əliyevanın	-5820
▁muxtar	-5821
▁sözlərinə	-5822
▁vacibdir	-5823
▁ərzaq	-5824
▁altına	-5825
▁8.	-5826
▁orqanının	-5827
anını	-5828
mədəni	-5829
▁Akt	-5830
▁Fərman	-5831
▁Əməkdar	-5832
▁MD	-5833
sional	-5834
▁Mül	-5835
gəndər	-5836
▁em	-5837
▁Ramiz	-5838
▁Tofiq	-5839
▁vasitə	-5840
▁keçirildi	-5841
▁Tib	-5842
məyib	-5843
əbrayıl	-5844
▁Yen	-5845
▁istəyən	-5846
▁sonradan	-5847
ai	-5848
▁dairəsi	-5849
▁ərazilərdə	-5850
▁köməyi	-5851
prezident	-5852
▁prosedur	-5853
şam	-5854
iliyə	-5855
▁saf	-5856
▁çatış	-5857
▁bəndində	-5858
▁15-	-5859
▁zül	-5860
▁qorumaq	-5861
▁məlumatları	-5862
▁Region	-5863
▁olduğ	-5864
ıdır	-5865
▁böhran	-5866
ubern	-5867
▁Xüsusi	-5868
▁post	-5869
▁ödənilməsi	-5870
diyimiz	-5871
▁azadlığı	-5872
▁dinin	-5873
▁irsi	-5874
▁36	-5875
üğ	-5876
▁Səfəvi	-5877
▁fərqlən	-5878
▁edilmir	-5879
▁nəticələr	-5880
qi	-5881
alic	-5882
əqqi	-5883
▁2003-	-5884
▁ərəf	-5885
iyin	-5886
▁deyilir	-5887
▁işar	-5888
▁dəhş	-5889
▁proq	-5890
▁keçirilməsinə	-5891
AZ	-5892
▁yanına	-5893
▁iĢ	-5894
▁ordusu	-5895
▁daşıyıcı	-5896
▁xidmətin	-5897
▁Bar	-5898
▁Qanununda	-5899
eron	-5900
▁büdcə	-5901
▁pozulması	-5902
▁cild	-5903
▁ölkəyə	-5904
▁nəşriyyat	-5905
▁)	-5906
▁UN	-5907
ion	-5908
taj	-5909
▁ideya	-5910
▁sərgi	-5911
▁Müş	-5912
əməsi	-5913
▁Teymur	-5914
▁İnformasiya	-5915
▁təşkilatları	-5916
ental	-5917
mer	-5918
▁Ol	-5919
▁əksinə	-5920
▁Qanunvericilik	-5921
ilmişdi	-5922
▁Apar	-5923
ücü	-5924
▁yor	-5925
▁termin	-5926
▁əlil	-5927
25	-5928
atla	-5929
silə	-5930
▁adlanan	-5931
▁əhəmiyyətini	-5932
▁maks	-5933
▁adları	-5934
▁12,	-5935
▁əhval	-5936
▁dərman	-5937
olkovnik	-5938
▁qr	-5939
▁bəhr	-5940
▁...	-5941
▁pat	-5942
▁Aşağı	-5943
▁Misir	-5944
əllə	-5945
▁Tal	-5946
16	-5947
atçı	-5948
▁odur	-5949
▁bunların	-5950
▁istinad	-5951
övz	-5952
▁rüb	-5953
▁not	-5954
▁1990-	-5955
▁qoyulan	-5956
ibə	-5957
məni	-5958
laşması	-5959
▁səfəri	-5960
▁haqqı	-5961
imn	-5962
▁Komissiyasının	-5963
▁Mik	-5964
▁intensiv	-5965
▁ak	-5966
▁mii	-5967
▁özüm	-5968
▁mik	-5969
▁Komandan	-5970
▁Har	-5971
iyini	-5972
▁bildirmişdir	-5973
▁olmasa	-5974
▁dəfn	-5975
▁to	-5976
əsna	-5977
ros	-5978
▁paytaxtı	-5979
paq	-5980
▁vəh	-5981
müddətli	-5982
▁yerini	-5983
▁ölkələrinin	-5984
▁Xəlil	-5985
laşdırmaq	-5986
nak	-5987
▁hadisələri	-5988
▁verirdi	-5989
▁qələbə	-5990
▁yiy	-5991
▁bitk	-5992
▁nişan	-5993
▁Erməni	-5994
LI	-5995
▁Sonr	-5996
▁nat	-5997
▁yoxlan	-5998
▁üstünə	-5999
▁məqsədə	-6000
veren	-6001
▁bəd	-6002
alarla	-6003
▁əlaqələrinin	-6004
lov	-6005
▁getdikcə	-6006
▁iştirakçıları	-6007
▁8,	-6008
▁əsrlər	-6009
lantı	-6010
.20	-6011
əssas	-6012
▁Mem	-6013
▁fəsil	-6014
karlıq	-6015
▁rayonun	-6016
ert	-6017
▁roman	-6018
incisi	-6019
▁şahidi	-6020
▁İb	-6021
▁Qərbi	-6022
imdə	-6023
▁”	-6024
▁soyqırım	-6025
▁Özbək	-6026
▁qanuna	-6027
gar	-6028
ləşməsi	-6029
▁Hacıbəy	-6030
▁Kö	-6031
▁Murad	-6032
▁Şərqi	-6033
pir	-6034
minin	-6035
▁İdman	-6036
▁fransız	-6037
▁qarşılaş	-6038
▁bənz	-6039
▁yaşı	-6040
rav	-6041
▁çempion	-6042
▁Şəh	-6043
▁Cinayət	-6044
▁təntən	-6045
▁Şamaxı	-6046
tida	-6047
içik	-6048
▁ünv	-6049
▁Kral	-6050
▁qıl	-6051
▁güzəşt	-6052
▁əlbəttə	-6053
▁həmrəy	-6054
əcər	-6055
▁Qanununa	-6056
incə	-6057
▁nik	-6058
lum	-6059
əffaf	-6060
▁Hörmət	-6061
▁2000-	-6062
▁heykəl	-6063
▁tərəfi	-6064
▁qabaqcıl	-6065
▁Məhkəməsinin	-6066
▁yuxarıda	-6067
▁Ek	-6068
▁edəcəy	-6069
naməsi	-6070
▁psixoloji	-6071
▁Dəniz	-6072
ino	-6073
▁Tədqiqat	-6074
təh	-6075
▁səhər	-6076
▁qəzeti	-6077
▁satış	-6078
ardı	-6079
▁30-	-6080
▁Gen	-6081
▁qardaşı	-6082
ünən	-6083
▁keçib	-6084
▁təəssüf	-6085
▁yazıl	-6086
▁respublikada	-6087
▁baycan	-6088
▁məclis	-6089
▁Təsərrüf	-6090
▁dərd	-6091
▁bələdiyyə	-6092
serv	-6093
▁ant	-6094
▁ban	-6095
▁sit	-6096
skinin	-6097
▁polis	-6098
▁Həsənov	-6099
▁səviyyəsinin	-6100
▁xalqa	-6101
▁kafedr	-6102
HH	-6103
▁Avropanın	-6104
azi	-6105
▁nəhəng	-6106
▁Proqramı	-6107
▁açıb	-6108
▁sözlər	-6109
▁bolşevik	-6110
▁oluna	-6111
▁qoyulmuş	-6112
əkkiz	-6113
imli	-6114
▁müəssisə	-6115
ənah	-6116
▁Qərar	-6117
▁9-	-6118
▁vurğulayıb	-6119
▁vide	-6120
▁sonuncu	-6121
▁dövlətləri	-6122
▁xanımın	-6123
▁maddəsinə	-6124
▁ləy	-6125
yönlü	-6126
▁dü	-6127
amın	-6128
▁sayılan	-6129
▁çəkən	-6130
▁olunacaq	-6131
türk	-6132
▁razılıq	-6133
pə	-6134
ıblar	-6135
▁müstəsna	-6136
▁səhiyyə	-6137
▁həlak	-6138
▁sətir	-6139
▁vəzifəsində	-6140
▁qəbir	-6141
▁fikirlər	-6142
▁yönəldil	-6143
▁edilirdi	-6144
▁öndərin	-6145
ess	-6146
▁Britaniya	-6147
lop	-6148
ayiət	-6149
▁nəzəriyy	-6150
▁görən	-6151
maların	-6152
▁yarımbənd	-6153
▁Bəh	-6154
▁düy	-6155
▁kədər	-6156
▁bölgədə	-6157
təz	-6158
▁qanunun	-6159
▁lən	-6160
▁Cəbrayıl	-6161
▁11,	-6162
▁Xat	-6163
▁göstəricilər	-6164
▁Yük	-6165
lit	-6166
dində	-6167
▁formalaşdır	-6168
▁göstərmişdir	-6169
avil	-6170
▁quru	-6171
▁süt	-6172
bül	-6173
▁Aleksan	-6174
iyasını	-6175
▁üsyan	-6176
əmən	-6177
▁tamaşaçı	-6178
▁Qazaxıstan	-6179
ƏM	-6180
▁suveren	-6181
▁artım	-6182
▁çıxdı	-6183
▁əsrlərdə	-6184
▁balıq	-6185
iləş	-6186
▁soyuq	-6187
▁qatı	-6188
▁Cənab	-6189
▁8-	-6190
▁bənzər	-6191
▁həssas	-6192
▁quruculuğu	-6193
yanın	-6194
▁diplom	-6195
▁başlamışdır	-6196
▁ədəbiyyatının	-6197
laşan	-6198
▁Təşkilatının	-6199
▁Kan	-6200
aməti	-6201
ləndi	-6202
▁gəlmək	-6203
vin	-6204
▁xam	-6205
▁xatırla	-6206
▁sus	-6207
yes	-6208
▁İsveç	-6209
düz	-6210
▁Dey	-6211
▁cih	-6212
▁Mustafa	-6213
▁zövq	-6214
▁adətən	-6215
▁mənasında	-6216
ımda	-6217
▁sizə	-6218
▁xidmətlər	-6219
kon	-6220
▁iqtisadiyyatı	-6221
dağ	-6222
▁uyğunlaşdırıl	-6223
ds	-6224
ehsal	-6225
▁başlayan	-6226
▁məktəbinin	-6227
▁soydaş	-6228
▁mm	-6229
▁cama	-6230
amlı	-6231
▁bayramı	-6232
▁olurdu	-6233
▁müstəqilliyini	-6234
aktiki	-6235
▁suyun	-6236
çilərinin	-6237
▁Dav	-6238
▁etməli	-6239
▁cədvəl	-6240
▁sənətinin	-6241
▁korp	-6242
abbar	-6243
▁sı	-6244
əyəcan	-6245
▁Qadın	-6246
▁İnt	-6247
▁Aydın	-6248
22	-6249
▁tolerant	-6250
ersiya	-6251
El	-6252
Ar	-6253
▁bacı	-6254
▁2001-	-6255
▁Musiqi	-6256
▁təqa	-6257
▁toxum	-6258
▁qayıdı	-6259
▁PREZİDENTİNİN	-6260
▁hak	-6261
▁yolları	-6262
lüm	-6263
▁MDB	-6264
▁dəyəri	-6265
▁üzvlərinin	-6266
▁Müb	-6267
▁sakit	-6268
▁Fərmanın	-6269
fa	-6270
▁nın	-6271
asibat	-6272
▁layihələri	-6273
▁Kitabxan	-6274
▁prinsipləri	-6275
▁açıl	-6276
ildiyi	-6277
▁vətəndaşı	-6278
▁Xor	-6279
▁MK	-6280
▁ni	-6281
▁lid	-6282
▁Qazax	-6283
▁Bunlar	-6284
üter	-6285
tü	-6286
▁unudul	-6287
▁mərhələdə	-6288
▁günə	-6289
danın	-6290
▁xeyr	-6291
▁ləyaq	-6292
▁Ur	-6293
güzar	-6294
▁əsərin	-6295
▁cəsarət	-6296
……	-6297
nəzər	-6298
▁anal	-6299
cədə	-6300
▁laborator	-6301
ıncı	-6302
▁riyaz	-6303
▁gedə	-6304
▁çıxarılması	-6305
▁başlanğıc	-6306
▁əsərlərində	-6307
▁nağıl	-6308
luğunun	-6309
▁eşi	-6310
▁ərazisi	-6311
▁vətənpərvərlik	-6312
▁İsa	-6313
▁savaş	-6314
▁təyyar	-6315
▁yaşadı	-6316
▁çarp	-6317
▁yeddi	-6318
▁Fəx	-6319
▁Dəmir	-6320
▁direktor	-6321
▁sənədləri	-6322
0000	-6323
laşır	-6324
▁publisist	-6325
▁tutmuş	-6326
ESCO	-6327
▁İtaliya	-6328
ifə	-6329
▁müşayiət	-6330
idar	-6331
▁nəticəsidir	-6332
▁vir	-6333
iliyini	-6334
vat	-6335
▁dalğ	-6336
▁Zeynal	-6337
görüş	-6338
▁bilərdi	-6339
▁mərtəb	-6340
▁Məclisinin	-6341
▁Toplusu	-6342
tam	-6343
▁katib	-6344
lavə	-6345
▁diz	-6346
əzur	-6347
▁Pal	-6348
▁45	-6349
▁inkişafın	-6350
Ģı	-6351
▁redaktoru	-6352
▁faizi	-6353
▁keçiriləcək	-6354
▁suvar	-6355
▁dillərində	-6356
▁2019-	-6357
▁müalic	-6358
ürs	-6359
▁simv	-6360
acağıq	-6361
▁Tədbirdə	-6362
▁Böl	-6363
▁bələdiyy	-6364
▁orij	-6365
maması	-6366
▁etdim	-6367
▁tələbləri	-6368
▁reak	-6369
dirlər	-6370
*6	-6371
eqoriya	-6372
▁Hacıyev	-6373
▁dissert	-6374
*3.	-6375
*4.	-6376
*5.	-6377
təd	-6378
*5.*6	-6379
2.*3.	-6380
*4.*5.*6	-6381
ifadə	-6382
▁Tanrı	-6383
▁ucal	-6384
▁əfsan	-6385
▁qəbulu	-6386
▁sifariş	-6387
adənin	-6388
▁təsviri	-6389
▁təşkilatın	-6390
▁şərti	-6391
▁Partiyası	-6392
▁39	-6393
▁Yaq	-6394
▁dramatur	-6395
ATO	-6396
▁ağıl	-6397
▁səp	-6398
▁bölün	-6399
▁istilik	-6400
▁nəhayət	-6401
▁minir	-6402
▁tarixini	-6403
▁hökumətinin	-6404
▁inteqrasiya	-6405
ləyə	-6406
▁əlində	-6407
▁eyn	-6408
sından	-6409
▁magist	-6410
▁37	-6411
ərar	-6412
oğlunun	-6413
ogen	-6414
▁mir	-6415
əsgər	-6416
▁müxalif	-6417
▁təcrübəsi	-6418
▁ibn	-6419
▁əsərində	-6420
▁Xət	-6421
▁Mə	-6422
mələrin	-6423
okratik	-6424
▁qanunsuz	-6425
ET	-6426
alları	-6427
▁islahatların	-6428
▁kart	-6429
▁lar	-6430
▁anbar	-6431
lıqları	-6432
mak	-6433
▁Rz	-6434
▁lideri	-6435
gilər	-6436
▁kils	-6437
▁nəticədə	-6438
▁risk	-6439
▁sentyabrın	-6440
▁İsgəndər	-6441
elin	-6442
▁riayət	-6443
▁xəstəliy	-6444
▁Universitetində	-6445
▁Kamal	-6446
unc	-6447
▁rabitə	-6448
▁bildirən	-6449
▁səviyyəsinə	-6450
▁Quba	-6451
▁Fərmanı	-6452
▁bugünkü	-6453
▁ədalətli	-6454
▁Aslan	-6455
ori	-6456
tidai	-6457
▁alınan	-6458
▁birliyi	-6459
▁109-	-6460
çər	-6461
▁ayrıl	-6462
▁qüvvə	-6463
▁çevrilib	-6464
asimi	-6465
▁niyə	-6466
▁Şirk	-6467
ətində	-6468
▁olmadığı	-6469
▁texnoloji	-6470
▁gücləndirilməsi	-6471
▁ölümündən	-6472
▁Kateqoriya	-6473
▁dərəcəli	-6474
atar	-6475
məyin	-6476
▁yemək	-6477
birindən	-6478
▁olunmasını	-6479
liklər	-6480
▁fəaliyyətində	-6481
let	-6482
▁xanımı	-6483
▁oxun	-6484
▁sədaq	-6485
▁cərəyan	-6486
▁səni	-6487
▁şeyi	-6488
yanı	-6489
▁üsulu	-6490
▁fili	-6491
▁rəqabət	-6492
▁ordusunun	-6493
▁futbol	-6494
▁qubern	-6495
▁yandır	-6496
▁məf	-6497
əkbər	-6498
▁forma	-6499
▁fikirləri	-6500
▁Kiçik	-6501
▁göl	-6502
▁əlif	-6503
▁radio	-6504
ükür	-6505
tifik	-6506
▁proqnoz	-6507
▁keçdi	-6508
diyindən	-6509
▁səviyyəli	-6510
▁xidmətlərin	-6511
▁saxlanılması	-6512
▁qırmızı	-6513
İs	-6514
▁iclasında	-6515
▁İncəsənət	-6516
▁ә	-6517
80	-6518
anov	-6519
▁olmalı	-6520
▁mif	-6521
maqdan	-6522
▁mülah	-6523
▁Sənaye	-6524
▁ölkəmizə	-6525
▁ediləcək	-6526
amn	-6527
kənd	-6528
▁Elçin	-6529
▁qoyur	-6530
TAc	-6531
örək	-6532
▁səhnə	-6533
▁Tiflis	-6534
▁nümunə	-6535
▁bəxş	-6536
▁şəffaf	-6537
▁həyatda	-6538
▁yaşamış	-6539
sion	-6540
əsiq	-6541
▁maddənin	-6542
qda	-6543
▁tərkibinə	-6544
ikin	-6545
▁saz	-6546
▁budur	-6547
▁sx	-6548
▁Minsk	-6549
▁başlam	-6550
▁könüllü	-6551
▁oxşar	-6552
▁doktor	-6553
▁komponent	-6554
amaz	-6555
▁Tarixi	-6556
aşdırılması	-6557
▁boyunca	-6558
▁məqsədyönlü	-6559
▁təmiri	-6560
▁münaqişəsinin	-6561
DU	-6562
▁verəcək	-6563
ınıb	-6564
▁müxbir	-6565
▁Qarabağda	-6566
2.*3.*4.*5.*6	-6567
▁Laç	-6568
iyadan	-6569
▁Bəlkə	-6570
▁töhfə	-6571
▁Rəhim	-6572
▁elmlər	-6573
▁multikultur	-6574
▁10,	-6575
▁Kazım	-6576
▁Ey	-6577
▁məktəbdə	-6578
▁hekt	-6579
raq	-6580
dünya	-6581
▁görmüş	-6582
▁elmin	-6583
▁tarixə	-6584
▁Düz	-6585
göz	-6586
▁zədə	-6587
▁müavin	-6588
ulyar	-6589
▁məmur	-6590
▁sığort	-6591
▁azərbaycanlılar	-6592
▁Da	-6593
▁edilərək	-6594
▁pol	-6595
▁Rum	-6596
▁Əhalinin	-6597
▁agent	-6598
▁başqaları	-6599
enti	-6600
▁Yalnız	-6601
▁təşviq	-6602
▁Yaxın	-6603
▁Məclisi	-6604
▁ala	-6605
▁yoldaşı	-6606
▁tor	-6607
▁günəş	-6608
▁miqdarı	-6609
ls	-6610
▁məişət	-6611
▁həqiqətən	-6612
▁kapital	-6613
▁abz	-6614
▁aidiyyəti	-6615
▁Müt	-6616
▁stansiy	-6617
▁şübhəsiz	-6618
kir	-6619
▁gəlməsi	-6620
▁rey	-6621
▁məsələyə	-6622
▁həyəcan	-6623
ce	-6624
▁hallar	-6625
▁yap	-6626
▁yəh	-6627
pt	-6628
▁hidro	-6629
▁araşdırmalar	-6630
adar	-6631
▁tanıy	-6632
▁şəraiti	-6633
▁dır	-6634
▁statistik	-6635
çaq	-6636
mində	-6637
▁Rusiyada	-6638
▁olmasının	-6639
▁misr	-6640
▁uzunmüddətli	-6641
▁dünyagörüş	-6642
▁rəhbərləri	-6643
tul	-6644
▁Vur	-6645
adakı	-6646
osu	-6647
▁arxasında	-6648
▁tutdu	-6649
▁edilməsində	-6650
▁uzan	-6651
▁2002-	-6652
▁dövlətə	-6653
lıdır	-6654
▁bina	-6655
▁fəhlə	-6656
ətdən	-6657
▁Ələkbər	-6658
▁hərəkəti	-6659
▁yolda	-6660
▁nümunəsi	-6661
▁düşdü	-6662
▁Bağır	-6663
▁yaratdı	-6664
daxili	-6665
▁Öndər	-6666
▁şeydən	-6667
▁təhlükə	-6668
▁xaricdə	-6669
▁hakimiyyətinin	-6670
ona	-6671
osof	-6672
ilin	-6673
▁sənə	-6674
▁olduğuna	-6675
▁qüdrətli	-6676
▁verilsin	-6677
▁geyim	-6678
▁Sa	-6679
▁bacarı	-6680
▁gündəlik	-6681
▁edəcəkdir	-6682
▁İnzibati	-6683
əcəyinə	-6684
▁Zəngəzur	-6685
OR	-6686
▁yayım	-6687
▁səsver	-6688
▁malların	-6689
▁göstərirdi	-6690
təfiq	-6691
▁Təlim	-6692
imul	-6693
▁həllinə	-6694
ly	-6695
məkdə	-6696
əmadi	-6697
▁söykən	-6698
iyaları	-6699
▁Türkmən	-6700
▁qəti	-6701
▁Gömrük	-6702
ovanın	-6703
▁iyunun	-6704
▁Əməkdaşlıq	-6705
▁alınmaqla	-6706
▁təkmilləşdir	-6707
rif	-6708
▁AzərTAc	-6709
rant	-6710
▁siq	-6711
▁millətin	-6712
▁12-	-6713
▁Əsəd	-6714
▁vəsiq	-6715
ssiya	-6716
▁orijinal	-6717
▁təhsilini	-6718
▁olanda	-6719
▁Ban	-6720
▁Mac	-6721
▁diplomat	-6722
▁müay	-6723
▁seçk	-6724
▁qarşıya	-6725
▁yu	-6726
quş	-6727
layıcı	-6728
▁ve	-6729
▁həllini	-6730
əcəyik	-6731
▁tikil	-6732
▁miqdarda	-6733
▁mənbəyi	-6734
▁deyirdi	-6735
▁cavan	-6736
▁müqayisə	-6737
▁nöq	-6738
▁anası	-6739
▁Tahir	-6740
▁şəxsən	-6741
sağ	-6742
▁fəlak	-6743
▁kitabın	-6744
▁qüvvələr	-6745
▁istism	-6746
▁veriliş	-6747
▁Vəz	-6748
▁formalaşması	-6749
▁sektorunun	-6750
▁vurğuladı	-6751
▁kampan	-6752
▁qabiliyyəti	-6753
▁respublikamızın	-6754
▁tük	-6755
▁müharibəsində	-6756
▁məmul	-6757
▁Məq	-6758
▁Qoş	-6759
masın	-6760
onik	-6761
məkdən	-6762
▁cihaz	-6763
▁cəmiyyətinin	-6764
▁körpü	-6765
▁qətlə	-6766
▁Ağa	-6767
▁birləşdirən	-6768
▁çavuş	-6769
▁subhesab	-6770
▁İnstitutu	-6771
ovuz	-6772
▁xalç	-6773
▁təəssür	-6774
▁dilini	-6775
▁Con	-6776
▁quyu	-6777
▁adamı	-6778
▁Nəc	-6779
▁fer	-6780
▁asılıdır	-6781
▁dərəcəsi	-6782
▁fır	-6783
▁rütb	-6784
▁illiyi	-6785
▁dovlat	-6786
▁gətirən	-6787
▁yanaşma	-6788
▁kilometr	-6789
atoru	-6790
▁tarixin	-6791
▁Partiyasının	-6792
▁acı	-6793
▁qanlı	-6794
▁Nazirliyinə	-6795
▁konstru	-6796
Bir	-6797
▁semin	-6798
▁Ma	-6799
▁fe	-6800
▁aqrar	-6801
▁həyatını	-6802
▁gələc	-6803
▁Birliyi	-6804
▁dövlətçiliy	-6805
ametr	-6806
▁təşəkk	-6807
▁karb	-6808
▁Stat	-6809
▁məşq	-6810
▁qəzetinin	-6811
axta	-6812
şeron	-6813
▁bunları	-6814
▁tədqiqatlar	-6815
▁Yanvar	-6816
▁mərasimi	-6817
▁materiallar	-6818
▁Sahib	-6819
▁yazıb	-6820
ulmuş	-6821
▁olmaması	-6822
▁Cümhuriyyətinin	-6823
DƏ	-6824
ağıyev	-6825
▁məbləği	-6826
▁başçılıq	-6827
anıstan	-6828
▁adlanır	-6829
▁pozunt	-6830
▁1994-	-6831
▁yaradıcılığında	-6832
Hey	-6833
▁göstəricisi	-6834
ğənn	-6835
▁qalın	-6836
▁bütövlüyü	-6837
ider	-6838
verici	-6839
▁çevrildi	-6840
xoz	-6841
▁AS	-6842
ricən	-6843
▁evi	-6844
▁nəticələn	-6845
▁Şt	-6846
▁Bəzən	-6847
boy	-6848
▁vəzifələr	-6849
▁xalqlarının	-6850
▁Qaf	-6851
dıqca	-6852
▁Lənkəran	-6853
▁zəmin	-6854
▁vəsaiti	-6855
▁Cəm	-6856
▁bərk	-6857
▁İranın	-6858
ESKO	-6859
▁təşkilatçılığı	-6860
ikal	-6861
44	-6862
▁çəkin	-6863
▁Azərbaycandan	-6864
▁Səl	-6865
▁işlərinə	-6866
▁deyilən	-6867
▁tərkibi	-6868
▁günün	-6869
siv	-6870
▁ti	-6871
▁Torpaq	-6872
▁səkkiz	-6873
▁Müxtəlif	-6874
▁edilmişdi	-6875
▁tarixdə	-6876
▁ke	-6877
lili	-6878
▁xəy	-6879
akir	-6880
▁motiv	-6881
▁ödəy	-6882
ərlər	-6883
osfer	-6884
mersiya	-6885
▁deputatı	-6886
▁Əks	-6887
▁intellektual	-6888
▁Mak	-6889
▁İL	-6890
▁Bəs	-6891
avaş	-6892
▁ittih	-6893
ret	-6894
▁Sazişin	-6895
▁statusu	-6896
uar	-6897
▁mağ	-6898
▁oynay	-6899
▁özləri	-6900
▁istifadəsi	-6901
▁paral	-6902
iyan	-6903
▁çayı	-6904
▁Cəlal	-6905
▁seçilən	-6906
▁vuruş	-6907
▁Yox	-6908
▁ehtimal	-6909
▁yerləri	-6910
▁eksp	-6911
▁ərəfəsində	-6912
▁materialları	-6913
▁vəzifəsi	-6914
▁yaratmışdır	-6915
üngül	-6916
▁edilməsinin	-6917
▁stimul	-6918
▁Nəticədə	-6919
ON	-6920
Əliyev	-6921
▁Naxçıvanda	-6922
▁aman	-6923
▁Günəş	-6924
iza	-6925
▁Mas	-6926
▁vəhdət	-6927
▁əvəzinə	-6928
▁müqayisədə	-6929
▁çatdırılması	-6930
▁balan	-6931
mağın	-6932
▁əməkdaşlığı	-6933
ovu	-6934
▁43	-6935
senz	-6936
ədəm	-6937
▁mükafatı	-6938
▁əvvəllər	-6939
▁imzalanmış	-6940
avr	-6941
▁Dram	-6942
▁məzun	-6943
▁ifadəsi	-6944
siyalar	-6945
▁yaşında	-6946
▁sahəsinin	-6947
▁х	-6948
▁mövqeyini	-6949
▁kosm	-6950
▁işində	-6951
▁Əlavə	-6952
ediy	-6953
siklop	-6954
▁Yaqub	-6955
▁ustad	-6956
▁qüvvələrin	-6957
lənmə	-6958
▁1991-	-6959
▁Xal	-6960
▁arxa	-6961
▁qabağ	-6962
likdən	-6963
▁praktik	-6964
umunun	-6965
Əs	-6966
üqar	-6967
▁pəncər	-6968
▁Qon	-6969
▁misal	-6970
▁Aleksandr	-6971
▁mütər	-6972
▁alınır	-6973
LAR	-6974
ely	-6975
▁ümumilikdə	-6976
▁protokol	-6977
▁xəstəxan	-6978
▁maddələrin	-6979
▁mənafe	-6980
▁şərəfli	-6981
nişin	-6982
▁bilsin	-6983
▁bərq	-6984
▁mütəmadi	-6985
▁tapıb	-6986
▁yaradıb	-6987
▁pyes	-6988
▁fəaliyyətin	-6989
diniz	-6990
▁meşə	-6991
acaqlar	-6992
▁üzləş	-6993
əviyyat	-6994
▁şur	-6995
▁İspan	-6996
▁kimin	-6997
▁gördüyü	-6998
▁Təsərrüfatı	-6999
▁9.	-7000
▁məsələnin	-7001
əngi	-7002
ikləri	-7003
bundan	-7004
▁noyabrın	-7005
▁leytenant	-7006
qal	-7007
▁xərcləri	-7008
▁çevrilmişdir	-7009
▁fasil	-7010
▁əcn	-7011
▁Roma	-7012
▁1999-	-7013
:0	-7014
▁yiyələn	-7015
▁ehtiyacı	-7016
əxtiyar	-7017
▁qismən	-7018
iyab	-7019
▁qətnam	-7020
▁Et	-7021
▁Cümhuriyyəti	-7022
ambl	-7023
▁Məlik	-7024
▁saxlam	-7025
▁tit	-7026
utu	-7027
dadır	-7028
▁görülüb	-7029
▁verməyə	-7030
▁May	-7031
şir	-7032
▁qəf	-7033
▁xalça	-7034
aket	-7035
ülbül	-7036
▁işdə	-7037
▁boğ	-7038
▁nədən	-7039
▁ərizə	-7040
▁Kommun	-7041
▁atı	-7042
▁qüs	-7043
▁yolun	-7044
▁Əbülf	-7045
ƏNC	-7046
▁QƏR	-7047
▁tanınan	-7048
▁qalıq	-7049
▁iqt	-7050
▁imtahan	-7051
▁Ələsgər	-7052
▁öyrənmək	-7053
▁	-7054
i	-7055
a	-7056
ə	-7057
n	-7058
r	-7059
l	-7060
d	-7061
m	-7062
ı	-7063
s	-7064
t	-7065
y	-7066
u	-7067
e	-7068
b	-7069
k	-7070
o	-7071
ü	-7072
q	-7073
v	-7074
z	-7075
ş	-7076
h	-7077
.	-7078
,	-7079
c	-7080
ö	-7081
x	-7082
f	-7083
ç	-7084
g	-7085
p	-7086
ğ	-7087
A	-7088
-	-7089
B	-7090
1	-7091
M	-7092
0	-7093
2	-7094
_	-7095
S	-7096
İ	-7097
R	-7098
Ə	-7099
T	-7100
Q	-7101
N	-7102
H	-7103
K	-7104
D	-7105
9	-7106
3	-7107
P	-7108
O	-7109
5	-7110
"	-7111
4	-7112
E	-7113
­	-7114
”	-7115
Y	-7116
“	-7117
Ş	-7118
)	-7119
:	-7120
6	-7121
8	-7122
X	-7123
(	-7124
7	-7125
C	-7126
I	-7127
V	-7128
L	-7129
F	-7130
j	-7131
G	-7132
;	-7133
U	-7134
Z	-7135
Ç	-7136
–	-7137
Ü	-7138
Ģ	-7139
ә	-7140
Ö	-7141
?	-7142
«	-7143
»	-7144
§	-7145
№	-7146
а	-7147
!	-7148
/	-7149
*	-7150
w	-7151
е	-7152
о	-7153
J	-7154
$	-7155
[	-7156
]	-7157
’	-7158
^	-7159
х	-7160
Ġ	-7161
W	-7162
'	-7163
—	-7164
•	-7165
…	-7166
ġ	-7167
=	-7168
%	-7169
‐	-7170
�	-7171
к	-7172
и	-7173
Ğ	-7174
>	-7175
р	-7176
<	-7177
с	-7178
н	-7179
+	-7180
т	-7181
А	-7182
‘	-7183
п	-7184
һ	-7185
ä	-7186
л	-7187
О	-7188
ҽ	-7189
у	-7190
в	-7191
э	-7192
‑	-7193
я	-7194
г	-7195
ю	-7196
С	-7197
М	-7198
―	-7199
‖	-7200
д	-7201
й	-7202
В	-7203
\	-7204
−	-7205
|	-7206
Н	-7207
Е	-7208
И	-7209
Т	-7210
м	-7211
°	-7212
■	-7213
К	-7214
б	-7215
Х	-7216
Г	-7217
П	-7218
з	-7219
£	-7220
Р	-7221
ы	-7222
¬	-7223
Л	-7224
&	-7225
ш	-7226
µ	-7227
	-7228
ф	-7229
Ә	-7230
Э	-7231
~	-7232
Ь	-7233
·	-7234
ÿ	-7235
Б	-7236
Д	-7237
ч	-7238
Ä	-7239
→	-7240
，	-7241
ʺ	-7242
ß	-7243
„	-7244
Ш	-7245
Я	-7246
У	-7247
ь	-7248
ж	-7249
≤	-7250
@	-7251
{	-7252
Ф	-7253
ý	-7254
ц	-7255
}	-7256
À	-7257
±	-7258
Ы	-7259
ا	-7260
à	-7261
©	-7262
З	-7263
`	-7264
≥	-7265
ň	-7266
□	-7267
	-7268
ð	-7269
❖	-7270
Й	-7271
щ	-7272
®	-7273
í	-7274
α	-7275
ё	-7276
û	-7277
È	-7278
Í	-7279
Ñ	-7280
Ц	-7281
♦	-7282
Ч	-7283
د	-7284
γ	-7285
ن	-7286
β	-7287
ر	-7288
Đ	-7289
Ю	-7290
	-7291
³	-7292
É	-7293
Ж	-7294
	-7295
º	-7296
٭	-7297
Î	-7298
ъ	-7299
™	-7300
Ý	-7301
Щ	-7302
▼	-7303
و	-7304
é	-7305
½	-7306
×	-7307
μ	-7308
ب	-7309
‒	-7310
è	-7311
ل	-7312
ë	-7313
#	-7314
ñ	-7315
ي	-7316
	-7317
م	-7318
●	-7319
	-7320
φ	-7321
ت	-7322
ó	-7323
Û	-7324
Ú	-7325
ه	-7326
	-7327
	-7328
►	-7329
𝑛	-7330
ى	-7331
ψ	-7332
¨	-7333
Ð	-7334
²	-7335
Á	-7336
Å	-7337
س	-7338
Ò	-7339
Δ	-7340
λ	-7341
å	-7342
÷	-7343
✓	-7344
ـ	-7345
	-7346
Â	-7347
Ù	-7348
ش	-7349
∗	-7350
Ë	-7351
ك	-7352
î	-7353
ј	-7354
Ø	-7355
ì	-7356
δ	-7357
─	-7358
⁄	-7359
á	-7360
	-7361
ø	-7362
𝑥	-7363
¼	-7364
ز	-7365
¾	-7366
̇	-7367
خ	-7368
ò	-7369
˚	-7370
	-7371
ŋ	-7372
	-7373
ν	-7374
Ё	-7375
	-7376
ε	-7377
𝑎	-7378
θ	-7379
¥	-7380
ρ	-7381
𝑑	-7382
𝑘	-7383
𝑚	-7384
丨	-7385
Σ	-7386
Ъ	-7387
Һ	-7388
â	-7389
ê	-7390
þ	-7391
″	-7392
	-7393
	-7394
Ô	-7395
ā	-7396
Ј	-7397
′	-7398
𝐼	-7399
¢	-7400
ô	-7401
ذ	-7402
	-7403
𝐴	-7404
σ	-7405
٠	-7406
𝑡	-7407
´	-7408
ج	-7409
ح	-7410
𝑈	-7411
𝑝	-7412
	-7413
𝑖	-7414
π	-7415
∙	-7416
𝑠	-7417
ã	-7418
Ι	-7419
∑	-7420
	-7421
𝑙	-7422
ú	-7423
ƞ	-7424
є	-7425
ف	-7426
ق	-7427
∆	-7428
Ψ	-7429
η	-7430
τ	-7431
√	-7432
◄	-7433
	-7434
Ү	-7435
𝜉	-7436
ع	-7437
⋅	-7438
★	-7439
	-7440
ﺍ	-7441
Ï	-7442
ǝ	-7443
ω	-7444
¤	-7445
¹	-7446
ζ	-7447
Џ	-7448
،	-7449
𝐸	-7450
غ	-7451
∞	-7452
	-7453
𝐶	-7454
𝐹	-7455
𝑗	-7456
𝑣	-7457
𝑧	-7458
ο	-7459
⃗	-7460
⎯	-7461
▪	-7462
𝑇	-7463
і	-7464
ط	-7465
▲	-7466
❑	-7467
𝑟	-7468
ù	-7469
ς	-7470
】	-7471
	-7472
	-7473
	-7474
ﬁ	-7475
𝐿	-7476
Æ	-7477
ƒ	-7478
آ	-7479
أ	-7480
ی	-7481
◘	-7482
	-7483
𝐾	-7484
‚	-7485
€	-7486
➢	-7487
和	-7488
𝑓	-7489
ï	-7490
̅	-7491
ξ	-7492
≈	-7493
❒	-7494
中	-7495
利	-7496
国	-7497
夫	-7498
尔	-7499
盖	-7500
耶	-7501
达	-7502
阿	-7503
	-7504
	-7505
	-7506
𝑏	-7507
Þ	-7508
ė	-7509
ȃ	-7510
ʹ	-7511
ʼ	-7512
˃	-7513
ү	-7514
ө	-7515
؛	-7516
ص	-7517
ℎ	-7518
	-7519
	-7520
	-7521
𝑒	-7522
č	-7523
ī	-7524
І	-7525
ض	-7526
٥	-7527
	-7528
	-7529
	-7530
𝐻	-7531
𝑦	-7532
š	-7533
ι	-7534
ғ	-7535
Ө	-7536
ة	-7537
ک	-7538
‛	-7539
∫	-7540
☐	-7541
❍	-7542
〇	-7543
	-7544
𝐵	-7545
𝑞	-7546
𝜋	-7547
𝜑	-7548
𝝋	-7549
Ω	-7550
ί	-7551
ئ	-7552
≠	-7553
	-7554
	-7555
	-7556
𝑉	-7557
𝑐	-7558
𝑜	-7559
𝜇	-7560
ą	-7561
ٍ	-7562
叫	-7563
山	-7564
	-7565
	-7566
	-7567
	-7568
	-7569
ﺮ	-7570
𝑄	-7571
𝑋	-7572
𝜔	-7573
κ	-7574
ҝ	-7575
؟	-7576
ث	-7577
ُ	-7578
ّ	-7579
١	-7580
ḥ	-7581
◊	-7582
	-7583
	-7584
	-7585
	-7586
	-7587
𝑅	-7588
𝑆	-7589
𝛼	-7590
𝜆	-7591
¸	-7592
ū	-7593
Ɔ	-7594
υ	-7595
ў	-7596
Ҽ	-7597
◼	-7598
	-7599
	-7600
	-7601
	-7602
ﺭ	-7603
𝑃	-7604
𝑊	-7605
𝑔	-7606
𝑢	-7607
𝒊	-7608
𝜌	-7609
𝜎	-7610
æ	-7611
Α	-7612
έ	-7613
ό	-7614
ء	-7615
ٌ	-7616
َ	-7617
ِ	-7618
ა	-7619
ṣ	-7620
†	-7621
∅	-7622
♥	-7623
	-7624
	-7625
	-7626
	-7627
	-7628
ﻣ	-7629
𝑀	-7630
𝑁	-7631
õ	-7632
Ž	-7633
ž	-7634
˂	-7635
Ұ	-7636
ً	-7637
ს	-7638
ῤ	-7639
​	-7640
‟	-7641
⊢	-7642
◆	-7643
。	-7644
卜	-7645
	-7646
	-7647
	-7648
	-7649
	-7650
	-7651
	-7652
	-7653
𝐷	-7654
Ě	-7655
ĳ	-7656
ɛ	-7657
́	-7658
̃	-7659
ά	-7660
χ	-7661
ϕ	-7662
Є	-7663
Ќ	-7664
ѵ	-7665
қ	-7666
՜	-7667
ؤ	-7668
ظ	-7669
ْ	-7670
ٔ	-7671
٢	-7672
٦	-7673
٧	-7674
پ	-7675
ࡱ	-7676
ი	-7677
ლ	-7678
ḳ	-7679
ṭ	-7680
₂	-7681
⅓	-7682
∈	-7683
⑴	-7684
如	-7685
里	-7686
ꞌ	-7687
	-7688
	-7689
	-7690
	-7691
	-7692
ﺎ	-7693
ﺑ	-7694
ﺟ	-7695
ﺫ	-7696
ﻳ	-7697
；	-7698
𝐢	-7699
𝑌	-7700
𝑭	-7701
𝒇	-7702
𝒔	-7703
𝜏	-7704
¡	-7705
Ó	-7706
Õ	-7707
ł	-7708
ǐ	-7709
ȗ	-7710
ș	-7711
ɨ	-7712
ʋ	-7713
ˆ	-7714
ˈ	-7715
˙	-7716
ˮ	-7717
̧	-7718
̾	-7719
Ή	-7720
Γ	-7721
Μ	-7722
ή	-7723
ύ	-7724
ώ	-7725
Ѓ	-7726
ѐ	-7727
Ғ	-7728
Ҝ	-7729
ң	-7730
ҹ	-7731
׃	-7732
ו	-7733
ל	-7734
׳	-7735
إ	-7736
ٛ	-7737
٨	-7738
٩	-7739
چ	-7740
گ	-7741
ܐ	-7742
ܝ	-7743
ე	-7744
თ	-7745
ო	-7746
ქ	-7747
ხ	-7748
ḍ	-7749
ἐ	-7750
᾽	-7751
₽	-7752
⃰	-7753
℃	-7754
Ⅶ	-7755
←	-7756
↔	-7757
≃	-7758
⋃	-7759
◦	-7760
❶	-7761
❷	-7762
❸	-7763
❹	-7764
❺	-7765
❻	-7766
〔	-7767
〕	-7768
加	-7769
外	-7770
测	-7771
	-7772
	-7773
	-7774
	-7775
	-7776
	-7777
	-7778
ﮔ	-7779
ﯽ	-7780
ﷲ	-7781
ﺒ	-7782
ﺩ	-7783
ﻃ	-7784
ﻠ	-7785
ﻦ	-7786
ﻧ	-7787
ﻨ	-7788
ﻭ	-7789
ﻮ	-7790
﻿	-7791
：	-7792
𝐄	-7793
𝐕	-7794
𝐞	-7795
𝐬	-7796
𝐰	-7797
𝐽	-7798
𝑫	-7799
𝒋	-7800
𝓌	-7801
𝛅	-7802
𝛥	-7803
𝜀	-7804
𝜂	-7805
𝜗	-7806
𝟏	-7807
𝟗	-7808
ª	-7809
Ê	-7810
Ì	-7811
Č	-7812
ē	-7813
ę	-7814
ĺ	-7815
Ř	-7816
ũ	-7817
Ů	-7818
Ų	-7819
ų	-7820
Ʌ	-7821
ɐ	-7822
ɪ	-7823
ɾ	-7824
ʲ	-7825
̂	-7826
̊	-7827
͞	-7828
Ά	-7829
Β	-7830
Θ	-7831
Κ	-7832
Λ	-7833
Ν	-7834
Ο	-7835
Π	-7836
Τ	-7837
ΰ	-7838
ϊ	-7839
ϒ	-7840
Ѧ	-7841
ѧ	-7842
Ѵ	-7843
א	-7844
ג	-7845
ה	-7846
מ	-7847
ר	-7848
ש	-7849
ת	-7850
ػ	-7851
ؼ	-7852
ٕ	-7853
ٚ	-7854
٣	-7855
ژ	-7856
ڟ	-7857
ھ	-7858
۴	-7859
۵	-7860
ܚ	-7861
ܡ	-7862
ܢ	-7863
ბ	-7864
ვ	-7865
მ	-7866
რ	-7867
ᶩ	-7868
Ḥ	-7869
ḫ	-7870
ṫ	-7871
ẋ	-7872
ẏ	-7873
ẓ	-7874
ị	-7875
ἀ	-7876
ἁ	-7877
ἑ	-7878
ἱ	-7879
ὰ	-7880
ᾰ	-7881
ῆ	-7882
‗	-7883
‡	-7884
‰	-7885
›	-7886
⁵	-7887
⁺	-7888
ℋ	-7889
ℱ	-7890
⅔	-7891
↑	-7892
↓	-7893
∀	-7894
∨	-7895
≪	-7896
③	-7897
⑷	-7898
⓫	-7899
⓬	-7900
⓭	-7901
⓮	-7902
⓯	-7903
○	-7904
✅	-7905
❼	-7906
❿	-7907
、	-7908
「	-7909
〗	-7910
一	-7911
丁	-7912
丄	-7913
之	-7914
仙	-7915
切	-7916
办	-7917
匕	-7918
北	-7919
叩	-7920
夺	-7921
对	-7922
尼	-7923
川	-7924
广	-7925
押	-7926
摩	-7927
教	-7928
汪	-7929
汾	-7930
沉	-7931
沖	-7932
灸	-7933
紐	-7934
細	-7935
絲	-7936
綢	-7937
胤	-7938
腿	-7939
舰	-7940
色	-7941
袖	-7942
裹	-7943
言	-7944
訓	-7945
设	-7946
路	-7947
邶	-7948
雇	-7949
飞	-7950
	-7951
	-7952
	-7953
	-7954
	-7955
	-7956
	-7957
	-7958
	-7959
	-7960
	-7961
	-7962
	-7963
ﬂ	-7964
ﺅ	-7965
ﺔ	-7966
ﺕ	-7967
ﺠ	-7968
ﺢ	-7969
ﺧ	-7970
ﺬ	-7971
ﺳ	-7972
ﺴ	-7973
ﻋ	-7974
ﻎ	-7975
ﻓ	-7976
ﻔ	-7977
ﻚ	-7978
ﻝ	-7979
ﻟ	-7980
ﻤ	-7981
ﻪ	-7982
ﻴ	-7983
ﻻ	-7984
（	-7985
－	-7986
𝐆	-7987
𝐌	-7988
𝐐	-7989
𝐦	-7990
𝐧	-7991
𝐪	-7992
𝑂	-7993
𝑍	-7994
𝑮	-7995
𝑴	-7996
𝑸	-7997
