<unk>	0
<eod>	0
in	-0
ər	-1
ar	-2
an	-3
ın	-4
də	-5
il	-6
ir	-7
▁b	-8
▁m	-9
da	-10
iy	-11
lər	-12
al	-13
ən	-14
ət	-15
▁v	-16
▁t	-17
▁s	-18
əs	-19
as	-20
▁o	-21
lar	-22
ay	-23
▁q	-24
un	-25
▁e	-26
əl	-27
▁y	-28
▁h	-29
▁k	-30
▁i	-31
▁və	-32
▁d	-33
at	-34
ik	-35
▁g	-36
ün	-37
dı	-38
mi	-39
ək	-40
▁A	-41
aq	-42
am	-43
st	-44
er	-45
di	-46
ur	-47
dir	-48
▁ol	-49
əm	-50
dən	-51
lı	-52
▁n	-53
lərin	-54
▁il	-55
▁a	-56
▁mü	-57
iyy	-58
▁B	-59
li	-60
lə	-61
zər	-62
ey	-63
az	-64
on	-65
aş	-66
əh	-67
əy	-68
▁ç	-69
▁M	-70
inin	-71
▁ki	-72
or	-73
▁da	-74
ların	-75
can	-76
asın	-77
▁ü	-78
▁x	-79
bay	-80
is	-81
iz	-82
▁bir	-83
en	-84
dan	-85
baycan	-86
▁r	-87
__	-88
▁ö	-89
zərbaycan	-90
ır	-91
ində	-92
▁f	-93
ası	-94
▁ş	-95
ul	-96
▁p	-97
▁də	-98
ab	-99
əd	-100
▁gö	-101
ah	-102
ləri	-103
dır	-104
əb	-105
iyyət	-106
əsi	-107
ış	-108
öv	-109
▁Azərbaycan	-110
ib	-111
im	-112
▁et	-113
ağ	-114
ak	-115
▁1	-116
▁S	-117
lik	-118
es	-119
ub	-120
ol	-121
ür	-122
dil	-123
it	-124
iq	-125
ax	-126
▁in	-127
inə	-128
▁ilə	-129
iş	-130
▁İ	-131
miş	-132
▁R	-133
ıl	-134
▁bu	-135
ci	-136
ini	-137
ad	-138
eç	-139
▁Q	-140
▁Ə	-141
et	-142
um	-143
id	-144
ları	-145
▁T	-146
əz	-147
af	-148
liy	-149
▁on	-150
▁2	-151
▁H	-152
us	-153
əf	-154
la	-155
if	-156
ev	-157
iya	-158
ında	-159
▁edil	-160
ük	-161
ov	-162
əq	-163
▁K	-164
lan	-165
▁əs	-166
▁iş	-167
▁c	-168
▁D	-169
du	-170
▁ar	-171
ilm	-172
lət	-173
ədə	-174
▁ver	-175
əş	-176
anın	-177
▁al	-178
▁ist	-179
____	-180
▁üç	-181
ox	-182
əc	-183
alar	-184
▁N	-185
mək	-186
▁z	-187
uş	-188
ro	-189
ız	-190
ması	-191
▁gör	-192
▁üçün	-193
üm	-194
▁baş	-195
ra	-196
▁P	-197
▁döv	-198
lıq	-199
▁yar	-200
ının	-201
▁olun	-202
ari	-203
kt	-204
▁O	-205
ım	-206
pub	-207
ilər	-208
▁“	-209
espub	-210
ki	-211
sə	-212
espublik	-213
asının	-214
▁öz	-215
üş	-216
mış	-217
av	-218
indən	-219
▁tər	-220
lu	-221
çı	-222
▁keç	-223
əv	-224
ent	-225
em	-226
ələrin	-227
▁əl	-228
əti	-229
▁olan	-230
▁olm	-231
si	-232
miz	-233
ələr	-234
▁(	-235
▁u	-236
lən	-237
öy	-238
▁Respublik	-239
ac	-240
▁Bu	-241
alq	-242
unun	-243
▁son	-244
▁öl	-245
ist	-246
asında	-247
▁kimi	-248
diy	-249
ma	-250
əsində	-251
▁hər	-252
alı	-253
əli	-254
▁yer	-255
▁çox	-256
şı	-257
lığ	-258
ut	-259
▁Ş	-260
ül	-261
üt	-262
▁mən	-263
ına	-264
▁l	-265
▁edir	-266
▁E	-267
iv	-268
▁X	-269
əx	-270
▁Y	-271
..	-272
adə	-273
üs	-274
ez	-275
▁-	-276
om	-277
▁qar	-278
oy	-279
▁20	-280
▁gəl	-281
▁üz	-282
▁F	-283
▁dövlət	-284
əmin	-285
cə	-286
ləş	-287
ada	-288
ını	-289
gər	-290
arix	-291
▁keçir	-292
anı	-293
dər	-294
▁ölk	-295
dur	-296
▁sah	-297
larının	-298
▁C	-299
▁təs	-300
stər	-301
adı	-302
▁G	-303
əyə	-304
el	-305
ıx	-306
▁"	-307
▁pro	-308
adi	-309
məsi	-310
▁göstər	-311
iyyat	-312
maq	-313
mən	-314
mət	-315
▁tarix	-316
lərinin	-317
▁19	-318
▁oldu	-319
▁tərəf	-320
dar	-321
▁V	-322
▁bil	-323
ədən	-324
uq	-325
ekt	-326
▁3	-327
▁nə	-328
▁haq	-329
əyat	-330
▁olar	-331
________	-332
▁əm	-333
öyük	-334
kiş	-335
eni	-336
▁ər	-337
mişdir	-338
▁gün	-339
ğun	-340
kişaf	-341
uz	-342
əsinin	-343
kil	-344
ap	-345
ıq	-346
▁or	-347
▁həyat	-348
▁təş	-349
ilə	-350
üny	-351
liyev	-352
▁sonra	-353
▁di	-354
▁məs	-355
▁onun	-356
araq	-357
diyi	-358
ənin	-359
▁el	-360
tis	-361
illi	-362
man	-363
üz	-364
▁dey	-365
▁çıx	-366
ident	-367
▁dah	-368
▁ay	-369
iyas	-370
▁əsas	-371
ütün	-372
daş	-373
▁inkişaf	-374
lam	-375
rez	-376
ğı	-377
▁haqq	-378
ri	-379
▁qur	-380
▁Əliyev	-381
rezident	-382
mə	-383
▁məh	-384
cı	-385
ilməsi	-386
▁fə	-387
eyn	-388
▁ic	-389
▁ad	-390
sı	-391
▁daha	-392
▁təh	-393
▁müh	-394
öz	-395
par	-396
dim	-397
▁isə	-398
san	-399
rə	-400
▁qal	-401
▁bağ	-402
laş	-403
▁an	-404
▁görə	-405
▁böyük	-406
orm	-407
▁zam	-408
▁fəal	-409
▁yaş	-410
▁L	-411
▁yol	-412
əsinə	-413
əhər	-414
bi	-415
iyyəti	-416
▁yax	-417
üq	-418
▁Respublikasının	-419
▁sən	-420
ənd	-421
ürk	-422
▁dər	-423
ran	-424
▁həm	-425
elə	-426
▁yaz	-427
▁re	-428
cü	-429
ələri	-430
▁təd	-431
liyi	-432
lara	-433
asına	-434
ıb	-435
▁im	-436
▁haqqında	-437
cu	-438
▁yeni	-439
ğu	-440
olo	-441
▁qey	-442
azir	-443
muş	-444
▁xalq	-445
▁düny	-446
▁ən	-447
▁bütün	-448
kı	-449
lay	-450
▁art	-451
ek	-452
bir	-453
akı	-454
ilən	-455
▁mər	-456
▁dəy	-457
▁təşkil	-458
ru	-459
▁qarşı	-460
▁ildə	-461
▁qay	-462
▁apar	-463
ağı	-464
sin	-465
▁etmək	-466
▁siyas	-467
▁var	-468
▁az	-469
▁ya	-470
▁əh	-471
rmən	-472
▁do	-473
xt	-474
▁olaraq	-475
aya	-476
lərdə	-477
▁idi	-478
siy	-479
▁Prezident	-480
▁edən	-481
üquq	-482
ta	-483
▁tut	-484
▁üzrə	-485
dik	-486
▁düş	-487
lərini	-488
▁məq	-489
▁yan	-490
lərə	-491
▁təl	-492
▁biz	-493
ic	-494
▁söz	-495
üsus	-496
▁4	-497
yən	-498
sil	-499
azır	-500
▁vəz	-501
ənc	-502
eh	-503
▁tərəfindən	-504
▁yaradı	-505
ör	-506
▁mad	-507
tir	-508
sa	-509
00	-510
öh	-511
ot	-512
dırıl	-513
▁his	-514
ədər	-515
üb	-516
axt	-517
▁şəx	-518
unda	-519
ından	-520
esab	-521
▁oğ	-522
▁şəhər	-523
ləndir	-524
▁bar	-525
▁digər	-526
▁U	-527
▁mün	-528
▁şər	-529
ətən	-530
▁5	-531
▁On	-532
əss	-533
▁yük	-534
arət	-535
əlli	-536
ilir	-537
▁dövr	-538
▁möv	-539
▁hüquq	-540
anda	-541
▁istif	-542
bər	-543
▁xüsus	-544
övlət	-545
▁bax	-546
unu	-547
▁–	-548
xil	-549
isi	-550
qtis	-551
▁ə	-552
▁Ç	-553
asiya	-554
ök	-555
▁İn	-556
əlum	-557
ji	-558
atı	-559
▁de	-560
▁bağlı	-561
▁dil	-562
▁qədər	-563
yn	-564
lərinə	-565
▁sər	-566
▁Respublikası	-567
xalq	-568
ram	-569
▁arasında	-570
▁nəzər	-571
▁st	-572
▁istifadə	-573
▁fəaliyyət	-574
▁hazır	-575
▁mək	-576
ləşdir	-577
▁insan	-578
▁əv	-579
▁nüm	-580
os	-581
una	-582
əyyən	-583
▁mal	-584
▁məsəl	-585
op	-586
əsini	-587
eynəl	-588
▁qəb	-589
▁daxil	-590
kar	-591
.1	-592
▁hesab	-593
▁tək	-594
▁say	-595
eynəlxalq	-596
ex	-597
adan	-598
▁Azərbaycanın	-599
▁Dövlət	-600
▁nəti	-601
▁Bakı	-602
öl	-603
gi	-604
asını	-605
▁maddə	-606
▁İl	-607
▁həyata	-608
▁əraz	-609
▁müəyyən	-610
▁məlum	-611
▁əlaq	-612
uy	-613
mışdır	-614
kəz	-615
əmiyyət	-616
larda	-617
▁at	-618
dət	-619
lərində	-620
▁201	-621
asib	-622
▁etm	-623
▁göz	-624
kəm	-625
arı	-626
▁təmin	-627
ağa	-628
▁qan	-629
əcək	-630
▁Z	-631
▁xid	-632
larını	-633
▁mədən	-634
raf	-635
▁edilməsi	-636
ayon	-637
▁qeyd	-638
inci	-639
▁iqtis	-640
▁Hey	-641
▁gen	-642
osi	-643
▁yüks	-644
▁Qar	-645
lığı	-646
lük	-647
lü	-648
akt	-649
▁etdir	-650
üc	-651
▁ge	-652
▁Nazir	-653
təb	-654
▁tələb	-655
▁ilk	-656
üf	-657
▁id	-658
▁kon	-659
oş	-660
məd	-661
▁qoy	-662
▁lay	-663
əfər	-664
▁tam	-665
imiz	-666
vəl	-667
ılı	-668
▁özün	-669
▁oğlu	-670
▁çək	-671
acaq	-672
▁qəbul	-673
▁belə	-674
art	-675
▁hiss	-676
▁6	-677
▁hal	-678
rin	-679
▁qər	-680
ok	-681
▁Bir	-682
▁ağ	-683
eş	-684
▁vaxt	-685
əng	-686
ih	-687
▁iştir	-688
▁şəxs	-689
ef	-690
▁həmin	-691
ilik	-692
iyə	-693
ətb	-694
0-	-695
dığı	-696
▁təb	-697
əndə	-698
▁təq	-699
▁ir	-700
▁deyil	-701
may	-702
▁rəh	-703
▁nətic	-704
▁barədə	-705
larına	-706
abr	-707
▁tədbir	-708
▁I	-709
▁münasib	-710
▁uğ	-711
▁dav	-712
▁«	-713
▁əmək	-714
▁milli	-715
▁xidmət	-716
tab	-717
dü	-718
▁müd	-719
▁olmuş	-720
ca	-721
ayət	-722
üv	-723
əyi	-724
van	-725
ərq	-726
dür	-727
əlif	-728
▁qaz	-729
▁200	-730
mr	-731
dilər	-732
ön	-733
oz	-734
▁məlumat	-735
▁Av	-736
▁rayon	-737
▁çat	-738
▁ölkə	-739
▁Heydər	-740
ham	-741
iyyə	-742
▁rəhbər	-743
ımız	-744
▁kom	-745
orp	-746
▁kənd	-747
lardan	-748
▁kitab	-749
eri	-750
tim	-751
sul	-752
▁müəlli	-753
▁aş	-754
▁təhsil	-755
fi	-756
ait	-757
▁biri	-758
xtəlif	-759
▁iki	-760
osial	-761
ələrinin	-762
▁onların	-763
ırdı	-764
omi	-765
aları	-766
▁dəyiş	-767
dib	-768
bət	-769
rop	-770
▁seç	-771
anış	-772
▁bur	-773
əni	-774
________________	-775
▁ədə	-776
▁geniş	-777
akim	-778
▁bildir	-779
▁su	-780
asit	-781
▁yet	-782
lərdən	-783
▁böl	-784
yan	-785
izm	-786
▁7	-787
qiq	-788
exn	-789
▁münasibət	-790
▁şək	-791
▁iştirak	-792
▁ək	-793
rı	-794
amət	-795
▁qiy	-796
▁əsər	-797
▁üm	-798
ers	-799
▁bilər	-800
▁Ö	-801
irdi	-802
əvi	-803
masına	-804
▁uy	-805
qa	-806
▁bilm	-807
▁həl	-808
▁Al	-809
▁elə	-810
ud	-811
▁beynəlxalq	-812
▁növ	-813
asiy	-814
▁min	-815
▁Türk	-816
▁müxtəlif	-817
lərindən	-818
▁yüksək	-819
▁əvvəl	-820
▁sist	-821
▁nümay	-822
▁yox	-823
alan	-824
.2	-825
iki	-826
▁davam	-827
səd	-828
ətin	-829
▁uz	-830
rat	-831
▁İlham	-832
dakı	-833
▁fik	-834
dım	-835
ya	-836
▁istiq	-837
▁pros	-838
ilmiş	-839
əst	-840
kən	-841
▁xan	-842
akin	-843
stan	-844
oru	-845
▁müv	-846
▁tap	-847
od	-848
▁olunmuş	-849
undan	-850
▁İs	-851
ob	-852
qan	-853
▁№	-854
▁Ü	-855
▁heç	-856
larla	-857
əyin	-858
Azərbaycan	-859
ver	-860
▁məktəb	-861
▁edilmiş	-862
▁ox	-863
▁bər	-864
▁8	-865
▁dəf	-866
ğul	-867
▁vəzif	-868
▁edə	-869
▁kö	-870
▁tarixi	-871
▁vətən	-872
larında	-873
olog	-874
▁An	-875
▁if	-876
▁müst	-877
izə	-878
xan	-879
▁vasit	-880
əssis	-881
ti	-882
▁uyğun	-883
▁9	-884
iqi	-885
ətir	-886
ayan	-887
▁zaman	-888
▁form	-889
üvv	-890
ığ	-891
▁xüsusi	-892
▁torp	-893
▁siyasi	-894
ılan	-895
▁ermən	-896
▁hakim	-897
tima	-898
▁Rus	-899
est	-900
bl	-901
kan	-902
▁müddət	-903
evr	-904
▁nö	-905
lərlə	-906
▁Ermən	-907
▁qor	-908
ed	-909
▁sax	-910
▁olur	-911
luq	-912
▁olunur	-913
iqq	-914
▁El	-915
▁sosial	-916
arici	-917
▁mil	-918
dam	-919
per	-920
▁müq	-921
▁qiymət	-922
▁türk	-923
▁av	-924
caq	-925
▁proses	-926
▁layih	-927
▁na	-928
ləy	-929
ndər	-930
asir	-931
yni	-932
ündə	-933
▁edib	-934
diq	-935
lah	-936
▁Mü	-937
ərək	-938
ılması	-939
▁təşkilat	-940
▁təc	-941
▁diqq	-942
▁vur	-943
▁çal	-944
çi	-945
ğunu	-946
ələn	-947
▁iqtisadi	-948
...	-949
eft	-950
▁səv	-951
əqil	-952
əmməd	-953
▁əks	-954
▁par	-955
▁qərar	-956
▁məqsəd	-957
▁uğur	-958
afiq	-959
ədi	-960
▁olunan	-961
▁Avrop	-962
▁istiqamət	-963
▁güc	-964
▁qanun	-965
▁eh	-966
▁onu	-967
▁alın	-968
▁li	-969
▁elmi	-970
▁etdiyi	-971
▁müb	-972
▁sür	-973
▁təqdim	-974
irlər	-975
istan	-976
min	-977
oğ	-978
oq	-979
▁doğ	-980
▁səviyy	-981
▁şəkil	-982
▁Ar	-983
▁müs	-984
▁ib	-985
▁dəst	-986
▁dair	-987
oloji	-988
....	-989
azı	-990
▁alt	-991
▁Əliyevin	-992
liyinin	-993
iri	-994
stit	-995
▁gətir	-996
▁olub	-997
▁azad	-998
çilər	-999
malı	-1000
▁sal	-1001
▁maraq	-1002
▁akt	-1003
▁səb	-1004
▁Azərbaycanda	-1005
sal	-1006
▁sistem	-1007
▁başqa	-1008
▁təsdiq	-1009
▁yaradıl	-1010
▁hey	-1011
əsiz	-1012
▁ictima	-1013
▁olduğu	-1014
biyyat	-1015
▁üzv	-1016
üd	-1017
▁ilin	-1018
▁sev	-1019
▁199	-1020
3-	-1021
▁idar	-1022
dıq	-1023
abağ	-1024
▁qüvv	-1025
▁gənc	-1026
▁şa	-1027
▁əməkdaş	-1028
▁edilir	-1029
▁Mər	-1030
▁edilm	-1031
ələrdə	-1032
▁zər	-1033
▁yaran	-1034
▁yanaş	-1035
▁səh	-1036
siz	-1037
ika	-1038
mız	-1039
▁am	-1040
din	-1041
▁qayda	-1042
▁sır	-1043
▁kəs	-1044
▁mərkəz	-1045
8-	-1046
1-	-1047
5-	-1048
itet	-1049
▁isteh	-1050
▁hərbi	-1051
▁məş	-1052
▁mədəniyyət	-1053
▁etmiş	-1054
▁çalış	-1055
rup	-1056
siya	-1057
▁Milli	-1058
ƏR	-1059
iliy	-1060
ast	-1061
▁danış	-1062
əlik	-1063
larından	-1064
▁təm	-1065
▁dünya	-1066
▁texn	-1067
mağa	-1068
▁Mən	-1069
▁tik	-1070
▁səbəb	-1071
▁hök	-1072
▁imkan	-1073
aç	-1074
müş	-1075
▁müvafiq	-1076
iyanın	-1077
▁yaxın	-1078
əlidir	-1079
▁10	-1080
arib	-1081
▁probl	-1082
qram	-1083
2-	-1084
▁müstəqil	-1085
▁Məh	-1086
▁inf	-1087
▁0	-1088
▁aşağı	-1089
▁Kon	-1090
tür	-1091
▁ev	-1092
▁qız	-1093
▁dəyər	-1094
ii	-1095
▁bəy	-1096
▁əlav	-1097
▁artıq	-1098
▁olmaq	-1099
▁malik	-1100
▁rol	-1101
▁yetir	-1102
▁Am	-1103
▁Qan	-1104
▁uş	-1105
▁etdi	-1106
edi	-1107
▁çıxış	-1108
▁torpaq	-1109
▁üzər	-1110
4-	-1111
mizin	-1112
əsən	-1113
▁orqan	-1114
▁diqqət	-1115
dırılması	-1116
▁nümayəndə	-1117
ovet	-1118
▁xarici	-1119
▁qurul	-1120
ansı	-1121
▁en	-1122
▁tətb	-1123
▁tutul	-1124
kün	-1125
▁ona	-1126
usu	-1127
▁şərait	-1128
məyə	-1129
▁şəkildə	-1130
amı	-1131
▁hadi	-1132
9-	-1133
▁müəssis	-1134
▁ob	-1135
▁əməl	-1136
▁bəz	-1137
cud	-1138
▁ik	-1139
ələrində	-1140
▁üst	-1141
▁edər	-1142
▁aç	-1143
əsindən	-1144
▁dəfə	-1145
ərr	-1146
▁adam	-1147
ili	-1148
azım	-1149
▁top	-1150
pl	-1151
ant	-1152
▁Biz	-1153
▁verir	-1154
çinin	-1155
▁Prezidenti	-1156
▁yarat	-1157
mir	-1158
ünü	-1159
aln	-1160
▁.	-1161
▁mey	-1162
▁Ağ	-1163
aların	-1164
▁tarixli	-1165
▁nəzərdə	-1166
▁nömr	-1167
ivers	-1168
▁əhal	-1169
▁ədəbiyyat	-1170
▁Qarabağ	-1171
tər	-1172
ılır	-1173
nam	-1174
▁mühüm	-1175
ulu	-1176
▁çıxar	-1177
dığ	-1178
▁ət	-1179
▁Komi	-1180
eda	-1181
▁is	-1182
rans	-1183
ilib	-1184
▁sənəd	-1185
▁zamanı	-1186
▁açı	-1187
maz	-1188
ətinin	-1189
▁po	-1190
6-	-1191
▁hansı	-1192
▁problem	-1193
▁eyni	-1194
tif	-1195
▁təhlük	-1196
▁hərək	-1197
gion	-1198
7-	-1199
▁müasir	-1200
iyası	-1201
▁int	-1202
iyasının	-1203
▁olduğunu	-1204
▁möh	-1205
▁bizim	-1206
alnız	-1207
▁tə	-1208
II	-1209
▁sahib	-1210
▁nazir	-1211
▁yaradıcı	-1212
▁Məc	-1213
▁əldə	-1214
▁əhəmiyyət	-1215
▁qab	-1216
nin	-1217
▁tən	-1218
əkk	-1219
▁sahəsində	-1220
▁görüş	-1221
▁mövcud	-1222
▁edilən	-1223
▁Avropa	-1224
▁əlavə	-1225
dafi	-1226
▁adı	-1227
▁məhsul	-1228
ati	-1229
▁düz	-1230
rik	-1231
▁əsgər	-1232
▁qrup	-1233
▁icra	-1234
▁j	-1235
▁qəz	-1236
ovun	-1237
eat	-1238
▁uşaq	-1239
▁iç	-1240
ünün	-1241
▁müharib	-1242
▁yay	-1243
▁döy	-1244
▁olmuşdur	-1245
umi	-1246
▁imz	-1247
▁fərq	-1248
▁əsasən	-1249
▁çevr	-1250
ləm	-1251
▁Ab	-1252
▁ön	-1253
▁ek	-1254
larımız	-1255
▁eht	-1256
əlb	-1257
▁gələn	-1258
qaz	-1259
▁hazırlan	-1260
qiqat	-1261
iversitet	-1262
▁təsir	-1263
▁cüm	-1264
▁yaxşı	-1265
▁baz	-1266
▁yazı	-1267
əmi	-1268
ünə	-1269
yr	-1270
▁kən	-1271
▁başçı	-1272
eçə	-1273
▁Mərkəz	-1274
▁Az	-1275
yekt	-1276
▁Son	-1277
▁idarə	-1278
▁müt	-1279
əhr	-1280
ina	-1281
▁boy	-1282
ux	-1283
▁ərz	-1284
ult	-1285
var	-1286
amış	-1287
▁elm	-1288
alaş	-1289
irk	-1290
▁aid	-1291
▁dərəc	-1292
▁nəz	-1293
▁Baş	-1294
▁ibarət	-1295
lığın	-1296
▁qarşıs	-1297
▁zamanda	-1298
urn	-1299
eq	-1300
▁respublik	-1301
▁ictimai	-1302
▁yerləş	-1303
▁lazım	-1304
cid	-1305
▁sənət	-1306
ova	-1307
▁yaşay	-1308
▁Hər	-1309
▁can	-1310
▁sil	-1311
yabr	-1312
▁din	-1313
ahi	-1314
3.	-1315
▁yalnız	-1316
▁tərk	-1317
▁bit	-1318
▁18	-1319
▁səd	-1320
▁vəziyyət	-1321
AN	-1322
▁nəticəsində	-1323
▁man	-1324
▁göndər	-1325
ünki	-1326
▁mus	-1327
▁ı	-1328
▁12	-1329
ilərin	-1330
▁ümum	-1331
▁xat	-1332
▁cəmiyyət	-1333
lk	-1334
▁etmişdir	-1335
tə	-1336
▁Əs	-1337
ərrüf	-1338
ond	-1339
▁bay	-1340
▁istəy	-1341
ədim	-1342
ilmişdir	-1343
▁fikir	-1344
na	-1345
rət	-1346
▁Rusiya	-1347
▁vətəndaş	-1348
▁,	-1349
▁bəl	-1350
▁hadisə	-1351
▁əsr	-1352
dın	-1353
əmər	-1354
▁neft	-1355
▁illərdə	-1356
▁Lakin	-1357
adın	-1358
▁nömrəli	-1359
▁get	-1360
▁region	-1361
imi	-1362
ron	-1363
▁as	-1364
▁təyin	-1365
tı	-1366
İN	-1367
▁ətraf	-1368
▁iy	-1369
▁öyr	-1370
▁fa	-1371
▁qazan	-1372
▁yerinə	-1373
▁neçə	-1374
laşdır	-1375
▁düşün	-1376
▁met	-1377
sız	-1378
▁həll	-1379
▁azərbaycan	-1380
▁məc	-1381
isində	-1382
adiyyat	-1383
mışdı	-1384
▁daş	-1385
▁hüquqi	-1386
▁döyüş	-1387
Lİ	-1388
▁tur	-1389
▁Ermənistan	-1390
▁proqram	-1391
▁səs	-1392
yü	-1393
▁xar	-1394
lis	-1395
▁yenidən	-1396
iklik	-1397
▁göstərir	-1398
ativ	-1399
▁bölg	-1400
”.	-1401
▁cav	-1402
afqaz	-1403
masını	-1404
liyin	-1405
tar	-1406
axçı	-1407
▁artır	-1408
▁Onun	-1409
▁11	-1410
▁götür	-1411
▁dol	-1412
▁Belə	-1413
iç	-1414
▁istehsal	-1415
▁müm	-1416
▁şe	-1417
▁gözəl	-1418
▁inkişafı	-1419
uh	-1420
▁əsasında	-1421
aşa	-1422
▁dem	-1423
xtar	-1424
▁iz	-1425
ədar	-1426
▁Or	-1427
ələrə	-1428
▁mübar	-1429
▁işğ	-1430
ort	-1431
asından	-1432
▁müqav	-1433
▁keçirilən	-1434
kad	-1435
rukt	-1436
▁2.	-1437
▁müş	-1438
▁mərh	-1439
▁mümkün	-1440
▁mah	-1441
hur	-1442
▁qeyri	-1443
▁cəh	-1444
▁cümlə	-1445
landır	-1446
sor	-1447
▁erməni	-1448
abit	-1449
irəm	-1450
▁burada	-1451
▁dən	-1452
▁məz	-1453
▁soy	-1454
bur	-1455
▁nail	-1456
ormasiya	-1457
▁ifadə	-1458
▁uzun	-1459
▁1.	-1460
▁ot	-1461
▁onlar	-1462
▁formalaş	-1463
▁ərzində	-1464
▁15	-1465
ern	-1466
▁birinci	-1467
▁müəllim	-1468
▁real	-1469
eatr	-1470
ələrini	-1471
əbər	-1472
▁tətbiq	-1473
lığa	-1474
▁siyasət	-1475
▁gəlir	-1476
.1.	-1477
▁xanım	-1478
ıcı	-1479
alarının	-1480
kadem	-1481
▁növb	-1482
▁va	-1483
▁başlay	-1484
▁qoş	-1485
▁edərək	-1486
gün	-1487
4.	-1488
ali	-1489
▁Un	-1490
▁ax	-1491
▁Naxçı	-1492
▁dəyişiklik	-1493
ladı	-1494
ərç	-1495
▁Əl	-1496
▁dost	-1497
ənub	-1498
gə	-1499
▁pay	-1500
ara	-1501
▁plan	-1502
ılaş	-1503
▁müdafi	-1504
eg	-1505
▁oyn	-1506
▁təsərrüf	-1507
▁ix	-1508
▁verən	-1509
▁şey	-1510
▁Məmməd	-1511
ust	-1512
iləri	-1513
▁yen	-1514
pr	-1515
▁yanaşı	-1516
▁hökum	-1517
irə	-1518
▁qoyul	-1519
masında	-1520
sın	-1521
▁olduq	-1522
▁norm	-1523
ildi	-1524
▁arx	-1525
▁ümumi	-1526
▁dağ	-1527
19	-1528
stitut	-1529
▁Mir	-1530
▁ayrı	-1531
▁təcr	-1532
kr	-1533
▁işğal	-1534
▁rəs	-1535
▁qon	-1536
▁üzərində	-1537
iyev	-1538
▁nümun	-1539
lif	-1540
üseyn	-1541
▁altında	-1542
▁xarakt	-1543
ruktur	-1544
urnal	-1545
əmiş	-1546
▁öyrən	-1547
▁aşağıdakı	-1548
ılmış	-1549
ator	-1550
əsr	-1551
▁nəfər	-1552
▁baxım	-1553
▁olması	-1554
▁mövz	-1555
der	-1556
▁səfər	-1557
▁edilmişdir	-1558
atının	-1559
malıdır	-1560
diyini	-1561
▁əlaqədar	-1562
ələrinə	-1563
▁bun	-1564
▁xey	-1565
▁əvəz	-1566
asi	-1567
▁tərkib	-1568
▁başa	-1569
▁cavab	-1570
ləğ	-1571
▁həmçinin	-1572
ayev	-1573
▁yolu	-1574
ırlar	-1575
kin	-1576
▁qəl	-1577
sip	-1578
▁mərhəl	-1579
▁azərbaycanlı	-1580
▁kim	-1581
▁zəng	-1582
▁dir	-1583
▁cin	-1584
zadə	-1585
▁prin	-1586
AS	-1587
▁olunması	-1588
▁xəbər	-1589
20	-1590
əql	-1591
imizin	-1592
▁mənim	-1593
gil	-1594
▁mövq	-1595
▁xət	-1596
▁iqtisadiyyat	-1597
▁nəzərə	-1598
▁tədbirlər	-1599
yar	-1600
▁elekt	-1601
SR	-1602
▁Nazirliyi	-1603
▁sıra	-1604
▁tədqiqat	-1605
▁Əli	-1606
▁Sovet	-1607
▁mat	-1608
▁Üm	-1609
▁cümlədən	-1610
veric	-1611
okrat	-1612
▁qiymətləndir	-1613
▁söy	-1614
▁işlər	-1615
▁orta	-1616
.2.	-1617
▁möhkəm	-1618
irin	-1619
▁çətin	-1620
▁bənd	-1621
▁ne	-1622
▁Qafqaz	-1623
ərəf	-1624
eyf	-1625
▁nəş	-1626
▁prinsip	-1627
ban	-1628
oc	-1629
▁əz	-1630
▁miq	-1631
sun	-1632
ununla	-1633
ip	-1634
▁İt	-1635
atlar	-1636
▁həq	-1637
▁fər	-1638
▁Amma	-1639
likdə	-1640
▁Şur	-1641
▁dur	-1642
ark	-1643
ətta	-1644
▁Bur	-1645
▁ildən	-1646
▁Əh	-1647
▁vəs	-1648
tifaq	-1649
sk	-1650
məy	-1651
ərçiv	-1652
erial	-1653
▁xəst	-1654
▁prezident	-1655
▁səl	-1656
▁demək	-1657
▁tanın	-1658
▁başlan	-1659
▁müra	-1660
▁Qanunun	-1661
▁təhlükəsiz	-1662
▁daşı	-1663
tən	-1664
▁cid	-1665
▁halda	-1666
▁fəaliyyəti	-1667
▁ərazi	-1668
▁Xalq	-1669
▁qədim	-1670
▁müraci	-1671
▁millət	-1672
ologiya	-1673
▁rus	-1674
mişdi	-1675
▁saxlan	-1676
▁Qər	-1677
▁edilsin	-1678
ahı	-1679
▁Universitet	-1680
▁çərçiv	-1681
▁obyekt	-1682
▁hərəkət	-1683
▁it	-1684
▁edirdi	-1685
▁köç	-1686
izi	-1687
▁özünü	-1688
▁for	-1689
uc	-1690
▁xarakter	-1691
ilməsinə	-1692
▁İş	-1693
liyini	-1694
ahid	-1695
ündən	-1696
ep	-1697
▁ası	-1698
▁Çünki	-1699
ala	-1700
sən	-1701
▁poz	-1702
əhrəm	-1703
▁ikinci	-1704
ssiy	-1705
lub	-1706
▁təcrüb	-1707
▁çağ	-1708
atın	-1709
▁illər	-1710
▁komi	-1711
▁qəzet	-1712
▁Sər	-1713
çilik	-1714
ayı	-1715
▁Fər	-1716
sinin	-1717
mun	-1718
iyasi	-1719
ank	-1720
▁ciddi	-1721
▁Pro	-1722
▁ener	-1723
ayda	-1724
izin	-1725
abin	-1726
▁bələd	-1727
▁sözləri	-1728
▁yerli	-1729
▁Nazirlər	-1730
▁edəc	-1731
▁ölkəmiz	-1732
▁Həmin	-1733
▁Hüseyn	-1734
▁ruh	-1735
▁adlı	-1736
yə	-1737
emi	-1738
▁SSR	-1739
▁ölkənin	-1740
▁fakt	-1741
▁Təh	-1742
▁görün	-1743
▁qul	-1744
▁hakimiyyət	-1745
▁sağ	-1746
▁tel	-1747
▁keçirilməsi	-1748
masının	-1749
▁part	-1750
▁qı	-1751
▁təklif	-1752
▁17	-1753
əzər	-1754
of	-1755
▁Düny	-1756
▁keyf	-1757
▁mətb	-1758
▁bin	-1759
▁nəzarət	-1760
▁hələ	-1761
ami	-1762
▁un	-1763
oll	-1764
▁zəngin	-1765
▁mədəni	-1766
........	-1767
▁şeir	-1768
zib	-1769
▁mis	-1770
ektor	-1771
eyi	-1772
aşdır	-1773
▁St	-1774
lərimiz	-1775
▁silah	-1776
▁əsrin	-1777
▁may	-1778
▁bac	-1779
rib	-1780
▁dayan	-1781
▁məhz	-1782
),	-1783
əqliyyat	-1784
▁arz	-1785
acib	-1786
üst	-1787
▁alim	-1788
▁Prezidentinin	-1789
▁Naxçıvan	-1790
▁rəq	-1791
abinet	-1792
inq	-1793
ektiv	-1794
ütöv	-1795
▁bərp	-1796
▁qorun	-1797
▁təz	-1798
məsinə	-1799
duğu	-1800
▁ödən	-1801
▁gələcək	-1802
▁ma	-1803
▁informasiya	-1804
isinin	-1805
▁asılı	-1806
▁tez	-1807
▁jurnal	-1808
urs	-1809
▁Gənc	-1810
▁Vətən	-1811
▁ziy	-1812
▁çatdır	-1813
▁Beynəlxalq	-1814
iyyətlə	-1815
lıqlı	-1816
ərim	-1817
▁ter	-1818
▁cür	-1819
▁kat	-1820
ətlə	-1821
▁etməyə	-1822
▁yaxud	-1823
▁Türkiyə	-1824
▁cəlb	-1825
▁ənən	-1826
▁Komit	-1827
yon	-1828
▁məşğul	-1829
▁bəzi	-1830
▁Qey	-1831
▁müz	-1832
ensi	-1833
abər	-1834
nun	-1835
maqla	-1836
▁pr	-1837
▁olmayan	-1838
yun	-1839
▁mə	-1840
əxs	-1841
AR	-1842
▁necə	-1843
).	-1844
nın	-1845
ələrlə	-1846
▁qadın	-1847
▁sənay	-1848
▁qayı	-1849
▁vurğul	-1850
▁irəli	-1851
ıram	-1852
ələrdən	-1853
▁dünyanın	-1854
çu	-1855
həd	-1856
5.	-1857
lində	-1858
▁tamam	-1859
vi	-1860
▁sığ	-1861
sədi	-1862
ual	-1863
▁Ali	-1864
ımızın	-1865
".	-1866
malar	-1867
▁sədri	-1868
ürcü	-1869
ətli	-1870
▁ord	-1871
▁Meh	-1872
▁ola	-1873
▁ali	-1874
ibar	-1875
▁xoş	-1876
▁meydan	-1877
▁vacib	-1878
▁ail	-1879
▁AB	-1880
▁açıq	-1881
▁nəşr	-1882
▁nəs	-1883
▁abi	-1884
əqq	-1885
▁lazımdır	-1886
IN	-1887
▁16	-1888
inda	-1889
br	-1890
▁xər	-1891
▁müraciət	-1892
əlman	-1893
▁Bütün	-1894
▁kr	-1895
▁çərçivəsində	-1896
lanan	-1897
ser	-1898
lığının	-1899
▁zərur	-1900
▁vəsait	-1901
əkar	-1902
ağın	-1903
ES	-1904
çik	-1905
lak	-1906
əşdir	-1907
iyada	-1908
öb	-1909
▁əy	-1910
▁mühit	-1911
▁yön	-1912
▁olmaqla	-1913
▁prof	-1914
stitus	-1915
▁müzak	-1916
liyinə	-1917
omat	-1918
▁musiqi	-1919
▁şəhəri	-1920
zibati	-1921
▁13	-1922
las	-1923
▁ayr	-1924
▁mənt	-1925
▁14	-1926
▁məqsədi	-1927
ədii	-1928
▁məqsədilə	-1929
▁görül	-1930
▁Mərkəzi	-1931
▁bütöv	-1932
▁ağır	-1933
▁işləri	-1934
rar	-1935
▁İr	-1936
▁Şərq	-1937
▁təbii	-1938
▁qurum	-1939
▁şəhərində	-1940
▁İran	-1941
▁film	-1942
oqraf	-1943
adır	-1944
▁bərabər	-1945
▁dərin	-1946
▁lider	-1947
▁əməkdaşlıq	-1948
ost	-1949
alıq	-1950
vət	-1951
▁ür	-1952
▁dəstək	-1953
▁dövrdə	-1954
gin	-1955
laq	-1956
▁sahədə	-1957
alıdır	-1958
▁Kabinet	-1959
▁şərt	-1960
mil	-1961
uxarı	-1962
raz	-1963
▁məsul	-1964
▁fəl	-1965
manın	-1966
▁idey	-1967
▁məhkəm	-1968
▁peş	-1969
▁mənb	-1970
luğu	-1971
▁etdik	-1972
ris	-1973
▁daxili	-1974
▁hakimiyyəti	-1975
mı	-1976
ülh	-1977
▁sa	-1978
▁yoxdur	-1979
laşdırıl	-1980
▁olunub	-1981
alın	-1982
məti	-1983
iyyətli	-1984
▁layiq	-1985
▁qanunveric	-1986
▁kömək	-1987
▁Təb	-1988
ünas	-1989
▁avt	-1990
▁Dağ	-1991
▁Məs	-1992
öhbət	-1993
▁səmər	-1994
əbb	-1995
nı	-1996
▁müav	-1997
və	-1998
▁özü	-1999
aqiş	-2000
▁yaşayan	-2001
▁yad	-2002
▁hissəsi	-2003
əsilə	-2004
məz	-2005
▁sar	-2006
dənin	-2007
▁Şah	-2008
ırıq	-2009
▁şair	-2010
eks	-2011
▁dövründə	-2012
▁san	-2013
▁ün	-2014
▁qarşısında	-2015
▁ərazisində	-2016
▁stan	-2017
▁qarşılıqlı	-2018
dud	-2019
▁yaradılması	-2020
▁Mədən	-2021
▁dek	-2022
▁tikin	-2023
AY	-2024
▁birgə	-2025
lamaq	-2026
▁dünyada	-2027
▁3.	-2028
səf	-2029
▁həsr	-2030
▁material	-2031
▁ABŞ	-2032
▁abidə	-2033
”,	-2034
▁Türkiy	-2035
▁mətbu	-2036
əcəy	-2037
▁həmiş	-2038
▁Sən	-2039
▁Hac	-2040
▁keçmiş	-2041
irik	-2042
▁ora	-2043
▁istiqamətində	-2044
mayaraq	-2045
▁ort	-2046
▁hamı	-2047
▁vardır	-2048
izam	-2049
▁kiçik	-2050
▁rej	-2051
▁hav	-2052
▁məb	-2053
▁yat	-2054
ologiy	-2055
▁etibar	-2056
▁bundan	-2057
▁əhat	-2058
▁addım	-2059
▁Ümum	-2060
əxsus	-2061
▁Azərbaycana	-2062
andan	-2063
▁qır	-2064
amız	-2065
itab	-2066
▁adına	-2067
▁edirlər	-2068
▁məcbur	-2069
▁səlah	-2070
lənməsi	-2071
▁dön	-2072
▁şirk	-2073
▁Ancaq	-2074
iyyətinin	-2075
örmət	-2076
▁Öz	-2077
▁təsv	-2078
▁qat	-2079
▁birlikdə	-2080
lin	-2081
▁münaqiş	-2082
▁uzaq	-2083
▁dini	-2084
▁olacaq	-2085
▁nümayiş	-2086
kv	-2087
▁Böyük	-2088
▁əməliyyat	-2089
he	-2090
▁tör	-2091
▁işlə	-2092
milli	-2093
daşı	-2094
▁şöb	-2095
dılar	-2096
▁qəhrəm	-2097
▁yardım	-2098
▁indi	-2099
▁onlara	-2100
ləşdirilməsi	-2101
orta	-2102
▁inkişafına	-2103
▁eləcə	-2104
liyə	-2105
▁mənəvi	-2106
▁198	-2107
lor	-2108
▁Həm	-2109
ksiy	-2110
▁islah	-2111
ənab	-2112
lığını	-2113
gir	-2114
▁Akadem	-2115
za	-2116
▁AZ	-2117
eral	-2118
nə	-2119
▁verilməsi	-2120
ılıb	-2121
▁konf	-2122
çılıq	-2123
dığını	-2124
▁teatr	-2125
▁cinayət	-2126
▁güclü	-2127
ana	-2128
mam	-2129
▁bi	-2130
▁Ona	-2131
▁inc	-2132
çılar	-2133
iyyəsi	-2134
▁məm	-2135
üsü	-2136
▁ixtis	-2137
▁maliyyə	-2138
▁naziri	-2139
ələrindən	-2140
əncam	-2141
▁qarş	-2142
▁istər	-2143
▁düşmən	-2144
▁idman	-2145
▁Allah	-2146
▁qaç	-2147
▁tox	-2148
▁edilib	-2149
lat	-2150
çısı	-2151
ss	-2152
lamış	-2153
▁Qeyd	-2154
lament	-2155
▁Qur	-2156
örd	-2157
dəki	-2158
▁hətta	-2159
suz	-2160
▁Qaz	-2161
▁hab	-2162
lim	-2163
▁İc	-2164
ida	-2165
ucu	-2166
iqtis	-2167
etik	-2168
▁yüz	-2169
▁müdafiə	-2170
▁hüc	-2171
▁birləş	-2172
▁müqavil	-2173
▁rə	-2174
▁həmişə	-2175
ənn	-2176
▁demokrat	-2177
▁küt	-2178
dul	-2179
▁strat	-2180
▁istis	-2181
▁hissə	-2182
▁sin	-2183
▁sub	-2184
▁icr	-2185
▁həqiq	-2186
▁bazar	-2187
zim	-2188
▁yarım	-2189
▁üzvü	-2190
▁üsul	-2191
▁cəhət	-2192
▁edirəm	-2193
▁Ay	-2194
▁Burada	-2195
▁bədii	-2196
mayıl	-2197
ktyabr	-2198
çisi	-2199
▁buna	-2200
▁dövlətin	-2201
▁gir	-2202
▁Bakıda	-2203
▁mühaf	-2204
▁tanış	-2205
▁dəqiq	-2206
▁İnstitut	-2207
sının	-2208
▁bunu	-2209
sman	-2210
▁vasitəsilə	-2211
▁sur	-2212
▁ehtiy	-2213
iqtisadi	-2214
acağ	-2215
▁sonr	-2216
əlil	-2217
▁sıx	-2218
▁Mirz	-2219
▁J	-2220
▁nəqliyyat	-2221
▁Ər	-2222
▁[	-2223
aziş	-2224
▁ədəbi	-2225
▁şəh	-2226
▁Ölk	-2227
▁habelə	-2228
▁eş	-2229
▁ins	-2230
▁maraqlı	-2231
▁profes	-2232
▁İslam	-2233
ec	-2234
icarət	-2235
▁Di	-2236
▁yaşayış	-2237
▁uğr	-2238
ələ	-2239
ahat	-2240
vər	-2241
▁gül	-2242
▁baxmayaraq	-2243
▁pul	-2244
▁çap	-2245
nik	-2246
ahidə	-2247
▁müəllif	-2248
prel	-2249
entyabr	-2250
liğ	-2251
şa	-2252
ımı	-2253
▁başçısı	-2254
▁onları	-2255
▁rəng	-2256
tib	-2257
▁Mu	-2258
▁At	-2259
▁doğru	-2260
▁aydın	-2261
▁burax	-2262
▁xadi	-2263
▁sərhəd	-2264
▁dəniz	-2265
anlar	-2266
▁İttifaq	-2267
▁əhəmiyyətli	-2268
üç	-2269
lığında	-2270
atur	-2271
▁təmsil	-2272
▁sayı	-2273
uzey	-2274
əliy	-2275
▁sadə	-2276
kəmli	-2277
▁həd	-2278
şünas	-2279
▁Azər	-2280
▁Həsən	-2281
▁xalqın	-2282
▁edəcək	-2283
▁müsəlman	-2284
▁turizm	-2285
▁sülh	-2286
▁sor	-2287
▁mod	-2288
▁ərazilər	-2289
asim	-2290
▁başladı	-2291
▁Fond	-2292
▁bor	-2293
▁üstün	-2294
şıq	-2295
▁duy	-2296
asiyası	-2297
ƏT	-2298
▁rəsmi	-2299
▁olmay	-2300
▁tapş	-2301
▁yeri	-2302
lanır	-2303
iət	-2304
▁Konstitus	-2305
▁sat	-2306
▁Tur	-2307
▁Bel	-2308
dum	-2309
▁Kom	-2310
▁dərs	-2311
▁Mos	-2312
▁daim	-2313
üy	-2314
pər	-2315
çək	-2316
▁ab	-2317
▁Dağlıq	-2318
▁yüksəl	-2319
▁Onlar	-2320
▁olundu	-2321
▁çağır	-2322
▁əhatə	-2323
urdu	-2324
▁qət	-2325
oyabr	-2326
▁sim	-2327
▁özünün	-2328
▁lakin	-2329
lil	-2330
dəs	-2331
▁yığ	-2332
siniz	-2333
▁Mədəniyyət	-2334
▁milyon	-2335
oh	-2336
▁30	-2337
▁göstərən	-2338
▁təbliğ	-2339
cüm	-2340
▁ehtiya	-2341
▁dipl	-2342
▁Tərəf	-2343
▁komp	-2344
▁qap	-2345
▁şah	-2346
▁Cənub	-2347
ıı	-2348
▁AZƏR	-2349
üfuz	-2350
▁qayğı	-2351
▁inzibati	-2352
qt	-2353
▁Bundan	-2354
etmə	-2355
məklə	-2356
▁Məhəmməd	-2357
▁veril	-2358
▁verilir	-2359
məyi	-2360
▁aradan	-2361
ektoru	-2362
ləyir	-2363
▁şəxsiyyət	-2364
▁tal	-2365
▁söhbət	-2366
▁eks	-2367
▁ölkədə	-2368
▁Gör	-2369
▁Azar	-2370
2.	-2371
▁stat	-2372
▁olsun	-2373
▁fiz	-2374
lıqla	-2375
▁təşəbb	-2376
▁olunmuşdur	-2377
6.	-2378
▁araşdır	-2379
liklə	-2380
arası	-2381
▁struktur	-2382
▁qis	-2383
▁keçirilir	-2384
▁səy	-2385
▁mon	-2386
▁kənar	-2387
▁nüfuz	-2388
vest	-2389
▁Gürcü	-2390
▁Par	-2391
▁kompl	-2392
▁edildi	-2393
arif	-2394
▁uğrunda	-2395
əll	-2396
▁of	-2397
▁div	-2398
1.	-2399
▁mərkəzi	-2400
imal	-2401
indəki	-2402
aman	-2403
▁mük	-2404
▁mübarizə	-2405
▁öndər	-2406
▁səviyyədə	-2407
▁ba	-2408
bəy	-2409
▁yerləşən	-2410
ləndirilməsi	-2411
əmiyyəti	-2412
▁dekabr	-2413
▁İsmayıl	-2414
▁kin	-2415
▁:	-2416
▁25	-2417
ani	-2418
atları	-2419
▁Təd	-2420
▁202	-2421
▁almaq	-2422
▁göstərilən	-2423
▁ide	-2424
▁val	-2425
ətdə	-2426
▁qəs	-2427
▁qardaş	-2428
lüy	-2429
▁uç	-2430
▁razı	-2431
▁dili	-2432
▁ölüm	-2433
mrük	-2434
▁Yeni	-2435
▁fəlsəf	-2436
▁təx	-2437
▁Əhməd	-2438
▁tab	-2439
▁beş	-2440
▁səf	-2441
▁hökm	-2442
düyü	-2443
ata	-2444
▁aparıl	-2445
▁xatır	-2446
▁insanların	-2447
▁Dünya	-2448
dalət	-2449
▁xüsusiyyət	-2450
▁xərc	-2451
əxt	-2452
▁əhalinin	-2453
str	-2454
▁müavini	-2455
adığı	-2456
▁giz	-2457
▁Nazirliyinin	-2458
▁yerdə	-2459
▁Moskv	-2460
▁imzalan	-2461
dikdə	-2462
qır	-2463
cıl	-2464
mür	-2465
▁bal	-2466
▁məşhur	-2467
▁Şuş	-2468
inc	-2469
▁197	-2470
əff	-2471
▁mu	-2472
▁inan	-2473
▁ondan	-2474
▁Əgər	-2475
▁məruz	-2476
six	-2477
▁191	-2478
▁itir	-2479
▁amil	-2480
▁ibarətdir	-2481
▁bilməz	-2482
▁bərpa	-2483
ement	-2484
▁daşıy	-2485
▁II	-2486
▁kar	-2487
iliyi	-2488
▁ölkəmizin	-2489
tub	-2490
▁məbləğ	-2491
▁fərqli	-2492
ici	-2493
▁məqal	-2494
▁büd	-2495
ni	-2496
▁SSRİ	-2497
▁illik	-2498
abiq	-2499
etr	-2500
eyt	-2501
▁xeyli	-2502
əliklə	-2503
bas	-2504
▁oktyabr	-2505
▁orq	-2506
▁sentyabr	-2507
▁1-	-2508
əri	-2509
▁işıq	-2510
▁tutulmuş	-2511
ahim	-2512
gent	-2513
▁ancaq	-2514
▁üs	-2515
▁ölç	-2516
▁ör	-2517
anə	-2518
▁çay	-2519
▁mükaf	-2520
▁hücum	-2521
▁Əmək	-2522
mur	-2523
▁pot	-2524
isti	-2525
▁fil	-2526
▁məntəq	-2527
▁kəndi	-2528
amaq	-2529
▁ger	-2530
▁etsin	-2531
▁imt	-2532
▁rəhbərliyi	-2533
▁sözü	-2534
▁Əb	-2535
▁mi	-2536
▁kitabxan	-2537
▁verdi	-2538
▁tanı	-2539
▁Kr	-2540
▁azal	-2541
ümüz	-2542
▁ham	-2543
mədən	-2544
▁maddi	-2545
övq	-2546
▁Osman	-2547
▁Ermənist	-2548
ayrı	-2549
▁bəyan	-2550
pi	-2551
▁müşahidə	-2552
siyasi	-2553
▁şəxsi	-2554
▁kif	-2555
▁XX	-2556
▁gedən	-2557
▁uc	-2558
▁təlim	-2559
ülən	-2560
▁tip	-2561
▁noyabr	-2562
umuz	-2563
▁həc	-2564
▁enerji	-2565
▁dokt	-2566
▁mübariz	-2567
▁səmərəli	-2568
▁verilən	-2569
▁texniki	-2570
▁uğurla	-2571
▁siyasəti	-2572
▁aprel	-2573
▁yanında	-2574
▁potensi	-2575
▁Bununla	-2576
əsidir	-2577
▁təkcə	-2578
▁dedi	-2579
▁yönəl	-2580
▁mənə	-2581
kilər	-2582
əfli	-2583
▁Sonra	-2584
mamış	-2585
edit	-2586
▁hallarda	-2587
gen	-2588
iyahı	-2589
▁elan	-2590
ədir	-2591
lob	-2592
▁gedir	-2593
işi	-2594
BAY	-2595
▁dörd	-2596
▁yuxarı	-2597
▁verilm	-2598
oğlu	-2599
CAN	-2600
ökum	-2601
bar	-2602
▁baxımından	-2603
pan	-2604
▁keyfiyyət	-2605
▁gər	-2606
▁görür	-2607
▁İdar	-2608
▁görkəmli	-2609
onal	-2610
▁qaldır	-2611
ks	-2612
adil	-2613
▁əksər	-2614
000	-2615
onun	-2616
eli	-2617
▁kil	-2618
ahib	-2619
▁tib	-2620
▁sənətkar	-2621
▁hörmət	-2622
▁süb	-2623
▁bunun	-2624
layır	-2625
▁koll	-2626
BAYCAN	-2627
▁tərtib	-2628
EV	-2629
▁tərəfdən	-2630
▁Alman	-2631
7.	-2632
▁sə	-2633
▁kök	-2634
obil	-2635
alarında	-2636
itar	-2637
sik	-2638
▁yəni	-2639
ski	-2640
▁vahid	-2641
▁göstəric	-2642
▁dəyişikliklər	-2643
▁Azarbaycan	-2644
olk	-2645
▁müəyyənləşdir	-2646
▁insanlar	-2647
▁ticarət	-2648
yev	-2649
▁zəruri	-2650
▁xüsusilə	-2651
▁tənzim	-2652
ayır	-2653
▁xatir	-2654
▁aparılan	-2655
▁kifayət	-2656
▁xalqının	-2657
▁Mad	-2658
▁təsvir	-2659
▁axtar	-2660
▁İst	-2661
▁Eyni	-2662
ell	-2663
daq	-2664
▁qaydada	-2665
▁seçki	-2666
▁geri	-2667
▁qov	-2668
azırda	-2669
▁olsa	-2670
ama	-2671
▁şəxslər	-2672
lır	-2673
▁dilində	-2674
▁Kitab	-2675
▁düzgün	-2676
lanması	-2677
▁Cav	-2678
0.	-2679
▁fun	-2680
lənir	-2681
▁mar	-2682
oli	-2683
əşkil	-2684
▁yaradır	-2685
lığına	-2686
▁sovet	-2687
▁çev	-2688
▁elektron	-2689
▁196	-2690
▁ermənilər	-2691
ətə	-2692
▁mart	-2693
▁məktub	-2694
▁təmiz	-2695
dart	-2696
exan	-2697
uman	-2698
▁ixtisas	-2699
▁tərcüm	-2700
iyi	-2701
▁kütlə	-2702
▁ifa	-2703
iniz	-2704
lobal	-2705
yor	-2706
▁har	-2707
▁yanvar	-2708
bul	-2709
əddin	-2710
qust	-2711
▁məhdud	-2712
mal	-2713
▁22	-2714
say	-2715
▁Tarix	-2716
▁qəhrəman	-2717
▁tarixində	-2718
▁sübut	-2719
übh	-2720
ələndir	-2721
alarına	-2722
qar	-2723
▁bayram	-2724
iyaya	-2725
taxt	-2726
laşdırılması	-2727
▁nis	-2728
▁məsələləri	-2729
▁reda	-2730
▁cənab	-2731
▁mülk	-2732
▁orada	-2733
gird	-2734
izami	-2735
▁keçirilm	-2736
▁bacar	-2737
▁nəticə	-2738
LİY	-2739
▁fevr	-2740
▁mətbuat	-2741
▁məni	-2742
▁bilir	-2743
zi	-2744
mid	-2745
▁Xəzər	-2746
▁Buna	-2747
gilis	-2748
aha	-2749
dək	-2750
▁ailə	-2751
▁birləşdir	-2752
▁nar	-2753
▁qərara	-2754
ibi	-2755
▁professor	-2756
▁qeydiyyat	-2757
▁sabit	-2758
▁konfrans	-2759
əssam	-2760
▁rom	-2761
▁çar	-2762
mar	-2763
brahim	-2764
▁iddi	-2765
▁fəaliyyətinin	-2766
▁yaxş	-2767
anına	-2768
əyən	-2769
ğın	-2770
▁Mus	-2771
▁qabil	-2772
▁Bay	-2773
lisi	-2774
▁İqtis	-2775
apit	-2776
ılmışdır	-2777
▁Cənubi	-2778
▁kiş	-2779
qil	-2780
iyar	-2781
ror	-2782
umu	-2783
▁bəh	-2784
kə	-2785
▁rayonunun	-2786
sında	-2787
▁avadan	-2788
▁iştirakçı	-2789
▁qoşun	-2790
▁gəlib	-2791
əbək	-2792
vestis	-2793
▁tətbiqi	-2794
▁jurnalist	-2795
▁verdiyi	-2796
▁Amer	-2797
alarda	-2798
8.	-2799
▁manat	-2800
▁fiziki	-2801
▁sektor	-2802
anının	-2803
▁ust	-2804
▁AZƏRBAYCAN	-2805
əsənət	-2806
▁müsbət	-2807
▁nam	-2808
▁öv	-2809
▁anlay	-2810
▁yaxşılaş	-2811
atların	-2812
sert	-2813
▁mət	-2814
şaq	-2815
▁Bil	-2816
▁mür	-2817
▁Təşkil	-2818
▁deyə	-2819
ləh	-2820
▁21	-2821
▁rəhbəri	-2822
▁Elə	-2823
usunun	-2824
▁etməsi	-2825
▁qısa	-2826
▁aşkar	-2827
▁Br	-2828
▁vermək	-2829
▁4.	-2830
məli	-2831
▁oxuy	-2832
eyh	-2833
▁sənaye	-2834
riban	-2835
alara	-2836
▁sistemi	-2837
▁kan	-2838
▁olmalıdır	-2839
MT	-2840
ğa	-2841
▁24	-2842
▁dünyaya	-2843
▁ətrafında	-2844
əndi	-2845
mır	-2846
dıl	-2847
▁day	-2848
adüf	-2849
▁amma	-2850
mas	-2851
mada	-2852
madan	-2853
▁uğurlu	-2854
pert	-2855
▁faiz	-2856
▁ehtiyac	-2857
▁bizə	-2858
▁məqam	-2859
əmə	-2860
▁musiq	-2861
bə	-2862
rac	-2863
mda	-2864
▁ağac	-2865
eviz	-2866
▁ölkəmizdə	-2867
namə	-2868
▁günü	-2869
diri	-2870
əkkür	-2871
▁hesabına	-2872
▁tay	-2873
▁baxış	-2874
ultan	-2875
adr	-2876
▁meda	-2877
▁siyahı	-2878
siyası	-2879
luğun	-2880
AT	-2881
▁sağlam	-2882
▁təsərrüfatı	-2883
dədir	-2884
▁borc	-2885
▁malikdir	-2886
ind	-2887
anıb	-2888
▁salın	-2889
▁Komissiy	-2890
▁quruc	-2891
asp	-2892
▁qalan	-2893
▁quruluş	-2894
▁dərəcədə	-2895
▁qızı	-2896
▁işçilər	-2897
bəttə	-2898
▁sığorta	-2899
▁öh	-2900
lıb	-2901
▁qonaq	-2902
ülmüş	-2903
ars	-2904
yas	-2905
▁baxımdan	-2906
▁boyu	-2907
",	-2908
▁Ən	-2909
▁böy	-2910
alının	-2911
▁ədalət	-2912
qo	-2913
▁Part	-2914
▁növbəti	-2915
dikdən	-2916
▁imzal	-2917
201	-2918
▁saylı	-2919
▁etməklə	-2920
▁23	-2921
▁şəhid	-2922
axı	-2923
▁100	-2924
▁heyvan	-2925
▁hökumət	-2926
əxəssis	-2927
▁adət	-2928
▁tərb	-2929
▁isteda	-2930
▁dep	-2931
▁sahibkar	-2932
fer	-2933
rast	-2934
▁tamaş	-2935
▁normativ	-2936
▁töh	-2937
uluq	-2938
▁prezidenti	-2939
▁kam	-2940
hiz	-2941
▁təkmil	-2942
▁bunlar	-2943
▁yek	-2944
▁Cüm	-2945
sını	-2946
▁imper	-2947
uli	-2948
▁iyul	-2949
▁Ax	-2950
ubil	-2951
▁demokratik	-2952
ırdılar	-2953
PU	-2954
kret	-2955
▁pozul	-2956
▁ulu	-2957
▁bitir	-2958
LİK	-2959
eji	-2960
▁bələdiyyəsi	-2961
mər	-2962
▁mövzu	-2963
estiv	-2964
▁psix	-2965
▁Yer	-2966
▁İndi	-2967
▁deyir	-2968
▁ölkələri	-2969
mayan	-2970
▁işi	-2971
▁yetiş	-2972
▁mexan	-2973
larımızın	-2974
ümü	-2975
▁Abbas	-2976
▁Art	-2977
▁194	-2978
▁element	-2979
▁parç	-2980
▁Muxtar	-2981
▁Xoc	-2982
▁İbrahim	-2983
bu	-2984
məlidir	-2985
▁rəhbərlik	-2986
pərvər	-2987
▁alır	-2988
▁bildirdi	-2989
muşdur	-2990
▁tədris	-2991
▁işə	-2992
▁Beləliklə	-2993
▁obraz	-2994
▁Məmmədov	-2995
▁Osmanlı	-2996
ill	-2997
▁Bak	-2998
▁sisteminin	-2999
▁danışıq	-3000
AM	-3001
▁raz	-3002
▁mem	-3003
▁keçən	-3004
▁ada	-3005
▁sın	-3006
▁Mirzə	-3007
▁standart	-3008
▁şü	-3009
omatik	-3010
▁Mal	-3011
▁namiz	-3012
▁xal	-3013
▁Əsas	-3014
Zİ	-3015
▁müzakirə	-3016
▁mövqe	-3017
▁töhf	-3018
▁şəxslərin	-3019
▁sual	-3020
▁Məhkəm	-3021
dıqdan	-3022
əcəkdir	-3023
▁komissiy	-3024
▁Maddə	-3025
alıb	-3026
uya	-3027
mağı	-3028
1,	-3029
▁məxsus	-3030
▁yazıçı	-3031
exniki	-3032
▁bildirib	-3033
▁insanın	-3034
▁texnologiy	-3035
▁önəm	-3036
▁qəsəb	-3037
▁ləğ	-3038
usunda	-3039
▁Qor	-3040
▁universitet	-3041
arlıq	-3042
▁avqust	-3043
əddəs	-3044
▁yenə	-3045
▁şagird	-3046
▁Ulu	-3047
manı	-3048
▁ehtiyat	-3049
ƏN	-3050
▁əmin	-3051
alarını	-3052
▁Elm	-3053
sına	-3054
▁Nizami	-3055
▁məsələ	-3056
▁Səf	-3057
▁şəbək	-3058
▁miqdar	-3059
lad	-3060
▁Bun	-3061
▁gü	-3062
başa	-3063
▁üzərinə	-3064
aqq	-3065
diki	-3066
ayis	-3067
▁XI	-3068
tez	-3069
▁alınması	-3070
▁Əf	-3071
▁dövlətinin	-3072
▁mübadil	-3073
▁Təhsil	-3074
əncə	-3075
▁Məsələn	-3076
▁1,	-3077
olu	-3078
lama	-3079
dikləri	-3080
▁məsələlər	-3081
▁gərgin	-3082
EN	-3083
▁BMT	-3084
▁sav	-3085
▁alan	-3086
ətləri	-3087
diyev	-3088
▁ölkələrin	-3089
▁oxucu	-3090
lüyü	-3091
▁səhn	-3092
oğraf	-3093
ayıb	-3094
▁Gün	-3095
▁pers	-3096
isinə	-3097
▁tamamilə	-3098
ing	-3099
sen	-3100
▁təsərrüfat	-3101
▁bununla	-3102
ləmək	-3103
▁maddələr	-3104
▁faci	-3105
▁işlən	-3106
▁azadlıq	-3107
▁nailiyyət	-3108
mu	-3109
▁tikintis	-3110
▁tutur	-3111
▁təchiz	-3112
lış	-3113
omobil	-3114
▁mahnı	-3115
baş	-3116
LİYEV	-3117
▁zərər	-3118
▁2-	-3119
sinə	-3120
ag	-3121
ıldı	-3122
əyan	-3123
▁etir	-3124
▁özünə	-3125
▁Kam	-3126
aric	-3127
▁orqanlarının	-3128
▁192	-3129
▁27	-3130
▁Hacı	-3131
▁qorx	-3132
▁verib	-3133
▁gömrük	-3134
▁olmadı	-3135
▁Abdul	-3136
▁Şurasının	-3137
▁kapit	-3138
▁təkrar	-3139
▁yubil	-3140
▁Xarici	-3141
linin	-3142
asil	-3143
▁Şir	-3144
rasiya	-3145
▁Mah	-3146
▁RES	-3147
▁paytaxt	-3148
▁həv	-3149
▁Hökum	-3150
İY	-3151
▁Təs	-3152
▁kör	-3153
▁rast	-3154
▁investis	-3155
dəlik	-3156
ışı	-3157
▁direktoru	-3158
maqda	-3159
▁dövləti	-3160
▁cəz	-3161
PUB	-3162
LƏR	-3163
▁fayda	-3164
rastruktur	-3165
10	-3166
▁hazırlanması	-3167
▁kəmər	-3168
▁Məcəll	-3169
▁gəlmiş	-3170
▁konkret	-3171
▁mütəxəssis	-3172
▁sonrakı	-3173
▁the	-3174
uk	-3175
▁növbədə	-3176
▁RESPUB	-3177
qın	-3178
▁nümayəndələri	-3179
▁edirik	-3180
ASI	-3181
▁rolu	-3182
mat	-3183
▁müsabiq	-3184
▁saat	-3185
▁Hazırda	-3186
▁vər	-3187
hal	-3188
▁terror	-3189
▁ödə	-3190
▁meydana	-3191
eqor	-3192
▁bəst	-3193
▁hüququ	-3194
qilab	-3195
▁qabaq	-3196
▁mərasim	-3197
adir	-3198
▁maddəsinin	-3199
▁öldür	-3200
▁adlandır	-3201
mü	-3202
▁küç	-3203
▁Seç	-3204
▁anadan	-3205
▁Universitetinin	-3206
▁Dər	-3207
▁gec	-3208
▁əmlak	-3209
▁gündən	-3210
50	-3211
▁xalqı	-3212
▁sədr	-3213
▁tamaşa	-3214
iyyətin	-3215
▁akadem	-3216
▁bəhs	-3217
▁dəmir	-3218
məsini	-3219
▁aləm	-3220
▁qələb	-3221
eder	-3222
▁mədəniyyəti	-3223
▁vermiş	-3224
əkkəb	-3225
▁olduğun	-3226
ərdə	-3227
2,	-3228
▁vəziyyəti	-3229
ig	-3230
tik	-3231
▁*	-3232
udi	-3233
▁parlament	-3234
əvv	-3235
res	-3236
▁res	-3237
▁şəxsin	-3238
▁RESPUBLİK	-3239
lanmış	-3240
▁dis	-3241
▁İnsan	-3242
▁Min	-3243
▁tanınmış	-3244
▁28	-3245
▁məhv	-3246
▁qlobal	-3247
▁Sal	-3248
▁adını	-3249
▁oy	-3250
▁infrastruktur	-3251
▁iyun	-3252
▁Rayon	-3253
xal	-3254
▁ƏLİYEV	-3255
▁toxun	-3256
▁Qul	-3257
▁bul	-3258
▁ürək	-3259
▁0,	-3260
▁səhif	-3261
▁sahələrdə	-3262
▁Yar	-3263
▁tar	-3264
▁qurğu	-3265
oloq	-3266
▁Şəhər	-3267
▁la	-3268
▁oyun	-3269
▁Xid	-3270
inal	-3271
▁Neft	-3272
məsinin	-3273
▁maş	-3274
ğunun	-3275
▁qüvvəyə	-3276
▁xil	-3277
▁Çox	-3278
▁kadr	-3279
lərarası	-3280
duq	-3281
▁onda	-3282
▁bilik	-3283
▁Respublikasında	-3284
▁Qanununun	-3285
land	-3286
▁içər	-3287
laşma	-3288
▁bən	-3289
TA	-3290
qur	-3291
bəxt	-3292
................	-3293
▁məlumatlar	-3294
istik	-3295
▁orqanları	-3296
diş	-3297
▁•	-3298
▁qoruy	-3299
▁ilkin	-3300
▁elektrik	-3301
▁inkişafında	-3302
anlı	-3303
▁əsl	-3304
▁fevral	-3305
▁ölkələrdə	-3306
▁Saziş	-3307
▁qayn	-3308
▁tənq	-3309
▁sayəsində	-3310
▁həlli	-3311
▁biridir	-3312
▁Müh	-3313
tərəfli	-3314
▁köçür	-3315
▁İk	-3316
▁yağ	-3317
▁müddətində	-3318
enin	-3319
▁zon	-3320
▁büdc	-3321
▁keçiril	-3322
▁məsləh	-3323
▁Bəz	-3324
▁Cümhur	-3325
3,	-3326
▁qarış	-3327
diyim	-3328
▁Ölkə	-3329
▁oper	-3330
▁cəhətdən	-3331
▁müqayis	-3332
▁ləğv	-3333
▁Ģ	-3334
idir	-3335
▁zir	-3336
layan	-3337
▁başlamış	-3338
▁ardı	-3339
▁davamlı	-3340
issor	-3341
▁alıb	-3342
▁Müs	-3343
▁qərarı	-3344
▁о	-3345
▁ana	-3346
acaqdır	-3347
liyində	-3348
▁arasındakı	-3349
iyaz	-3350
▁Fran	-3351
▁məhkəmə	-3352
▁29	-3353
▁təhlil	-3354
▁əsaslı	-3355
mələri	-3356
ləyən	-3357
▁Sosial	-3358
▁kredit	-3359
əlim	-3360
▁razılaş	-3361
▁Ermənistanın	-3362
▁vil	-3363
▁icaz	-3364
met	-3365
▁iştirakı	-3366
▁verilmiş	-3367
▁soyqır	-3368
▁tədbirlərin	-3369
▁Fondunun	-3370
▁qayıt	-3371
▁fak	-3372
▁başq	-3373
▁kor	-3374
▁yerə	-3375
gah	-3376
▁kütləvi	-3377
▁26	-3378
▁ötən	-3379
▁Və	-3380
məsində	-3381
▁fəx	-3382
▁qanunvericilik	-3383
▁metod	-3384
▁Proqram	-3385
▁zə	-3386
▁etdirən	-3387
tr	-3388
▁doğma	-3389
▁tan	-3390
III	-3391
ahan	-3392
▁Kənd	-3393
▁§	-3394
▁olmaz	-3395
▁ört	-3396
▁cənub	-3397
usif	-3398
;.	-3399
▁gerçək	-3400
und	-3401
▁Kor	-3402
əcəyi	-3403
▁Teatr	-3404
▁mürəkkəb	-3405
▁boş	-3406
əbh	-3407
▁195	-3408
▁tem	-3409
ven	-3410
▁tayf	-3411
▁ingilis	-3412
ləq	-3413
şu	-3414
▁Kabinetinin	-3415
▁inşa	-3416
ləşmiş	-3417
ovr	-3418
5,	-3419
əth	-3420
▁Bizim	-3421
masından	-3422
▁sərəncam	-3423
▁düşür	-3424
▁Onların	-3425
arkən	-3426
▁əb	-3427
aloq	-3428
▁əvvəlki	-3429
lükdə	-3430
▁daxilində	-3431
edici	-3432
▁dağı	-3433
▁meş	-3434
▁xadim	-3435
hş	-3436
əki	-3437
▁5.	-3438
▁özündə	-3439
▁Bunun	-3440
▁mövqey	-3441
▁50	-3442
▁əsərləri	-3443
asiyasının	-3444
▁bank	-3445
▁qulluq	-3446
▁əmələ	-3447
iyyətini	-3448
dük	-3449
layıb	-3450
▁qızıl	-3451
mənin	-3452
▁məzm	-3453
çiliy	-3454
▁başlı	-3455
▁xətt	-3456
▁Gürcüstan	-3457
▁Cəfər	-3458
▁ov	-3459
▁Birinci	-3460
aj	-3461
▁dar	-3462
▁yerləşdir	-3463
▁cəmiyyətin	-3464
▁təşkili	-3465
▁Re	-3466
▁funksiy	-3467
▁doktoru	-3468
▁təəss	-3469
▁əlaqələrin	-3470
▁ömr	-3471
7,	-3472
ülü	-3473
▁Digər	-3474
▁Komitəsinin	-3475
məmiş	-3476
landırıl	-3477
4,	-3478
▁hazırda	-3479
▁bol	-3480
▁ziyalı	-3481
▁ümummilli	-3482
▁istiqamətdə	-3483
▁ərəb	-3484
ğam	-3485
dıqları	-3486
▁Məhz	-3487
▁rəssam	-3488
▁təsis	-3489
▁şübh	-3490
▁müzakir	-3491
▁ayında	-3492
▁aq	-3493
edaqo	-3494
ahət	-3495
▁töv	-3496
▁Ord	-3497
▁Bal	-3498
▁qoşul	-3499
▁istedad	-3500
▁institut	-3501
▁İşlər	-3502
▁aparıcı	-3503
arəti	-3504
apon	-3505
▁qorunması	-3506
▁dəvət	-3507
▁Qız	-3508
▁xalqımızın	-3509
ılmaz	-3510
▁Mək	-3511
▁ardıcıl	-3512
ekay	-3513
▁dəyişdir	-3514
▁gəldi	-3515
▁rayonu	-3516
salı	-3517
ka	-3518
▁Xüsus	-3519
eyin	-3520
İNİN	-3521
▁içində	-3522
arın	-3523
▁193	-3524
▁təsiri	-3525
▁avtomobil	-3526
▁səlahiyyət	-3527
▁fəaliyyətini	-3528
ix	-3529
▁kurs	-3530
▁müharibə	-3531
adət	-3532
asım	-3533
▁Gəncə	-3534
ədək	-3535
▁etdilər	-3536
▁işlərin	-3537
▁vergi	-3538
ça	-3539
▁məsləhət	-3540
▁strateji	-3541
▁zəif	-3542
int	-3543
▁Su	-3544
İK	-3545
məs	-3546
▁dövrü	-3547
▁aparılması	-3548
▁nöqt	-3549
▁yazır	-3550
▁Tədbir	-3551
▁təf	-3552
▁Sultan	-3553
▁tutulan	-3554
▁bəzən	-3555
▁rejim	-3556
▁özəl	-3557
▁maarif	-3558
əmir	-3559
▁məcburi	-3560
əbbət	-3561
ayn	-3562
müşdür	-3563
6,	-3564
▁sif	-3565
▁arzu	-3566
▁ümid	-3567
▁ser	-3568
▁yaradıcılıq	-3569
▁mas	-3570
▁aktyor	-3571
ült	-3572
▁icrası	-3573
abil	-3574
inki	-3575
duz	-3576
▁olmayaraq	-3577
▁əş	-3578
▁bayr	-3579
▁sahil	-3580
▁fon	-3581
▁kəsb	-3582
dikcə	-3583
▁izah	-3584
▁XV	-3585
val	-3586
▁tapşır	-3587
▁ef	-3588
▁Qanun	-3589
▁hesabat	-3590
▁peşəkar	-3591
▁subyekt	-3592
00-	-3593
▁suy	-3594
▁Səh	-3595
▁ordu	-3596
▁adından	-3597
▁düzəl	-3598
▁deput	-3599
işli	-3600
məyən	-3601
▁etdirir	-3602
▁Göy	-3603
iləşdir	-3604
▁əlamət	-3605
▁Sey	-3606
▁çevir	-3607
▁edək	-3608
▁Qayda	-3609
▁regional	-3610
▁tədqiq	-3611
ilməsini	-3612
▁silahlı	-3613
9.	-3614
▁yarı	-3615
▁Qərb	-3616
aks	-3617
▁səmi	-3618
▁çünki	-3619
8,	-3620
▁toplan	-3621
▁Dem	-3622
▁üçüncü	-3623
▁Xocalı	-3624
▁xaric	-3625
▁Sil	-3626
▁üstünlük	-3627
▁qo	-3628
▁təzy	-3629
ge	-3630
kur	-3631
▁siz	-3632
sub	-3633
▁əgər	-3634
▁hissəsində	-3635
▁qapı	-3636
▁Daha	-3637
▁kons	-3638
▁Mehriban	-3639
▁körp	-3640
çiləri	-3641
iyalar	-3642
▁təsadüf	-3643
▁Ver	-3644
▁coğraf	-3645
▁birbaşa	-3646
▁nəsil	-3647
mini	-3648
▁inam	-3649
əbs	-3650
▁təbiət	-3651
▁fond	-3652
▁bağlıdır	-3653
▁sir	-3654
▁40	-3655
▁olduqda	-3656
▁Azərbaycanı	-3657
▁bür	-3658
ikası	-3659
▁yaratmaq	-3660
▁Xan	-3661
▁surətdə	-3662
urd	-3663
▁Müəlli	-3664
▁Sab	-3665
arlar	-3666
ənilən	-3667
▁Kat	-3668
▁Yusif	-3669
▁doğur	-3670
məl	-3671
gör	-3672
▁Turizm	-3673
▁İkinci	-3674
▁mühafiz	-3675
▁illərində	-3676
▁hava	-3677
▁nəh	-3678
unt	-3679
▁muzey	-3680
▁namizəd	-3681
▁qalx	-3682
▁müəllifi	-3683
arə	-3684
▁İlk	-3685
əriman	-3686
▁3-	-3687
lann	-3688
▁verg	-3689
▁təbrik	-3690
▁İcra	-3691
▁ayır	-3692
▁olduqca	-3693
▁Top	-3694
ağız	-3695
▁nizam	-3696
▁dərc	-3697
tan	-3698
▁yerləşir	-3699
mizi	-3700
▁qəlb	-3701
▁qiymətli	-3702
atına	-3703
▁ixrac	-3704
▁edilməsinə	-3705
illik	-3706
▁televiz	-3707
▁ci	-3708
▁Mil	-3709
ikasiya	-3710
▁kompleks	-3711
▁Siz	-3712
▁radi	-3713
bəst	-3714
▁Şam	-3715
kum	-3716
▁etdirilməsi	-3717
▁keçirilib	-3718
▁münasibətilə	-3719
eyr	-3720
▁Yax	-3721
▁sini	-3722
ılmasına	-3723
▁respublikamız	-3724
▁məsuliyyət	-3725
▁qaytar	-3726
▁daşın	-3727
▁səc	-3728
▁yum	-3729
▁Füz	-3730
▁qüd	-3731
▁çoxlu	-3732
▁yaşam	-3733
▁Frans	-3734
lunun	-3735
iyasında	-3736
▁Yəni	-3737
dr	-3738
▁rayonunda	-3739
▁əsrdə	-3740
lənən	-3741
ayıl	-3742
▁atəş	-3743
▁əlaqələri	-3744
▁üzvləri	-3745
▁tabe	-3746
▁şimal	-3747
ernet	-3748
▁kön	-3749
▁müddə	-3750
▁Oyun	-3751
▁müdiri	-3752
▁Təbr	-3753
▁xəstəlik	-3754
idi	-3755
▁xidməti	-3756
edaqoji	-3757
▁dövrün	-3758
saylı	-3759
▁daimi	-3760
▁Mis	-3761
▁şik	-3762
▁Üz	-3763
▁əməkdaşlığın	-3764
▁istəyirəm	-3765
bit	-3766
▁sərg	-3767
texniki	-3768
UN	-3769
idd	-3770
▁sakin	-3771
▁yür	-3772
əvan	-3773
▁xilas	-3774
itan	-3775
▁Kar	-3776
▁As	-3777
▁deyildir	-3778
▁Rusiyanın	-3779
▁respublika	-3780
▁genişləndir	-3781
▁övlad	-3782
▁and	-3783
▁kollektiv	-3784
stanın	-3785
məm	-3786
ğan	-3787
▁fərdi	-3788
▁siyasətinin	-3789
▁gətirib	-3790
alt	-3791
▁yekun	-3792
ment	-3793
▁incəsənət	-3794
▁otur	-3795
▁W	-3796
lassik	-3797
▁imk	-3798
işin	-3799
▁sp	-3800
▁inteq	-3801
▁hədə	-3802
▁prosesi	-3803
lərimizin	-3804
əşf	-3805
əkim	-3806
sində	-3807
▁müharibəsi	-3808
▁deyib	-3809
▁tərcümə	-3810
▁Məclis	-3811
üley	-3812
dıqda	-3813
▁qida	-3814
aqları	-3815
▁Seçki	-3816
kü	-3817
eb	-3818
▁fikr	-3819
nes	-3820
▁təltif	-3821
▁ermənilərin	-3822
▁oxum	-3823
▁edilməlidir	-3824
▁Asiya	-3825
▁iri	-3826
▁Orta	-3827
▁bizi	-3828
▁keçirdiyi	-3829
yer	-3830
▁hekay	-3831
▁ep	-3832
▁məğ	-3833
▁poez	-3834
▁böh	-3835
olun	-3836
pektiv	-3837
▁Əv	-3838
▁Sizin	-3839
yut	-3840
▁pis	-3841
▁Mar	-3842
▁sahəsi	-3843
▁akademik	-3844
▁qara	-3845
▁human	-3846
ülür	-3847
▁göstərilir	-3848
ayın	-3849
▁icl	-3850
amışdır	-3851
18	-3852
▁onunla	-3853
ıma	-3854
▁avadanlıq	-3855
nət	-3856
▁sürətlə	-3857
▁dal	-3858
iin	-3859
▁Türkiyənin	-3860
ətini	-3861
▁müddətdə	-3862
▁göstərmək	-3863
▁təsəvv	-3864
▁həyatı	-3865
▁mülkiyyət	-3866
▁cəhd	-3867
▁artırılması	-3868
tor	-3869
▁nisb	-3870
▁çətinlik	-3871
▁aparılır	-3872
▁yazılı	-3873
▁təmir	-3874
▁aktiv	-3875
▁mühafizə	-3876
▁çıxan	-3877
ustaf	-3878
▁müqəddəs	-3879
▁qad	-3880
▁dərk	-3881
AL	-3882
▁dostluq	-3883
▁xas	-3884
▁ko	-3885
▁yarış	-3886
tin	-3887
▁En	-3888
▁ortaya	-3889
İn	-3890
▁Sərəncam	-3891
200	-3892
▁Fransa	-3893
▁bilən	-3894
▁redakt	-3895
▁Cəmiyyət	-3896
▁tərəqq	-3897
▁inqilab	-3898
▁maliyy	-3899
▁niş	-3900
▁Şa	-3901
▁bəş	-3902
allar	-3903
▁sizin	-3904
▁fakült	-3905
▁göy	-3906
ilməlidir	-3907
▁şirkət	-3908
alarından	-3909
rəy	-3910
isini	-3911
▁mövcuddur	-3912
▁Qüvv	-3913
▁Qub	-3914
▁keçirir	-3915
▁oxş	-3916
lisin	-3917
oda	-3918
▁ekspert	-3919
▁fəs	-3920
end	-3921
▁asan	-3922
▁Tər	-3923
ülməsi	-3924
▁istəyir	-3925
▁Səm	-3926
mızı	-3927
▁vardı	-3928
maları	-3929
▁etmişdi	-3930
▁verilmişdir	-3931
▁gücləndir	-3932
▁2,	-3933
▁öncə	-3934
tok	-3935
▁gəz	-3936
▁er	-3937
▁Aş	-3938
kun	-3939
▁tədbirləri	-3940
ovruz	-3941
▁Agent	-3942
▁mümkündür	-3943
düy	-3944
▁içərisində	-3945
▁aşıq	-3946
▁kəndində	-3947
ğını	-3948
ərkən	-3949
piya	-3950
▁pey	-3951
▁gələcəkdə	-3952
▁cər	-3953
▁mərkəzində	-3954
▁başlıca	-3955
▁dərəcə	-3956
ƏS	-3957
▁qən	-3958
▁Təbii	-3959
▁Qara	-3960
▁məhəbbət	-3961
▁hökuməti	-3962
▁təhlükəsizlik	-3963
▁Ukr	-3964
▁üslub	-3965
▁həcm	-3966
▁hadis	-3967
▁İnkişaf	-3968
▁edirdilər	-3969
▁Bağ	-3970
▁fəaliyyətinə	-3971
▁mənada	-3972
▁bas	-3973
▁səfir	-3974
▁—	-3975
▁ələ	-3976
anr	-3977
övh	-3978
eyir	-3979
▁Uşaq	-3980
▁fot	-3981
miĢ	-3982
▁düşünc	-3983
▁gənclər	-3984
▁Ass	-3985
▁perspektiv	-3986
asiyanın	-3987
se	-3988
▁Müdafi	-3989
bol	-3990
▁cəbh	-3991
yaz	-3992
▁həbs	-3993
azımi	-3994
▁Pol	-3995
liyyə	-3996
▁olmam	-3997
▁Gül	-3998
▁təşəbbüsü	-3999
mədi	-4000
▁narahat	-4001
Bu	-4002
lav	-4003
▁festiv	-4004
▁biləcək	-4005
▁tutaraq	-4006
ığı	-4007
adıq	-4008
ba	-4009
bək	-4010
▁III	-4011
ahlı	-4012
▁dram	-4013
▁şəraitində	-4014
▁Olim	-4015
RE	-4016
▁Zər	-4017
▁söylə	-4018
adək	-4019
layev	-4020
lək	-4021
▁Komitəsi	-4022
bil	-4023
▁ötür	-4024
▁Nur	-4025
▁vilayət	-4026
▁AT	-4027
▁əksini	-4028
lari	-4029
çıların	-4030
▁For	-4031
▁Rəs	-4032
▁olunmasına	-4033
ahir	-4034
▁dövlətlərin	-4035
sr	-4036
▁strateg	-4037
▁istənilən	-4038
▁qol	-4039
iylə	-4040
▁keçirmək	-4041
ahis	-4042
▁mane	-4043
▁lə	-4044
▁sözlə	-4045
▁sərbəst	-4046
▁əvvəlcə	-4047
▁tutan	-4048
▁kəskin	-4049
daşlıq	-4050
▁təşəbbüs	-4051
▁XIX	-4052
▁sinif	-4053
▁si	-4054
avüz	-4055
▁şərəf	-4056
ıntı	-4057
ideyn	-4058
darlıq	-4059
bənd	-4060
▁istifadəyə	-4061
▁kaf	-4062
▁dan	-4063
▁əlaqələr	-4064
▁ri	-4065
.1-	-4066
▁Man	-4067
▁tənqid	-4068
▁sak	-4069
▁boru	-4070
▁görmək	-4071
▁Məktəb	-4072
imizə	-4073
▁vətənpərvər	-4074
ivil	-4075
▁etnik	-4076
▁rejissor	-4077
ələb	-4078
lükəsiz	-4079
▁doğul	-4080
.)	-4081
dətli	-4082
▁istisna	-4083
ilməsində	-4084
▁münasibətlərin	-4085
▁lazımi	-4086
ura	-4087
▁canlı	-4088
atlı	-4089
▁model	-4090
▁Mustaf	-4091
▁diplomatik	-4092
▁Bəl	-4093
EA	-4094
▁Kərim	-4095
▁qurtar	-4096
▁münasibətləri	-4097
▁don	-4098
▁Artıq	-4099
ilməsinin	-4100
aba	-4101
▁qorum	-4102
▁başlayır	-4103
▁tərkibində	-4104
▁Hərbi	-4105
ch	-4106
sək	-4107
▁Rəh	-4108
mələr	-4109
▁zidd	-4110
▁mətn	-4111
▁bəstəkar	-4112
mud	-4113
▁Mur	-4114
▁mül	-4115
▁əf	-4116
▁iq	-4117
▁km	-4118
aspor	-4119
əməxsus	-4120
aqif	-4121
▁əc	-4122
ləyib	-4123
▁Məlum	-4124
▁gəlin	-4125
əyini	-4126
siyanın	-4127
0,	-4128
▁kol	-4129
▁sahibi	-4130
▁tikintisi	-4131
▁dov	-4132
▁ediblər	-4133
▁minnət	-4134
▁təsəvvür	-4135
ij	-4136
11	-4137
▁mənz	-4138
▁Yan	-4139
9,	-4140
▁vəzifə	-4141
İR	-4142
allı	-4143
▁bilmir	-4144
▁keçirilmiş	-4145
▁sevg	-4146
▁dinam	-4147
formasiya	-4148
▁mütləq	-4149
ton	-4150
▁ünvan	-4151
▁zav	-4152
▁məkan	-4153
▁katibi	-4154
▁nit	-4155
▁İtal	-4156
ələşdir	-4157
▁Onu	-4158
▁Bakıya	-4159
▁münasibətlər	-4160
aliz	-4161
▁sənayes	-4162
şən	-4163
▁xah	-4164
OV	-4165
ultur	-4166
▁2009-	-4167
ter	-4168
▁qür	-4169
idə	-4170
ızı	-4171
eter	-4172
▁şərq	-4173
▁2014-	-4174
▁qurulması	-4175
amiz	-4176
▁Amerika	-4177
▁Əmir	-4178
▁resurs	-4179
▁təzyiq	-4180
▁Əz	-4181
▁Feder	-4182
▁təcavüz	-4183
kər	-4184
stanbul	-4185
▁saray	-4186
iyalı	-4187
minən	-4188
▁Əlbəttə	-4189
▁tax	-4190
əkil	-4191
pion	-4192
▁nəinki	-4193
adiq	-4194
▁İnstitutunun	-4195
yasiya	-4196
▁yaxından	-4197
▁qalib	-4198
▁Novruz	-4199
AD	-4200
▁kommun	-4201
▁cəs	-4202
rior	-4203
▁edildiyi	-4204
çıq	-4205
laraq	-4206
▁Hesab	-4207
▁yaradılmış	-4208
.2-	-4209
▁hün	-4210
asitə	-4211
▁RESPUBLİKASI	-4212
▁mövzusunda	-4213
ladığı	-4214
▁Zəng	-4215
▁Ser	-4216
▁şəhərinin	-4217
▁Quliyev	-4218
▁şəklində	-4219
standa	-4220
▁vermişdir	-4221
▁möht	-4222
▁tövsiy	-4223
▁divar	-4224
sam	-4225
▁özünəməxsus	-4226
zadənin	-4227
▁idarəetmə	-4228
mon	-4229
▁gərək	-4230
▁layihə	-4231
▁hissi	-4232
▁tikinti	-4233
▁həyatında	-4234
▁həqiqət	-4235
aca	-4236
do	-4237
▁deyildi	-4238
▁xoşbəxt	-4239
▁w	-4240
▁6.	-4241
imum	-4242
▁müqavilə	-4243
mayıb	-4244
▁görünür	-4245
▁əsir	-4246
▁başlayaraq	-4247
asa	-4248
▁AM	-4249
▁güz	-4250
▁quruculu	-4251
oran	-4252
▁uğurlar	-4253
▁istehsalı	-4254
▁Gö	-4255
▁Tel	-4256
alardan	-4257
▁hissəsinin	-4258
▁yubiley	-4259
▁mənsub	-4260
▁ila	-4261
risti	-4262
▁islam	-4263
▁klassik	-4264
▁vəf	-4265
▁vaxtı	-4266
▁ekoloji	-4267
▁Təhlükəsiz	-4268
▁anlayış	-4269
saq	-4270
▁imtina	-4271
▁yaşayır	-4272
▁Uz	-4273
epar	-4274
ağının	-4275
▁sənədlər	-4276
▁çoxsaylı	-4277
əniz	-4278
▁Şuşa	-4279
▁Oğ	-4280
▁bəs	-4281
▁Süley	-4282
şah	-4283
▁/	-4284
▁oz	-4285
▁istəd	-4286
▁əvvəllərində	-4287
▁fir	-4288
ləmə	-4289
indan	-4290
ENT	-4291
▁Elekt	-4292
▁Hətta	-4293
▁general	-4294
empion	-4295
form	-4296
▁bilav	-4297
▁elmləri	-4298
əşəm	-4299
eganə	-4300
fə	-4301
▁sadəcə	-4302
▁Sum	-4303
▁qonşu	-4304
ide	-4305
▁vo	-4306
▁alman	-4307
▁qalmış	-4308
▁gənclərin	-4309
▁Af	-4310
▁ye	-4311
▁onlardan	-4312
▁qada	-4313
▁törət	-4314
▁Xidmət	-4315
▁medi	-4316
▁fikrin	-4317
▁Kür	-4318
▁səviyyəsində	-4319
▁müstəqillik	-4320
alə	-4321
▁ədəbiyyatı	-4322
eyx	-4323
ımıza	-4324
▁davran	-4325
▁Yapon	-4326
▁qarşısını	-4327
▁dəstəyi	-4328
▁təhsili	-4329
▁çalışan	-4330
▁Yaş	-4331
▁məğlub	-4332
imizi	-4333
əqqəti	-4334
lının	-4335
▁deməkdir	-4336
▁San	-4337
▁üns	-4338
idro	-4339
▁sahələrində	-4340
əliyev	-4341
▁gündə	-4342
▁kağız	-4343
▁mübahis	-4344
▁sü	-4345
iyyətinə	-4346
aktik	-4347
▁rəisi	-4348
▁kitabı	-4349
▁layihəsi	-4350
ağına	-4351
▁əlver	-4352
qayı	-4353
▁alaraq	-4354
dular	-4355
▁konsep	-4356
▁İqtisadi	-4357
▁Müq	-4358
▁Er	-4359
▁daşıyır	-4360
xana	-4361
▁peşə	-4362
▁seçkilər	-4363
▁ey	-4364
▁tibb	-4365
▁enerj	-4366
▁Hüquq	-4367
▁hamısı	-4368
▁komanda	-4369
▁düşən	-4370
▁nəticəsi	-4371
atını	-4372
rətli	-4373
▁Şurası	-4374
▁əslində	-4375
▁rolunu	-4376
▁sonunda	-4377
».	-4378
yıq	-4379
▁Yazı	-4380
▁Qasım	-4381
▁icazə	-4382
▁dilinin	-4383
▁Ġ	-4384
▁xeyir	-4385
lənmiş	-4386
▁nitq	-4387
▁ölkələr	-4388
15	-4389
▁mö	-4390
▁illərin	-4391
düm	-4392
▁görülən	-4393
atda	-4394
onim	-4395
▁Daş	-4396
▁2010-	-4397
▁əq	-4398
▁həqiqi	-4399
▁işlərinin	-4400
▁rahat	-4401
▁etməlidir	-4402
ünür	-4403
▁potensial	-4404
▁xanın	-4405
▁yaddaş	-4406
▁etdiyini	-4407
adlı	-4408
▁inform	-4409
▁ziyarət	-4410
▁heyəti	-4411
▁Birləşmiş	-4412
▁indiki	-4413
▁nümayəndəsi	-4414
▁İstanbul	-4415
▁gecə	-4416
▁köçkün	-4417
▁tələblərinə	-4418
▁əsəri	-4419
▁Akademiyasının	-4420
▁Əvvəl	-4421
▁xadimi	-4422
▁Nə	-4423
timai	-4424
▁zəh	-4425
▁şəraitdə	-4426
▁kəşf	-4427
▁sanki	-4428
___	-4429
▁xüsusən	-4430
▁möhkəmləndir	-4431
▁Şim	-4432
ahidi	-4433
▁şikayət	-4434
▁Ad	-4435
▁dəfələrlə	-4436
ild	-4437
evik	-4438
▁xidmətləri	-4439
isk	-4440
▁növü	-4441
▁Məclisin	-4442
▁Britan	-4443
erin	-4444
ətinə	-4445
çt	-4446
▁mənaf	-4447
▁prosesində	-4448
▁gediş	-4449
▁Silahlı	-4450
azılığa	-4451
▁him	-4452
ədvəl	-4453
▁Kabineti	-4454
▁səth	-4455
▁ayının	-4456
▁tök	-4457
▁güm	-4458
▁bilavasitə	-4459
çü	-4460
ksiya	-4461
ımızı	-4462
▁tibbi	-4463
▁Müasir	-4464
▁Hakim	-4465
ərəfli	-4466
mit	-4467
▁çıxır	-4468
▁diqqəti	-4469
▁İd	-4470
olklor	-4471
▁ehtir	-4472
▁mübadiləsi	-4473
▁məskun	-4474
▁Yun	-4475
▁gey	-4476
İL	-4477
timal	-4478
▁məhkum	-4479
▁muğam	-4480
▁yerində	-4481
▁Elmlər	-4482
▁dərhal	-4483
▁istəm	-4484
▁səciyy	-4485
▁Nəsi	-4486
▁həkim	-4487
▁salam	-4488
▁üstündə	-4489
▁quy	-4490
iyyətə	-4491
▁mexanizm	-4492
▁Yol	-4493
▁pal	-4494
▁pub	-4495
▁qala	-4496
▁inkişafının	-4497
▁məsaf	-4498
ristian	-4499
▁naminə	-4500
▁hərtərəfli	-4501
sini	-4502
▁mülki	-4503
▁4-	-4504
▁zor	-4505
▁ödəniş	-4506
ağında	-4507
▁5-	-4508
əncamı	-4509
▁yaranan	-4510
indi	-4511
çıları	-4512
aqlar	-4513
▁rəsm	-4514
▁edilə	-4515
▁sivil	-4516
▁islahatlar	-4517
atında	-4518
əliyik	-4519
▁qəna	-4520
▁Keç	-4521
rioritet	-4522
▁90	-4523
▁ömür	-4524
diyinə	-4525
▁arzul	-4526
ber	-4527
lıqda	-4528
▁Qır	-4529
30	-4530
▁Konf	-4531
rum	-4532
▁komit	-4533
üncü	-4534
lo	-4535
▁meh	-4536
daxil	-4537
qayıt	-4538
▁mənş	-4539
▁yaratdığı	-4540
əxlaq	-4541
əmbər	-4542
▁Mon	-4543
uncu	-4544
ava	-4545
▁Çin	-4546
larım	-4547
▁şəhərin	-4548
▁ul	-4549
▁31	-4550
DENT	-4551
▁nəticələri	-4552
▁İttifaqı	-4553
▁konsert	-4554
▁etn	-4555
mizdə	-4556
AB	-4557
▁müəssisələrinin	-4558
maya	-4559
▁kont	-4560
veç	-4561
▁rif	-4562
iyasına	-4563
itərəfli	-4564
▁forması	-4565
▁investisiya	-4566
▁əhali	-4567
▁Konven	-4568
re	-4569
▁axır	-4570
▁yaşlı	-4571
liz	-4572
▁PRE	-4573
asinda	-4574
▁könül	-4575
▁əleyh	-4576
birinə	-4577
▁Süleyman	-4578
▁sahələri	-4579
laşdırma	-4580
▁Tam	-4581
emin	-4582
abitə	-4583
▁Vaqif	-4584
ens	-4585
▁nəf	-4586
▁birlik	-4587
▁valideyn	-4588
▁müsahib	-4589
▁ənənəvi	-4590
əhlə	-4591
▁Razılığa	-4592
▁önəmli	-4593
▁saziş	-4594
▁tipli	-4595
▁tapşırıq	-4596
lilər	-4597
▁hüquqlarının	-4598
▁təbi	-4599
▁qalır	-4600
əcəyini	-4601
▁nisbətən	-4602
▁iradə	-4603
▁məktəbi	-4604
▁dəyərləndir	-4605
▁birində	-4606
uda	-4607
▁prioritet	-4608
▁respublikanın	-4609
alizm	-4610
▁bölüş	-4611
▁etdikləri	-4612
▁formada	-4613
lal	-4614
▁Müst	-4615
▁qrupu	-4616
övr	-4617
▁Nizam	-4618
▁birinin	-4619
▁ittifaq	-4620
▁pen	-4621
▁yaradıcılığı	-4622
umun	-4623
▁trans	-4624
▁Ərəb	-4625
mişlər	-4626
▁cəmiyyəti	-4627
▁park	-4628
▁sərvət	-4629
imə	-4630
▁adi	-4631
yla	-4632
ərin	-4633
▁des	-4634
▁Aşıq	-4635
▁zabit	-4636
▁əşy	-4637
▁Bunu	-4638
▁əsası	-4639
▁Qurban	-4640
▁Elmi	-4641
▁Əliyeva	-4642
▁göstərdiyi	-4643
rom	-4644
▁bağlan	-4645
üddətli	-4646
▁öhdəlik	-4647
▁daxildir	-4648
nif	-4649
vad	-4650
▁verilib	-4651
▁Dax	-4652
▁tərbiy	-4653
▁bütövlükdə	-4654
▁təxminən	-4655
▁səlahiyyətli	-4656
aye	-4657
▁olmasına	-4658
▁qeydə	-4659
urlar	-4660
▁ac	-4661
əsin	-4662
▁Ümumiyyətlə	-4663
▁işçi	-4664
ININ	-4665
▁barəsində	-4666
övqəl	-4667
▁Şirvan	-4668
▁diqqətə	-4669
▁əlverişli	-4670
▁gor	-4671
içək	-4672
▁2011-	-4673
▁orqanı	-4674
hesab	-4675
▁yolunda	-4676
▁xahiş	-4677
▁təşəkkür	-4678
▁sayda	-4679
▁keçid	-4680
▁təqdir	-4681
gəl	-4682
isindən	-4683
▁Sar	-4684
çının	-4685
▁yurd	-4686
▁etdirmək	-4687
▁Almaniya	-4688
adlıq	-4689
eti	-4690
▁fars	-4691
▁ölçü	-4692
▁yoldaş	-4693
iik	-4694
ral	-4695
▁Mol	-4696
▁tutulur	-4697
▁duran	-4698
▁yazdığı	-4699
▁Birliyinin	-4700
▁Kİ	-4701
dülər	-4702
▁yola	-4703
▁çalışır	-4704
▁Olimpiya	-4705
▁problemləri	-4706
əyib	-4707
▁məmnun	-4708
ılsın	-4709
▁vari	-4710
ans	-4711
▁istir	-4712
Kİ	-4713
▁köh	-4714
);	-4715
▁sənin	-4716
▁təcrübə	-4717
əffəq	-4718
uf	-4719
▁60	-4720
xar	-4721
▁Hökuməti	-4722
▁xarakterli	-4723
▁qürur	-4724
▁səmimi	-4725
▁Ədə	-4726
▁çatdırıl	-4727
▁şüur	-4728
▁Paş	-4729
əsə	-4730
▁etibarlı	-4731
▁möhtəşəm	-4732
▁internet	-4733
▁yaradan	-4734
▁Ağdam	-4735
▁etmişlər	-4736
▁Qəb	-4737
▁Ümumi	-4738
▁eff	-4739
üstəm	-4740
▁kəl	-4741
▁müddəti	-4742
▁Bax	-4743
▁qış	-4744
▁Nəriman	-4745
▁şərh	-4746
▁imkanları	-4747
▁Bank	-4748
çilərin	-4749
▁turist	-4750
lok	-4751
▁yaxınlaş	-4752
▁almış	-4753
▁parlaq	-4754
dırmaq	-4755
ZİDENT	-4756
▁Qazaxı	-4757
▁oxu	-4758
dilməsi	-4759
▁ta	-4760
▁Həmçinin	-4761
le	-4762
▁yeganə	-4763
▁İm	-4764
▁2013-	-4765
▁qarşıl	-4766
▁layihələr	-4767
▁qanunvericiliy	-4768
▁cəm	-4769
12	-4770
▁ikitərəfli	-4771
▁sərf	-4772
peratur	-4773
▁Naxçıv	-4774
ərb	-4775
▁aktlarının	-4776
sev	-4777
▁AMEA	-4778
▁məhsulları	-4779
▁Mənim	-4780
▁Füzuli	-4781
▁bədən	-4782
▁fəxri	-4783
▁port	-4784
▁addımlar	-4785
▁Mərkəzinin	-4786
▁boyun	-4787
▁rəqəm	-4788
▁PREZİDENT	-4789
▁Moskva	-4790
▁müvəffəq	-4791
▁bütövlüy	-4792
▁təbəq	-4793
▁nüfuzlu	-4794
▁maşın	-4795
▁unu	-4796
aşdırıl	-4797
▁aktual	-4798
ədr	-4799
yam	-4800
▁Qal	-4801
▁bildirir	-4802
▁mənfi	-4803
▁hadisələr	-4804
▁dövlətimizin	-4805
▁kür	-4806
eynal	-4807
▁iddia	-4808
▁başçısının	-4809
▁gözlən	-4810
ağını	-4811
▁3,	-4812
▁doğr	-4813
▁vasitəsi	-4814
▁tarixinin	-4815
▁Sev	-4816
▁ətraflı	-4817
▁törəd	-4818
▁etibarən	-4819
▁fikri	-4820
▁açılış	-4821
▁Şimali	-4822
azim	-4823
istika	-4824
▁Təbriz	-4825
▁uçot	-4826
oviç	-4827
▁yaranmış	-4828
▁maq	-4829
▁Əd	-4830
qud	-4831
▁2016-	-4832
▁diaspor	-4833
▁başlanğı	-4834
cək	-4835
efon	-4836
▁şöbəsinin	-4837
▁Zaq	-4838
ilirdi	-4839
▁lab	-4840
ST	-4841
▁2020-	-4842
ülf	-4843
▁bat	-4844
şünaslıq	-4845
▁uşaqların	-4846
ətlər	-4847
▁partiya	-4848
▁hüquqları	-4849
▁İdarə	-4850
▁dialoq	-4851
▁dəyərli	-4852
əbr	-4853
▁Rəş	-4854
▁əhəmiyyəti	-4855
▁əlaqə	-4856
▁adamlar	-4857
▁Göz	-4858
▁oğlan	-4859
estr	-4860
▁dinamik	-4861
▁olmuşdu	-4862
▁Sumqayıt	-4863
▁Muzey	-4864
▁hazırlanmış	-4865
kəl	-4866
şevik	-4867
AP	-4868
▁Sam	-4869
▁şöh	-4870
▁sevin	-4871
oma	-4872
▁İrəvan	-4873
sün	-4874
▁hökmdar	-4875
▁Fir	-4876
▁klub	-4877
▁ixt	-4878
tih	-4879
▁vurul	-4880
▁sənədlərin	-4881
madı	-4882
eddi	-4883
▁medal	-4884
▁ġ	-4885
▁vit	-4886
▁sifar	-4887
▁bəşər	-4888
▁taley	-4889
▁kənarda	-4890
ütb	-4891
▁Tək	-4892
enant	-4893
azar	-4894
▁zəm	-4895
▁faydalı	-4896
▁janr	-4897
▁mədəniyyətinin	-4898
▁vasitələrinin	-4899
▁qoh	-4900
▁sürət	-4901
▁müdrik	-4902
▁müvəqqəti	-4903
▁olmadan	-4904
▁35	-4905
for	-4906
abad	-4907
ilikdə	-4908
▁versin	-4909
▁etiraz	-4910
▁onlarla	-4911
ologiyası	-4912
Mən	-4913
▁səviyyəsi	-4914
▁tərz	-4915
mədə	-4916
▁imkanlar	-4917
▁rəqab	-4918
▁bəlkə	-4919
▁hündür	-4920
▁çağırış	-4921
▁Dil	-4922
▁Sur	-4923
oqrafiya	-4924
▁gəm	-4925
▁qurban	-4926
▁həy	-4927
əndis	-4928
▁iclas	-4929
asız	-4930
▁zirv	-4931
▁obyektiv	-4932
▁yerlərdə	-4933
▁həvəs	-4934
▁Ümummilli	-4935
▁kül	-4936
▁2012-	-4937
▁eşit	-4938
eytenant	-4939
▁nəzarəti	-4940
▁yarar	-4941
▁məsələsi	-4942
▁tr	-4943
ahür	-4944
siyasının	-4945
▁Respublika	-4946
▁əhalisi	-4947
and	-4948
▁Nadir	-4949
▁е	-4950
▁gedib	-4951
▁doldur	-4952
▁günah	-4953
▁şairin	-4954
▁Müstəqil	-4955
▁olmasını	-4956
▁sahə	-4957
mənəvi	-4958
▁sözün	-4959
ht	-4960
▁Mahmud	-4961
▁Hüseynov	-4962
▁giriş	-4963
acağı	-4964
▁İttifaqının	-4965
yu	-4966
▁imkanı	-4967
▁sırasında	-4968
▁hü	-4969
▁komplek	-4970
▁Maliyyə	-4971
▁heyətinin	-4972
▁2008-	-4973
▁yaradılan	-4974
▁əsasını	-4975
▁Səməd	-4976
ellekt	-4977
▁əlaqələndir	-4978
lisist	-4979
▁etdirilir	-4980
Türk	-4981
▁xalqına	-4982
▁yux	-4983
▁rəy	-4984
▁məhrum	-4985
ilmək	-4986
▁təşv	-4987
▁soruş	-4988
▁hansısa	-4989
▁əhalisinin	-4990
▁ədəd	-4991
▁Şər	-4992
▁çirk	-4993
▁mükəm	-4994
▁olunduğu	-4995
əbi	-4996
arx	-4997
▁əmr	-4998
▁5,	-4999
▁Ba	-5000
▁20-	-5001
▁quş	-5002
alicə	-5003
▁;	-5004
dilli	-5005
▁təzahür	-5006
og	-5007
acir	-5008
QD	-5009
lusu	-5010
▁7.	-5011
ıbəy	-5012
▁Gənclər	-5013
▁yaxınlığında	-5014
▁layiqli	-5015
▁qovuş	-5016
▁etməyi	-5017
işət	-5018
▁olunurdu	-5019
▁temperatur	-5020
▁çök	-5021
▁qaldırılması	-5022
▁işin	-5023
▁Seyid	-5024
lənməsinə	-5025
▁birinə	-5026
yön	-5027
▁dam	-5028
▁olduğundan	-5029
▁qoyub	-5030
iyyətində	-5031
sınız	-5032
usuna	-5033
▁od	-5034
▁nin	-5035
▁müəllimi	-5036
övqəladə	-5037
Mİ	-5038
hüquq	-5039
▁təhsilin	-5040
çin	-5041
▁ümumiyyətlə	-5042
lənin	-5043
▁maddəsində	-5044
▁190	-5045
uma	-5046
▁əksəriyyəti	-5047
süz	-5048
▁Fik	-5049
▁mükafat	-5050
masi	-5051
▁Məş	-5052
▁Bayram	-5053
▁konst	-5054
▁pl	-5055
▁oynayır	-5056
əqin	-5057
ənlər	-5058
▁inki	-5059
kili	-5060
▁nağ	-5061
▁xətti	-5062
giltər	-5063
▁komandan	-5064
ırda	-5065
▁dahi	-5066
gül	-5067
vil	-5068
dığım	-5069
ilərinin	-5070
▁Hal	-5071
▁poetik	-5072
▁Kim	-5073
▁Yuxarı	-5074
▁mükəmməl	-5075
▁düşmüş	-5076
▁vəziyyətdə	-5077
▁ip	-5078
▁Fon	-5079
▁Müdafiə	-5080
▁etmə	-5081
▁minnətdar	-5082
▁işləm	-5083
▁mənzil	-5084
atik	-5085
əyir	-5086
▁vasitələri	-5087
su	-5088
▁məscid	-5089
gid	-5090
▁Cin	-5091
▁mənzər	-5092
▁Qorqud	-5093
altı	-5094
▁Təhlükəsizlik	-5095
▁Ötən	-5096
çay	-5097
▁keçirilmişdir	-5098
üstü	-5099
▁etmir	-5100
▁Şəm	-5101
▁Üç	-5102
▁Daxili	-5103
▁Ge	-5104
lığından	-5105
▁sınaq	-5106
▁hissəsini	-5107
▁müstəqilliyi	-5108
KO	-5109
▁üzü	-5110
▁texnik	-5111
▁saxlamaq	-5112
▁sol	-5113
▁həf	-5114
likləri	-5115
muşdu	-5116
▁tərəfdar	-5117
▁Rüstəm	-5118
▁biznes	-5119
burq	-5120
▁Ədliyyə	-5121
▁Bol	-5122
▁yataq	-5123
▁qaldı	-5124
13	-5125
ayi	-5126
▁folklor	-5127
ARI	-5128
▁Parlament	-5129
▁prinsipi	-5130
asiyalar	-5131
▁proqramı	-5132
▁Avstr	-5133
▁əsərlər	-5134
▁fəaliyyətə	-5135
əfiq	-5136
▁metr	-5137
▁Heç	-5138
gən	-5139
▁normal	-5140
neft	-5141
▁medalı	-5142
▁gəmi	-5143
▁dinc	-5144
▁Məcəlləsinin	-5145
▁İki	-5146
laşmış	-5147
▁əxlaq	-5148
▁məlumatların	-5149
▁Qızıl	-5150
▁fəlsəfə	-5151
▁dövlətçilik	-5152
▁daşım	-5153
▁kateqor	-5154
▁1993-	-5155
▁səsi	-5156
▁əleyhinə	-5157
▁iqtisadiyyatın	-5158
▁2015-	-5159
laşdırılmış	-5160
ler	-5161
▁kişi	-5162
▁vaxtlar	-5163
▁70	-5164
▁əkin	-5165
▁Səfər	-5166
Qar	-5167
▁qaynaq	-5168
ənkər	-5169
▁Bakının	-5170
▁ses	-5171
▁rez	-5172
▁aparan	-5173
lardır	-5174
▁tərbiyə	-5175
▁irəlil	-5176
▁Tan	-5177
▁hazırlıq	-5178
▁düşünür	-5179
▁qaldırıl	-5180
▁aparmaq	-5181
ğəmbər	-5182
▁sün	-5183
▁unut	-5184
▁hərb	-5185
▁müəllimin	-5186
▁bel	-5187
▁Müəllif	-5188
▁yaşadığı	-5189
ultik	-5190
▁Əsgər	-5191
▁saxlay	-5192
qulu	-5193
ınız	-5194
▁yazırdı	-5195
▁səbəbdən	-5196
▁sevgi	-5197
▁siyasətin	-5198
▁zavod	-5199
▁verildi	-5200
alinin	-5201
▁ürəy	-5202
▁atası	-5203
va	-5204
▁Sə	-5205
▁istərsə	-5206
--	-5207
▁nadir	-5208
▁sistemində	-5209
güz	-5210
qul	-5211
▁axtarış	-5212
▁qaydaları	-5213
yaslı	-5214
▁mühafizəsi	-5215
▁32	-5216
▁dik	-5217
▁döz	-5218
▁kafed	-5219
▁hakimiyyətə	-5220
▁təsnif	-5221
▁bacarıq	-5222
40	-5223
▁Universiteti	-5224
bin	-5225
▁aldığı	-5226
▁Lay	-5227
▁ah	-5228
▁ATƏT	-5229
▁Sizə	-5230
▁deyən	-5231
▁artisti	-5232
erik	-5233
▁münasibətdə	-5234
▁miqy	-5235
▁şairi	-5236
▁təfəkkür	-5237
▁audi	-5238
▁yolla	-5239
▁4,	-5240
▁10-	-5241
▁Türkiyədə	-5242
▁Bor	-5243
yəvi	-5244
▁Əslində	-5245
▁sonralar	-5246
▁sadiq	-5247
ultikultur	-5248
▁Paris	-5249
▁variant	-5250
ayış	-5251
▁tarixinə	-5252
▁Düş	-5253
▁oğul	-5254
▁uşaqlar	-5255
▁əsaslan	-5256
bayev	-5257
▁2006-	-5258
▁ölkələrində	-5259
▁alıram	-5260
▁Film	-5261
▁əbədi	-5262
▁fərman	-5263
ric	-5264
▁vaxtında	-5265
əyyar	-5266
▁çiçək	-5267
ard	-5268
▁olunmalıdır	-5269
▁2018-	-5270
▁sorğu	-5271
iyaların	-5272
▁Doğ	-5273
▁sab	-5274
▁ərazidə	-5275
noz	-5276
▁Şəki	-5277
▁Prezidentinə	-5278
qres	-5279
▁qələmə	-5280
▁mot	-5281
çılığı	-5282
▁aldı	-5283
▁Qarab	-5284
▁yayıl	-5285
üsx	-5286
▁6,	-5287
dığımız	-5288
▁De	-5289
▁hədəf	-5290
yard	-5291
▁qərb	-5292
▁Gəl	-5293
▁sənəti	-5294
____________	-5295
▁baĢ	-5296
▁cəmi	-5297
rada	-5298
▁Azərbaycanlı	-5299
ƏD	-5300
izmi	-5301
▁Val	-5302
▁Qafqazda	-5303
▁problemlər	-5304
poz	-5305
▁ata	-5306
▁Şeyx	-5307
▁müqaviləsi	-5308
▁vəfat	-5309
nov	-5310
bəyli	-5311
▁gücü	-5312
▁dövlətlər	-5313
tokol	-5314
▁Moskvada	-5315
onent	-5316
▁çəkil	-5317
▁xristian	-5318
liyindən	-5319
▁vaxtda	-5320
bat	-5321
unan	-5322
▁ayaq	-5323
▁hasil	-5324
▁qaçqın	-5325
ərg	-5326
pa	-5327
iss	-5328
əxan	-5329
atlarının	-5330
▁güzəş	-5331
▁zəhmət	-5332
▁du	-5333
60	-5334
▁yaranması	-5335
osm	-5336
▁Uzun	-5337
▁qrupunun	-5338
▁əziz	-5339
▁Bildir	-5340
▁dolu	-5341
avi	-5342
oyun	-5343
▁göstərdi	-5344
▁çoxdur	-5345
lıqdan	-5346
▁xüsusiyyətləri	-5347
▁IV	-5348
▁Sabir	-5349
don	-5350
▁bilməd	-5351
▁göstəriş	-5352
▁Araz	-5353
▁Tə	-5354
ilmə	-5355
▁In	-5356
▁Tey	-5357
▁2007-	-5358
▁emal	-5359
▁indiy	-5360
▁işinə	-5361
pekt	-5362
lərim	-5363
▁Qəz	-5364
▁alınmış	-5365
ayna	-5366
▁ton	-5367
məsindən	-5368
▁meto	-5369
▁aparır	-5370
enz	-5371
▁1918-	-5372
əmək	-5373
▁Əziz	-5374
imizdə	-5375
▁müqavim	-5376
▁yetişdir	-5377
▁Rəsul	-5378
▁problemlərin	-5379
▁qohum	-5380
▁nüsx	-5381
▁müdafiəsi	-5382
▁kitabxana	-5383
▁Qarabağın	-5384
Al	-5385
nək	-5386
ləşmə	-5387
dılması	-5388
ass	-5389
tay	-5390
acağını	-5391
siyaya	-5392
.-	-5393
▁düşüncə	-5394
▁Pr	-5395
dad	-5396
▁Torp	-5397
▁təminatı	-5398
▁ili	-5399
▁ayrıca	-5400
▁istismar	-5401
dövlət	-5402
rəm	-5403
▁Ak	-5404
▁Söz	-5405
▁qoydu	-5406
▁keçirən	-5407
▁istehlak	-5408
▁Lənkər	-5409
▁məktəbin	-5410
▁38	-5411
▁cari	-5412
▁mühitin	-5413
▁soyqırımı	-5414
▁humanitar	-5415
▁Hələ	-5416
▁vətəndaşların	-5417
ail	-5418
▁kino	-5419
▁istedadlı	-5420
▁dərindən	-5421
mm	-5422
▁müəssisələri	-5423
mizə	-5424
ülük	-5425
▁tələbə	-5426
▁İngiltər	-5427
▁edərkən	-5428
nda	-5429
▁Qədim	-5430
199	-5431
▁bilərik	-5432
Dövlət	-5433
▁cəmiyyətdə	-5434
iblər	-5435
CO	-5436
əxş	-5437
▁Ley	-5438
amb	-5439
▁arxiv	-5440
▁çoxu	-5441
alında	-5442
▁siviliz	-5443
▁xalqların	-5444
▁maliyyələşdir	-5445
▁33	-5446
▁mark	-5447
diyiniz	-5448
amil	-5449
▁imza	-5450
▁Bab	-5451
olkov	-5452
▁qələm	-5453
▁idilər	-5454
ülə	-5455
ation	-5456
▁səfiri	-5457
anıq	-5458
▁koman	-5459
▁görüb	-5460
▁daşıyan	-5461
usunu	-5462
▁təşkilatlar	-5463
17	-5464
▁qa	-5465
▁Nəti	-5466
sədə	-5467
liq	-5468
bəti	-5469
▁təməl	-5470
▁müalicə	-5471
günkü	-5472
▁verə	-5473
▁milyard	-5474
▁problemi	-5475
▁təhlükəsizliyi	-5476
lıqlar	-5477
▁intellekt	-5478
▁təşkilatların	-5479
▁prosesinin	-5480
▁Tif	-5481
▁işinin	-5482
▁80	-5483
▁xəz	-5484
▁olacaqdır	-5485
▁etim	-5486
▁isti	-5487
▁qraf	-5488
▁bağış	-5489
▁telefon	-5490
izmin	-5491
▁dövrünün	-5492
mışlar	-5493
▁danışıqlar	-5494
rak	-5495
▁haqda	-5496
ünya	-5497
▁Bəzi	-5498
▁bah	-5499
▁olmur	-5500
▁qalıb	-5501
▁almışdır	-5502
▁tul	-5503
▁poçt	-5504
▁başlayıb	-5505
▁Müharib	-5506
son	-5507
▁bilərlər	-5508
▁məsələlərin	-5509
▁bərpası	-5510
lanma	-5511
▁ağrı	-5512
▁qoruyub	-5513
▁vərəq	-5514
aqlı	-5515
▁inkişafını	-5516
▁şt	-5517
ke	-5518
veri	-5519
▁qarşılan	-5520
ınc	-5521
▁qüvvələri	-5522
▁fəda	-5523
▁məhsuldar	-5524
oqrafik	-5525
▁qiyməti	-5526
▁olmağa	-5527
▁səbəbi	-5528
▁nazirinin	-5529
▁sevinc	-5530
▁yarada	-5531
larin	-5532
▁ehtiram	-5533
▁Azərbaycanla	-5534
▁apardığı	-5535
▁2017-	-5536
▁dastan	-5537
▁günlərdə	-5538
▁televiziya	-5539
▁müx	-5540
▁münasibəti	-5541
▁6-	-5542
▁44	-5543
▁alq	-5544
▁bəri	-5545
▁coğrafi	-5546
ilməz	-5547
▁Hindi	-5548
EY	-5549
▁blok	-5550
olit	-5551
orator	-5552
▁vəhş	-5553
▁Millət	-5554
▁Abdullayev	-5555
▁sərt	-5556
▁rəğ	-5557
»,	-5558
▁The	-5559
Bakı	-5560
▁müəssisələrində	-5561
▁yenilik	-5562
▁etdiyimiz	-5563
▁insanlara	-5564
▁lövh	-5565
inad	-5566
▁tərəfdaş	-5567
əncər	-5568
▁səhv	-5569
▁xərit	-5570
▁Qanunveric	-5571
mıĢ	-5572
▁qadağan	-5573
▁göstərilməsi	-5574
eksan	-5575
▁Əliyevə	-5576
▁işğaldan	-5577
▁7-	-5578
▁altı	-5579
lərdir	-5580
▁anlam	-5581
▁gizli	-5582
▁aiddir	-5583
ian	-5584
arıstan	-5585
▁Be	-5586
▁üzə	-5587
▁təminat	-5588
DA	-5589
▁tanım	-5590
Azər	-5591
▁məzmun	-5592
itor	-5593
ilan	-5594
▁34	-5595
ərdi	-5596
▁Arif	-5597
▁yalan	-5598
▁Üzeyir	-5599
▁Ədəbiyyat	-5600
utbol	-5601
▁yürüş	-5602
▁valyut	-5603
▁rek	-5604
▁pedaqoji	-5605
▁sürətli	-5606
▁2005-	-5607
ımın	-5608
lərimizi	-5609
▁çevril	-5610
▁bab	-5611
▁Qarayev	-5612
▁2004-	-5613
ofiq	-5614
▁gətirir	-5615
avir	-5616
ommun	-5617
▁həyatın	-5618
ensiv	-5619
kuror	-5620
▁1992-	-5621
▁regionda	-5622
▁prose	-5623
▁nümunələri	-5624
tal	-5625
irmi	-5626
▁Əmin	-5627
anlıq	-5628
ilərək	-5629
��	-5630
▁sayılır	-5631
ko	-5632
uyğun	-5633
oler	-5634
pres	-5635
▁Cəl	-5636
14	-5637
▁Po	-5638
ifik	-5639
acı	-5640
riq	-5641
▁İnc	-5642
▁tutub	-5643
▁çəkir	-5644
▁təkan	-5645
▁olardı	-5646
▁yaşıl	-5647
maqdadır	-5648
▁əsaslanan	-5649
mdar	-5650
▁İctimai	-5651
▁demişdir	-5652
▁VƏ	-5653
▁Cəlil	-5654
▁Tərəflər	-5655
▁fikrincə	-5656
▁ulduz	-5657
▁çıxıb	-5658
▁Alban	-5659
▁nəzəri	-5660
▁davranış	-5661
▁Ber	-5662
▁metal	-5663
ometr	-5664
ER	-5665
▁kəsi	-5666
▁istirahət	-5667
▁Arx	-5668
▁Fət	-5669
ləşdirilmiş	-5670
imin	-5671
▁qulluqçu	-5672
▁Layih	-5673
▁yolunun	-5674
▁pil	-5675
sir	-5676
▁Fondu	-5677
KT	-5678
▁nəzərdən	-5679
▁artması	-5680
▁işini	-5681
▁dəh	-5682
▁Axund	-5683
▁bitki	-5684
▁Qəhrəm	-5685
▁Elektron	-5686
▁tezliklə	-5687
▁7,	-5688
asan	-5689
▁insanları	-5690
▁Vil	-5691
ışdır	-5692
▁memarlıq	-5693
▁fəlsəfi	-5694
▁Koll	-5695
▁vəzifəli	-5696
▁Nik	-5697
▁gələr	-5698
▁Ev	-5699
▁bəyin	-5700
▁çəkilən	-5701
▁oc	-5702
ilərə	-5703
▁sahələrinin	-5704
avuş	-5705
▁op	-5706
xalif	-5707
eya	-5708
usun	-5709
.,	-5710
▁həcmi	-5711
▁mühəndis	-5712
onu	-5713
▁növləri	-5714
▁adlandırıl	-5715
ındakı	-5716
▁Görüş	-5717
▁igid	-5718
▁otaq	-5719
▁sərmay	-5720
▁qarşısının	-5721
▁şəxslərə	-5722
▁hadisələrin	-5723
▁Avropada	-5724
▁ocaq	-5725
▁hüdud	-5726
Biz	-5727
ıla	-5728
▁rəqs	-5729
▁etiraf	-5730
▁yaşamaq	-5731
luğunu	-5732
▁vitse	-5733
ira	-5734
▁gürcü	-5735
▁hay	-5736
▁adamları	-5737
eoloji	-5738
olerant	-5739
ha	-5740
keş	-5741
çiliyi	-5742
▁dö	-5743
larımızı	-5744
▁Həyat	-5745
▁çevrilir	-5746
▁səsləndir	-5747
▁yetirilməsi	-5748
süm	-5749
▁rifah	-5750
dön	-5751
▁işləyən	-5752
▁yazılmış	-5753
▁öyrənilməsi	-5754
sizlik	-5755
▁Cavid	-5756
▁Sovetinin	-5757
▁köhnə	-5758
▁Nat	-5759
▁Ne	-5760
▁yaranır	-5761
ədd	-5762
▁frans	-5763
ımızda	-5764
▁himay	-5765
▁qorunub	-5766
xah	-5767
iyanı	-5768
▁Amerik	-5769
şr	-5770
bilisi	-5771
gist	-5772
▁duyğu	-5773
▁həmkar	-5774
▁est	-5775
ASININ	-5776
▁Ukrayna	-5777
▁məhsullarının	-5778
▁rəm	-5779
▁birini	-5780
ekst	-5781
ləşir	-5782
▁minlərlə	-5783
alət	-5784
▁həyatının	-5785
▁azı	-5786
▁yaradılmışdır	-5787
▁pər	-5788
▁Akademik	-5789
▁atasının	-5790
▁rəngli	-5791
▁yem	-5792
mişəm	-5793
▁Başqa	-5794
▁İqtisadiyyat	-5795
otik	-5796
▁Texn	-5797
▁dilinə	-5798
Az	-5799
▁yaradılıb	-5800
ea	-5801
▁vəzifələri	-5802
▁toy	-5803
▁mövqeyi	-5804
▁Əm	-5805
▁kur	-5806
▁yolunu	-5807
▁bəndini	-5808
▁Konstitusiya	-5809
ənən	-5810
▁məqsədlə	-5811
▁layihələrin	-5812
▁Oğuz	-5813
▁edilməsini	-5814
etika	-5815
ünc	-5816
▁dövrlərdə	-5817
▁Siyasi	-5818
▁başına	-5819
▁Əliyevanın	-5820
▁muxtar	-5821
▁sözlərinə	-5822
▁vacibdir	-5823
▁ərzaq	-5824
▁altına	-5825
▁8.	-5826
▁orqanının	-5827
anını	-5828
mədəni	-5829
▁Akt	-5830
▁Fərman	-5831
▁Əməkdar	-5832
▁MD	-5833
sional	-5834
▁Mül	-5835
gəndər	-5836
▁em	-5837
▁Ramiz	-5838
▁Tofiq	-5839
▁vasitə	-5840
▁keçirildi	-5841
▁Tib	-5842
məyib	-5843
əbrayıl	-5844
▁Yen	-5845
▁istəyən	-5846
▁sonradan	-5847
ai	-5848
▁dairəsi	-5849
▁ərazilərdə	-5850
▁köməyi	-5851
prezident	-5852
▁prosedur	-5853
şam	-5854
iliyə	-5855
▁saf	-5856
▁çatış	-5857
▁bəndində	-5858
▁15-	-5859
▁zül	-5860
▁qorumaq	-5861
▁məlumatları	-5862
▁Region	-5863
▁olduğ	-5864
ıdır	-5865
▁böhran	-5866
ubern	-5867
▁Xüsusi	-5868
▁post	-5869
▁ödənilməsi	-5870
diyimiz	-5871
▁azadlığı	-5872
▁dinin	-5873
▁irsi	-5874
▁36	-5875
üğ	-5876
▁Səfəvi	-5877
▁fərqlən	-5878
▁edilmir	-5879
▁nəticələr	-5880
qi	-5881
alic	-5882
əqqi	-5883
▁2003-	-5884
▁ərəf	-5885
iyin	-5886
▁deyilir	-5887
▁işar	-5888
▁dəhş	-5889
▁proq	-5890
▁keçirilməsinə	-5891
AZ	-5892
▁yanına	-5893
▁iĢ	-5894
▁ordusu	-5895
▁daşıyıcı	-5896
▁xidmətin	-5897
▁Bar	-5898
▁Qanununda	-5899
eron	-5900
▁büdcə	-5901
▁pozulması	-5902
▁cild	-5903
▁ölkəyə	-5904
▁nəşriyyat	-5905
▁)	-5906
▁UN	-5907
ion	-5908
taj	-5909
▁ideya	-5910
▁sərgi	-5911
▁Müş	-5912
əməsi	-5913
▁Teymur	-5914
▁İnformasiya	-5915
▁təşkilatları	-5916
ental	-5917
mer	-5918
▁Ol	-5919
▁əksinə	-5920
▁Qanunvericilik	-5921
ilmişdi	-5922
▁Apar	-5923
ücü	-5924
▁yor	-5925
▁termin	-5926
▁əlil	-5927
25	-5928
atla	-5929
silə	-5930
▁adlanan	-5931
▁əhəmiyyətini	-5932
▁maks	-5933
▁adları	-5934
▁12,	-5935
▁əhval	-5936
▁dərman	-5937
olkovnik	-5938
▁qr	-5939
▁bəhr	-5940
▁...	-5941
▁pat	-5942
▁Aşağı	-5943
▁Misir	-5944
əllə	-5945
▁Tal	-5946
16	-5947
atçı	-5948
▁odur	-5949
▁bunların	-5950
▁istinad	-5951
övz	-5952
▁rüb	-5953
▁not	-5954
▁1990-	-5955
▁qoyulan	-5956
ibə	-5957
məni	-5958
laşması	-5959
▁səfəri	-5960
▁haqqı	-5961
imn	-5962
▁Komissiyasının	-5963
▁Mik	-5964
▁intensiv	-5965
▁ak	-5966
▁mii	-5967
▁özüm	-5968
▁mik	-5969
▁Komandan	-5970
▁Har	-5971
iyini	-5972
▁bildirmişdir	-5973
▁olmasa	-5974
▁dəfn	-5975
▁to	-5976
əsna	-5977
ros	-5978
▁paytaxtı	-5979
paq	-5980
▁vəh	-5981
müddətli	-5982
▁yerini	-5983
▁ölkələrinin	-5984
▁Xəlil	-5985
laşdırmaq	-5986
nak	-5987
▁hadisələri	-5988
▁verirdi	-5989
▁qələbə	-5990
▁yiy	-5991
▁bitk	-5992
▁nişan	-5993
▁Erməni	-5994
LI	-5995
▁Sonr	-5996
▁nat	-5997
▁yoxlan	-5998
▁üstünə	-5999
▁məqsədə	-6000
veren	-6001
▁bəd	-6002
alarla	-6003
▁əlaqələrinin	-6004
lov	-6005
▁getdikcə	-6006
▁iştirakçıları	-6007
▁8,	-6008
▁əsrlər	-6009
lantı	-6010
.20	-6011
əssas	-6012
▁Mem	-6013
▁fəsil	-6014
karlıq	-6015
▁rayonun	-6016
ert	-6017
▁roman	-6018
incisi	-6019
▁şahidi	-6020
▁İb	-6021
▁Qərbi	-6022
imdə	-6023
▁”	-6024
▁soyqırım	-6025
▁Özbək	-6026
▁qanuna	-6027
gar	-6028
ləşməsi	-6029
▁Hacıbəy	-6030
▁Kö	-6031
▁Murad	-6032
▁Şərqi	-6033
pir	-6034
minin	-6035
▁İdman	-6036
▁fransız	-6037
▁qarşılaş	-6038
▁bənz	-6039
▁yaşı	-6040
rav	-6041
▁çempion	-6042
▁Şəh	-6043
▁Cinayət	-6044
▁təntən	-6045
▁Şamaxı	-6046
tida	-6047
içik	-6048
▁ünv	-6049
▁Kral	-6050
▁qıl	-6051
▁güzəşt	-6052
▁əlbəttə	-6053
▁həmrəy	-6054
əcər	-6055
▁Qanununa	-6056
incə	-6057
▁nik	-6058
lum	-6059
əffaf	-6060
▁Hörmət	-6061
▁2000-	-6062
▁heykəl	-6063
▁tərəfi	-6064
▁qabaqcıl	-6065
▁Məhkəməsinin	-6066
▁yuxarıda	-6067
▁Ek	-6068
▁edəcəy	-6069
naməsi	-6070
▁psixoloji	-6071
▁Dəniz	-6072
ino	-6073
▁Tədqiqat	-6074
təh	-6075
▁səhər	-6076
▁qəzeti	-6077
▁satış	-6078
ardı	-6079
▁30-	-6080
▁Gen	-6081
▁qardaşı	-6082
ünən	-6083
▁keçib	-6084
▁təəssüf	-6085
▁yazıl	-6086
▁respublikada	-6087
▁baycan	-6088
▁məclis	-6089
▁Təsərrüf	-6090
▁dərd	-6091
▁bələdiyyə	-6092
serv	-6093
▁ant	-6094
▁ban	-6095
▁sit	-6096
skinin	-6097
▁polis	-6098
▁Həsənov	-6099
▁səviyyəsinin	-6100
▁xalqa	-6101
▁kafedr	-6102
HH	-6103
▁Avropanın	-6104
azi	-6105
▁nəhəng	-6106
▁Proqramı	-6107
▁açıb	-6108
▁sözlər	-6109
▁bolşevik	-6110
▁oluna	-6111
▁qoyulmuş	-6112
əkkiz	-6113
imli	-6114
▁müəssisə	-6115
ənah	-6116
▁Qərar	-6117
▁9-	-6118
▁vurğulayıb	-6119
▁vide	-6120
▁sonuncu	-6121
▁dövlətləri	-6122
▁xanımın	-6123
▁maddəsinə	-6124
▁ləy	-6125
yönlü	-6126
▁dü	-6127
amın	-6128
▁sayılan	-6129
▁çəkən	-6130
▁olunacaq	-6131
türk	-6132
▁razılıq	-6133
pə	-6134
ıblar	-6135
▁müstəsna	-6136
▁səhiyyə	-6137
▁həlak	-6138
▁sətir	-6139
▁vəzifəsində	-6140
▁qəbir	-6141
▁fikirlər	-6142
▁yönəldil	-6143
▁edilirdi	-6144
▁öndərin	-6145
ess	-6146
▁Britaniya	-6147
lop	-6148
ayiət	-6149
▁nəzəriyy	-6150
▁görən	-6151
maların	-6152
▁yarımbənd	-6153
▁Bəh	-6154
▁düy	-6155
▁kədər	-6156
▁bölgədə	-6157
təz	-6158
▁qanunun	-6159
▁lən	-6160
▁Cəbrayıl	-6161
▁11,	-6162
▁Xat	-6163
▁göstəricilər	-6164
▁Yük	-6165
lit	-6166
dində	-6167
▁formalaşdır	-6168
▁göstərmişdir	-6169
avil	-6170
▁quru	-6171
▁süt	-6172
bül	-6173
▁Aleksan	-6174
iyasını	-6175
▁üsyan	-6176
əmən	-6177
▁tamaşaçı	-6178
▁Qazaxıstan	-6179
ƏM	-6180
▁suveren	-6181
▁artım	-6182
▁çıxdı	-6183
▁əsrlərdə	-6184
▁balıq	-6185
iləş	-6186
▁soyuq	-6187
▁qatı	-6188
▁Cənab	-6189
▁8-	-6190
▁bənzər	-6191
▁həssas	-6192
▁quruculuğu	-6193
yanın	-6194
▁diplom	-6195
▁başlamışdır	-6196
▁ədəbiyyatının	-6197
laşan	-6198
▁Təşkilatının	-6199
▁Kan	-6200
aməti	-6201
ləndi	-6202
▁gəlmək	-6203
vin	-6204
▁xam	-6205
▁xatırla	-6206
▁sus	-6207
yes	-6208
▁İsveç	-6209
düz	-6210
▁Dey	-6211
▁cih	-6212
▁Mustafa	-6213
▁zövq	-6214
▁adətən	-6215
▁mənasında	-6216
ımda	-6217
▁sizə	-6218
▁xidmətlər	-6219
kon	-6220
▁iqtisadiyyatı	-6221
dağ	-6222
▁uyğunlaşdırıl	-6223
ds	-6224
ehsal	-6225
▁başlayan	-6226
▁məktəbinin	-6227
▁soydaş	-6228
▁mm	-6229
▁cama	-6230
amlı	-6231
▁bayramı	-6232
▁olurdu	-6233
▁müstəqilliyini	-6234
aktiki	-6235
▁suyun	-6236
çilərinin	-6237
▁Dav	-6238
▁etməli	-6239
▁cədvəl	-6240
▁sənətinin	-6241
▁korp	-6242
abbar	-6243
▁sı	-6244
əyəcan	-6245
▁Qadın	-6246
▁İnt	-6247
▁Aydın	-6248
22	-6249
▁tolerant	-6250
ersiya	-6251
El	-6252
Ar	-6253
▁bacı	-6254
▁2001-	-6255
▁Musiqi	-6256
▁təqa	-6257
▁toxum	-6258
▁qayıdı	-6259
▁PREZİDENTİNİN	-6260
▁hak	-6261
▁yolları	-6262
lüm	-6263
▁MDB	-6264
▁dəyəri	-6265
▁üzvlərinin	-6266
▁Müb	-6267
▁sakit	-6268
▁Fərmanın	-6269
fa	-6270
▁nın	-6271
asibat	-6272
▁layihələri	-6273
▁Kitabxan	-6274
▁prinsipləri	-6275
▁açıl	-6276
ildiyi	-6277
▁vətəndaşı	-6278
▁Xor	-6279
▁MK	-6280
▁ni	-6281
▁lid	-6282
▁Qazax	-6283
▁Bunlar	-6284
üter	-6285
tü	-6286
▁unudul	-6287
▁mərhələdə	-6288
▁günə	-6289
danın	-6290
▁xeyr	-6291
▁ləyaq	-6292
▁Ur	-6293
güzar	-6294
▁əsərin	-6295
▁cəsarət	-6296
……	-6297
nəzər	-6298
▁anal	-6299
cədə	-6300
▁laborator	-6301
ıncı	-6302
▁riyaz	-6303
▁gedə	-6304
▁çıxarılması	-6305
▁başlanğıc	-6306
▁əsərlərində	-6307
▁nağıl	-6308
luğunun	-6309
▁eşi	-6310
▁ərazisi	-6311
▁vətənpərvərlik	-6312
▁İsa	-6313
▁savaş	-6314
▁təyyar	-6315
▁yaşadı	-6316
▁çarp	-6317
▁yeddi	-6318
▁Fəx	-6319
▁Dəmir	-6320
▁direktor	-6321
▁sənədləri	-6322
0000	-6323
laşır	-6324
▁publisist	-6325
▁tutmuş	-6326
ESCO	-6327
▁İtaliya	-6328
ifə	-6329
▁müşayiət	-6330
idar	-6331
▁nəticəsidir	-6332
▁vir	-6333
iliyini	-6334
vat	-6335
▁dalğ	-6336
▁Zeynal	-6337
görüş	-6338
▁bilərdi	-6339
▁mərtəb	-6340
▁Məclisinin	-6341
▁Toplusu	-6342
tam	-6343
▁katib	-6344
lavə	-6345
▁diz	-6346
əzur	-6347
▁Pal	-6348
▁45	-6349
▁inkişafın	-6350
Ģı	-6351
▁redaktoru	-6352
▁faizi	-6353
▁keçiriləcək	-6354
▁suvar	-6355
▁dillərində	-6356
▁2019-	-6357
▁müalic	-6358
ürs	-6359
▁simv	-6360
acağıq	-6361
▁Tədbirdə	-6362
▁Böl	-6363
▁bələdiyy	-6364
▁orij	-6365
maması	-6366
▁etdim	-6367
▁tələbləri	-6368
▁reak	-6369
dirlər	-6370
*6	-6371
eqoriya	-6372
▁Hacıyev	-6373
▁dissert	-6374
*3.	-6375
*4.	-6376
*5.	-6377
təd	-6378
*5.*6	-6379
2.*3.	-6380
*4.*5.*6	-6381
ifadə	-6382
▁Tanrı	-6383
▁ucal	-6384
▁əfsan	-6385
▁qəbulu	-6386
▁sifariş	-6387
adənin	-6388
▁təsviri	-6389
▁təşkilatın	-6390
▁şərti	-6391
▁Partiyası	-6392
▁39	-6393
▁Yaq	-6394
▁dramatur	-6395
ATO	-6396
▁ağıl	-6397
▁səp	-6398
▁bölün	-6399
▁istilik	-6400
▁nəhayət	-6401
▁minir	-6402
▁tarixini	-6403
▁hökumətinin	-6404
▁inteqrasiya	-6405
ləyə	-6406
▁əlində	-6407
▁eyn	-6408
sından	-6409
▁magist	-6410
▁37	-6411
ərar	-6412
oğlunun	-6413
ogen	-6414
▁mir	-6415
əsgər	-6416
▁müxalif	-6417
▁təcrübəsi	-6418
▁ibn	-6419
▁əsərində	-6420
▁Xət	-6421
▁Mə	-6422
mələrin	-6423
okratik	-6424
▁qanunsuz	-6425
ET	-6426
alları	-6427
▁islahatların	-6428
▁kart	-6429
▁lar	-6430
▁anbar	-6431
lıqları	-6432
mak	-6433
▁Rz	-6434
▁lideri	-6435
gilər	-6436
▁kils	-6437
▁nəticədə	-6438
▁risk	-6439
▁sentyabrın	-6440
▁İsgəndər	-6441
elin	-6442
▁riayət	-6443
▁xəstəliy	-6444
▁Universitetində	-6445
▁Kamal	-6446
unc	-6447
▁rabitə	-6448
▁bildirən	-6449
▁səviyyəsinə	-6450
▁Quba	-6451
▁Fərmanı	-6452
▁bugünkü	-6453
▁ədalətli	-6454
▁Aslan	-6455
ori	-6456
tidai	-6457
▁alınan	-6458
▁birliyi	-6459
▁109-	-6460
çər	-6461
▁ayrıl	-6462
▁qüvvə	-6463
▁çevrilib	-6464
asimi	-6465
▁niyə	-6466
▁Şirk	-6467
ətində	-6468
▁olmadığı	-6469
▁texnoloji	-6470
▁gücləndirilməsi	-6471
▁ölümündən	-6472
▁Kateqoriya	-6473
▁dərəcəli	-6474
atar	-6475
məyin	-6476
▁yemək	-6477
birindən	-6478
▁olunmasını	-6479
liklər	-6480
▁fəaliyyətində	-6481
let	-6482
▁xanımı	-6483
▁oxun	-6484
▁sədaq	-6485
▁cərəyan	-6486
▁səni	-6487
▁şeyi	-6488
yanı	-6489
▁üsulu	-6490
▁fili	-6491
▁rəqabət	-6492
▁ordusunun	-6493
▁futbol	-6494
▁qubern	-6495
▁yandır	-6496
▁məf	-6497
əkbər	-6498
▁forma	-6499
▁fikirləri	-6500
▁Kiçik	-6501
▁göl	-6502
▁əlif	-6503
▁radio	-6504
ükür	-6505
tifik	-6506
▁proqnoz	-6507
▁keçdi	-6508
diyindən	-6509
▁səviyyəli	-6510
▁xidmətlərin	-6511
▁saxlanılması	-6512
▁qırmızı	-6513
İs	-6514
▁iclasında	-6515
▁İncəsənət	-6516
▁ә	-6517
80	-6518
anov	-6519
▁olmalı	-6520
▁mif	-6521
maqdan	-6522
▁mülah	-6523
▁Sənaye	-6524
▁ölkəmizə	-6525
▁ediləcək	-6526
amn	-6527
kənd	-6528
▁Elçin	-6529
▁qoyur	-6530
TAc	-6531
örək	-6532
▁səhnə	-6533
▁Tiflis	-6534
▁nümunə	-6535
▁bəxş	-6536
▁şəffaf	-6537
▁həyatda	-6538
▁yaşamış	-6539
sion	-6540
əsiq	-6541
▁maddənin	-6542
qda	-6543
▁tərkibinə	-6544
ikin	-6545
▁saz	-6546
▁budur	-6547
▁sx	-6548
▁Minsk	-6549
▁başlam	-6550
▁könüllü	-6551
▁oxşar	-6552
▁doktor	-6553
▁komponent	-6554
amaz	-6555
▁Tarixi	-6556
aşdırılması	-6557
▁boyunca	-6558
▁məqsədyönlü	-6559
▁təmiri	-6560
▁münaqişəsinin	-6561
DU	-6562
▁verəcək	-6563
ınıb	-6564
▁müxbir	-6565
▁Qarabağda	-6566
2.*3.*4.*5.*6	-6567
▁Laç	-6568
iyadan	-6569
▁Bəlkə	-6570
▁töhfə	-6571
▁Rəhim	-6572
▁elmlər	-6573
▁multikultur	-6574
▁10,	-6575
▁Kazım	-6576
▁Ey	-6577
▁məktəbdə	-6578
▁hekt	-6579
raq	-6580
dünya	-6581
▁görmüş	-6582
▁elmin	-6583
▁tarixə	-6584
▁Düz	-6585
göz	-6586
▁zədə	-6587
▁müavin	-6588
ulyar	-6589
▁məmur	-6590
▁sığort	-6591
▁azərbaycanlılar	-6592
▁Da	-6593
▁edilərək	-6594
▁pol	-6595
▁Rum	-6596
▁Əhalinin	-6597
▁agent	-6598
▁başqaları	-6599
enti	-6600
▁Yalnız	-6601
▁təşviq	-6602
▁Yaxın	-6603
▁Məclisi	-6604
▁ala	-6605
▁yoldaşı	-6606
▁tor	-6607
▁günəş	-6608
▁miqdarı	-6609
ls	-6610
▁məişət	-6611
▁həqiqətən	-6612
▁kapital	-6613
▁abz	-6614
▁aidiyyəti	-6615
▁Müt	-6616
▁stansiy	-6617
▁şübhəsiz	-6618
kir	-6619
▁gəlməsi	-6620
▁rey	-6621
▁məsələyə	-6622
▁həyəcan	-6623
ce	-6624
▁hallar	-6625
▁yap	-6626
▁yəh	-6627
pt	-6628
▁hidro	-6629
▁araşdırmalar	-6630
adar	-6631
▁tanıy	-6632
▁şəraiti	-6633
▁dır	-6634
▁statistik	-6635
çaq	-6636
mində	-6637
▁Rusiyada	-6638
▁olmasının	-6639
▁misr	-6640
▁uzunmüddətli	-6641
▁dünyagörüş	-6642
▁rəhbərləri	-6643
tul	-6644
▁Vur	-6645
adakı	-6646
osu	-6647
▁arxasında	-6648
▁tutdu	-6649
▁edilməsində	-6650
▁uzan	-6651
▁2002-	-6652
▁dövlətə	-6653
lıdır	-6654
▁bina	-6655
▁fəhlə	-6656
ətdən	-6657
▁Ələkbər	-6658
▁hərəkəti	-6659
▁yolda	-6660
▁nümunəsi	-6661
▁düşdü	-6662
▁Bağır	-6663
▁yaratdı	-6664
daxili	-6665
▁Öndər	-6666
▁şeydən	-6667
▁təhlükə	-6668
▁xaricdə	-6669
▁hakimiyyətinin	-6670
ona	-6671
osof	-6672
ilin	-6673
▁sənə	-6674
▁olduğuna	-6675
▁qüdrətli	-6676
▁verilsin	-6677
▁geyim	-6678
▁Sa	-6679
▁bacarı	-6680
▁gündəlik	-6681
▁edəcəkdir	-6682
▁İnzibati	-6683
əcəyinə	-6684
▁Zəngəzur	-6685
OR	-6686
▁yayım	-6687
▁səsver	-6688
▁malların	-6689
▁göstərirdi	-6690
təfiq	-6691
▁Təlim	-6692
imul	-6693
▁həllinə	-6694
ly	-6695
məkdə	-6696
əmadi	-6697
▁söykən	-6698
iyaları	-6699
▁Türkmən	-6700
▁qəti	-6701
▁Gömrük	-6702
ovanın	-6703
▁iyunun	-6704
▁Əməkdaşlıq	-6705
▁alınmaqla	-6706
▁təkmilləşdir	-6707
rif	-6708
▁AzərTAc	-6709
rant	-6710
▁siq	-6711
▁millətin	-6712
▁12-	-6713
▁Əsəd	-6714
▁vəsiq	-6715
ssiya	-6716
▁orijinal	-6717
▁təhsilini	-6718
▁olanda	-6719
▁Ban	-6720
▁Mac	-6721
▁diplomat	-6722
▁müay	-6723
▁seçk	-6724
▁qarşıya	-6725
▁yu	-6726
quş	-6727
layıcı	-6728
▁ve	-6729
▁həllini	-6730
əcəyik	-6731
▁tikil	-6732
▁miqdarda	-6733
▁mənbəyi	-6734
▁deyirdi	-6735
▁cavan	-6736
▁müqayisə	-6737
▁nöq	-6738
▁anası	-6739
▁Tahir	-6740
▁şəxsən	-6741
sağ	-6742
▁fəlak	-6743
▁kitabın	-6744
▁qüvvələr	-6745
▁istism	-6746
▁veriliş	-6747
▁Vəz	-6748
▁formalaşması	-6749
▁sektorunun	-6750
▁vurğuladı	-6751
▁kampan	-6752
▁qabiliyyəti	-6753
▁respublikamızın	-6754
▁tük	-6755
▁müharibəsində	-6756
▁məmul	-6757
▁Məq	-6758
▁Qoş	-6759
masın	-6760
onik	-6761
məkdən	-6762
▁cihaz	-6763
▁cəmiyyətinin	-6764
▁körpü	-6765
▁qətlə	-6766
▁Ağa	-6767
▁birləşdirən	-6768
▁çavuş	-6769
▁subhesab	-6770
▁İnstitutu	-6771
ovuz	-6772
▁xalç	-6773
▁təəssür	-6774
▁dilini	-6775
▁Con	-6776
▁quyu	-6777
▁adamı	-6778
▁Nəc	-6779
▁fer	-6780
▁asılıdır	-6781
▁dərəcəsi	-6782
▁fır	-6783
▁rütb	-6784
▁illiyi	-6785
▁dovlat	-6786
▁gətirən	-6787
▁yanaşma	-6788
▁kilometr	-6789
atoru	-6790
▁tarixin	-6791
▁Partiyasının	-6792
▁acı	-6793
▁qanlı	-6794
▁Nazirliyinə	-6795
▁konstru	-6796
Bir	-6797
▁semin	-6798
▁Ma	-6799
▁fe	-6800
▁aqrar	-6801
▁həyatını	-6802
▁gələc	-6803
▁Birliyi	-6804
▁dövlətçiliy	-6805
ametr	-6806
▁təşəkk	-6807
▁karb	-6808
▁Stat	-6809
▁məşq	-6810
▁qəzetinin	-6811
axta	-6812
şeron	-6813
▁bunları	-6814
▁tədqiqatlar	-6815
▁Yanvar	-6816
▁mərasimi	-6817
▁materiallar	-6818
▁Sahib	-6819
▁yazıb	-6820
ulmuş	-6821
▁olmaması	-6822
▁Cümhuriyyətinin	-6823
DƏ	-6824
ağıyev	-6825
▁məbləği	-6826
▁başçılıq	-6827
anıstan	-6828
▁adlanır	-6829
▁pozunt	-6830
▁1994-	-6831
▁yaradıcılığında	-6832
Hey	-6833
▁göstəricisi	-6834
ğənn	-6835
▁qalın	-6836
▁bütövlüyü	-6837
ider	-6838
verici	-6839
▁çevrildi	-6840
xoz	-6841
▁AS	-6842
ricən	-6843
▁evi	-6844
▁nəticələn	-6845
▁Şt	-6846
▁Bəzən	-6847
boy	-6848
▁vəzifələr	-6849
▁xalqlarının	-6850
▁Qaf	-6851
dıqca	-6852
▁Lənkəran	-6853
▁zəmin	-6854
▁vəsaiti	-6855
▁Cəm	-6856
▁bərk	-6857
▁İranın	-6858
ESKO	-6859
▁təşkilatçılığı	-6860
ikal	-6861
44	-6862
▁çəkin	-6863
▁Azərbaycandan	-6864
▁Səl	-6865
▁işlərinə	-6866
▁deyilən	-6867
▁tərkibi	-6868
▁günün	-6869
siv	-6870
▁ti	-6871
▁Torpaq	-6872
▁səkkiz	-6873
▁Müxtəlif	-6874
▁edilmişdi	-6875
▁tarixdə	-6876
▁ke	-6877
lili	-6878
▁xəy	-6879
akir	-6880
▁motiv	-6881
▁ödəy	-6882
ərlər	-6883
osfer	-6884
mersiya	-6885
▁deputatı	-6886
▁Əks	-6887
▁intellektual	-6888
▁Mak	-6889
▁İL	-6890
▁Bəs	-6891
avaş	-6892
▁ittih	-6893
ret	-6894
▁Sazişin	-6895
▁statusu	-6896
uar	-6897
▁mağ	-6898
▁oynay	-6899
▁özləri	-6900
▁istifadəsi	-6901
▁paral	-6902
iyan	-6903
▁çayı	-6904
▁Cəlal	-6905
▁seçilən	-6906
▁vuruş	-6907
▁Yox	-6908
▁ehtimal	-6909
▁yerləri	-6910
▁eksp	-6911
▁ərəfəsində	-6912
▁materialları	-6913
▁vəzifəsi	-6914
▁yaratmışdır	-6915
üngül	-6916
▁edilməsinin	-6917
▁stimul	-6918
▁Nəticədə	-6919
ON	-6920
Əliyev	-6921
▁Naxçıvanda	-6922
▁aman	-6923
▁Günəş	-6924
iza	-6925
▁Mas	-6926
▁vəhdət	-6927
▁əvəzinə	-6928
▁müqayisədə	-6929
▁çatdırılması	-6930
▁balan	-6931
mağın	-6932
▁əməkdaşlığı	-6933
ovu	-6934
▁43	-6935
senz	-6936
ədəm	-6937
▁mükafatı	-6938
▁əvvəllər	-6939
▁imzalanmış	-6940
avr	-6941
▁Dram	-6942
▁məzun	-6943
▁ifadəsi	-6944
siyalar	-6945
▁yaşında	-6946
▁sahəsinin	-6947
▁х	-6948
▁mövqeyini	-6949
▁kosm	-6950
▁işində	-6951
▁Əlavə	-6952
ediy	-6953
siklop	-6954
▁Yaqub	-6955
▁ustad	-6956
▁qüvvələrin	-6957
lənmə	-6958
▁1991-	-6959
▁Xal	-6960
▁arxa	-6961
▁qabağ	-6962
likdən	-6963
▁praktik	-6964
umunun	-6965
Əs	-6966
üqar	-6967
▁pəncər	-6968
▁Qon	-6969
▁misal	-6970
▁Aleksandr	-6971
▁mütər	-6972
▁alınır	-6973
LAR	-6974
ely	-6975
▁ümumilikdə	-6976
▁protokol	-6977
▁xəstəxan	-6978
▁maddələrin	-6979
▁mənafe	-6980
▁şərəfli	-6981
nişin	-6982
▁bilsin	-6983
▁bərq	-6984
▁mütəmadi	-6985
▁tapıb	-6986
▁yaradıb	-6987
▁pyes	-6988
▁fəaliyyətin	-6989
diniz	-6990
▁meşə	-6991
acaqlar	-6992
▁üzləş	-6993
əviyyat	-6994
▁şur	-6995
▁İspan	-6996
▁kimin	-6997
▁gördüyü	-6998
▁Təsərrüfatı	-6999
▁9.	-7000
▁məsələnin	-7001
əngi	-7002
ikləri	-7003
bundan	-7004
▁noyabrın	-7005
▁leytenant	-7006
qal	-7007
▁xərcləri	-7008
▁çevrilmişdir	-7009
▁fasil	-7010
▁əcn	-7011
▁Roma	-7012
▁1999-	-7013
:0	-7014
▁yiyələn	-7015
▁ehtiyacı	-7016
əxtiyar	-7017
▁qismən	-7018
iyab	-7019
▁qətnam	-7020
▁Et	-7021
▁Cümhuriyyəti	-7022
ambl	-7023
▁Məlik	-7024
▁saxlam	-7025
▁tit	-7026
utu	-7027
dadır	-7028
▁görülüb	-7029
▁verməyə	-7030
▁May	-7031
şir	-7032
▁qəf	-7033
▁xalça	-7034
aket	-7035
ülbül	-7036
▁işdə	-7037
▁boğ	-7038
▁nədən	-7039
▁ərizə	-7040
▁Kommun	-7041
▁atı	-7042
▁qüs	-7043
▁yolun	-7044
▁Əbülf	-7045
ƏNC	-7046
▁QƏR	-7047
▁tanınan	-7048
▁qalıq	-7049
▁iqt	-7050
▁imtahan	-7051
▁Ələsgər	-7052
▁öyrənmək	-7053
▁ölkələrimiz	-7054
▁təşkilatlarının	-7055
▁19-	-7056
kam	-7057
yaş	-7058
astik	-7059
▁axı	-7060
Kitab	-7061
mışdılar	-7062
▁Babayev	-7063
▁Möv	-7064
▁anlaş	-7065
əhərrəm	-7066
▁lisenz	-7067
▁Kabinetinə	-7068
▁başla	-7069
▁təhvil	-7070
up	-7071
▁NATO	-7072
▁ğ	-7073
▁Yaponiya	-7074
ej	-7075
▁xa	-7076
ilar	-7077
▁dövriyy	-7078
▁inteqr	-7079
men	-7080
▁alət	-7081
qyaslı	-7082
okal	-7083
▁İdarəsinin	-7084
▁nömrəsi	-7085
▁təşkilatı	-7086
▁Cavad	-7087
▁bilmək	-7088
▁1.1.	-7089
▁zərb	-7090
▁modern	-7091
▁kəndləri	-7092
▁yunan	-7093
ranz	-7094
▁Dövlətimizin	-7095
eton	-7096
▁Anar	-7097
əqiq	-7098
21	-7099
kim	-7100
hüquqi	-7101
▁hədd	-7102
dat	-7103
▁sarı	-7104
▁olurlar	-7105
▁AR	-7106
▁olmayıb	-7107
▁2.1	-7108
▁xəl	-7109
▁Sənəd	-7110
▁münaqişənin	-7111
▁ünsiyyət	-7112
lilik	-7113
▁sisteminə	-7114
eyd	-7115
▁saxlanılır	-7116
ernativ	-7117
▁peyğəmbər	-7118
▁lüğ	-7119
▁vəziyyətə	-7120
İS	-7121
dınca	-7122
▁SƏR	-7123
▁ildön	-7124
▁tərzi	-7125
▁toplantı	-7126
▁hakimi	-7127
▁etdikdən	-7128
▁ötr	-7129
▁1998-	-7130
▁kimyəvi	-7131
▁tür	-7132
▁vaxtilə	-7133
▁əsərlərinin	-7134
rəti	-7135
əp	-7136
▁MÜ	-7137
▁rəv	-7138
▁Lond	-7139
▁media	-7140
▁açılması	-7141
▁axşam	-7142
▁döyüşçü	-7143
▁incəsən	-7144
▁Qafqazın	-7145
▁mədəniyyətin	-7146
▁=	-7147
▁xeyirxah	-7148
▁te	-7149
▁plat	-7150
▁Tərəfin	-7151
▁müəllifin	-7152
əyinin	-7153
▁nailiyyətlər	-7154
▁özlərini	-7155
▁etməkdən	-7156
▁təqdirdə	-7157
▁Prezidentin	-7158
sm	-7159
▁Nəh	-7160
ərəm	-7161
▁Ko	-7162
▁Kəlb	-7163
▁şeirləri	-7164
iymət	-7165
▁Sizi	-7166
▁ötrü	-7167
▁Rom	-7168
▁inş	-7169
zə	-7170
▁NA	-7171
luğa	-7172
▁əlindən	-7173
▁məx	-7174
▁yoxsul	-7175
▁saç	-7176
▁göstərib	-7177
▁Cahan	-7178
▁xırda	-7179
ww	-7180
eatrı	-7181
lidir	-7182
təzəm	-7183
ikmət	-7184
▁seçilir	-7185
▁tədricən	-7186
orandum	-7187
▁çıxarıl	-7188
▁İraq	-7189
▁sahibkarlıq	-7190
▁Kol	-7191
▁biit	-7192
▁Festiv	-7193
▁insanı	-7194
▁festival	-7195
▁tullantı	-7196
de	-7197
Şah	-7198
▁güman	-7199
▁kənara	-7200
▁səm	-7201
▁duz	-7202
tirak	-7203
▁Dünyanın	-7204
▁ha	-7205
▁Sərəncamı	-7206
▁mahiyyəti	-7207
▁rüs	-7208
▁faktiki	-7209
▁tələblərə	-7210
70	-7211
acar	-7212
▁filmi	-7213
▁kitablar	-7214
▁getdi	-7215
▁mülahiz	-7216
▁tənzimlənməsi	-7217
▁ekran	-7218
▁qulaq	-7219
▁gedər	-7220
▁Rey	-7221
▁düşüb	-7222
▁haqlı	-7223
ülüb	-7224
▁tapmışdır	-7225
▁Odur	-7226
▁Nəz	-7227
▁meyl	-7228
▁götürüb	-7229
HT	-7230
▁sədrinin	-7231
▁lər	-7232
▁Azərbay	-7233
▁uzunluğu	-7234
əkkil	-7235
▁fəxr	-7236
▁layihənin	-7237
▁Teh	-7238
▁süz	-7239
23	-7240
orf	-7241
▁dairə	-7242
▁fikirlərini	-7243
▁arzulay	-7244
▁oktyabrın	-7245
afiz	-7246
▁yəqin	-7247
iva	-7248
tək	-7249
▁pred	-7250
mad	-7251
▁yana	-7252
▁zol	-7253
▁Pənah	-7254
▁buraxılı	-7255
▁Səb	-7256
▁təhlükəli	-7257
▁Mün	-7258
▁həz	-7259
▁inter	-7260
ministr	-7261
▁qoşunları	-7262
▁şübhə	-7263
▁layihəsinin	-7264
▁miqyas	-7265
▁çıxmış	-7266
▁nark	-7267
▁süni	-7268
?!	-7269
▁oldular	-7270
TAC	-7271
▁Assambl	-7272
▁Belar	-7273
▁şirin	-7274
▁özündən	-7275
▁torpaqları	-7276
▁orqanlarında	-7277
▁parçalan	-7278
▁ssen	-7279
▁işğalçı	-7280
anət	-7281
▁Bəyan	-7282
AMI	-7283
▁mərhələsi	-7284
▁75	-7285
▁Vla	-7286
▁Plan	-7287
▁dayanıq	-7288
ayevin	-7289
▁auditor	-7290
▁təbliği	-7291
▁Met	-7292
▁nəslin	-7293
▁53	-7294
▁Dağı	-7295
ord	-7296
▁sayının	-7297
▁şirkəti	-7298
▁məzmunun	-7299
quz	-7300
▁lap	-7301
▁nəv	-7302
▁mənfə	-7303
▁Rza	-7304
▁bərqərar	-7305
ou	-7306
▁ailəsi	-7307
lənib	-7308
▁əbəd	-7309
▁özümüz	-7310
vaz	-7311
▁Səhiyyə	-7312
▁olarkən	-7313
▁Pir	-7314
▁fövqəladə	-7315
▁Azərbaycandakı	-7316
amin	-7317
▁innov	-7318
▁əvvəlində	-7319
▁sahələr	-7320
▁həs	-7321
▁vaz	-7322
lanıb	-7323
lılar	-7324
▁Mətb	-7325
▁xalqları	-7326
sər	-7327
▁gizir	-7328
▁istiqlal	-7329
▁Respublikas	-7330
roz	-7331
malıyıq	-7332
▁mənşəli	-7333
ena	-7334
icdan	-7335
▁işləy	-7336
▁Konfrans	-7337
▁rəğbət	-7338
ommunikasiya	-7339
Məmməd	-7340
▁məntiqi	-7341
▁xalqlar	-7342
▁ideoloji	-7343
▁ap	-7344
Dədə	-7345
▁desək	-7346
▁iştirakçısı	-7347
üzə	-7348
▁189	-7349
▁vəzifəsinə	-7350
▁Mübar	-7351
▁xarakterizə	-7352
%-	-7353
uzeyi	-7354
▁endir	-7355
▁soyadı	-7356
▁taleyi	-7357
▁yetirir	-7358
▁bilməyən	-7359
ork	-7360
▁poem	-7361
▁Heydar	-7362
▁mərhələsində	-7363
▁sistemləri	-7364
ÜR	-7365
▁KİV	-7366
▁üzüm	-7367
▁məsələni	-7368
lıqların	-7369
▁mühacir	-7370
▁tövsiyə	-7371
▁Mark	-7372
▁çatışmaz	-7373
▁ara	-7374
ransı	-7375
mamışdır	-7376
layaraq	-7377
▁Aq	-7378
▁ideal	-7379
▁valyuta	-7380
▁dünyasının	-7381
▁Azad	-7382
▁dövlətlərinin	-7383
▁sm	-7384
ahar	-7385
▁idxal	-7386
▁qabar	-7387
▁müğənn	-7388
▁şeirlər	-7389
▁effektiv	-7390
qol	-7391
UR	-7392
▁Yazıçılar	-7393
ayəti	-7394
▁dilə	-7395
amızın	-7396
▁sakinləri	-7397
▁quraşdırıl	-7398
avat	-7399
▁quruculuq	-7400
nit	-7401
▁ərazisinə	-7402
▁Fətəli	-7403
▁təsadüfi	-7404
▁səmərəl	-7405
▁adamların	-7406
▁Mülki	-7407
▁SƏRƏNC	-7408
amal	-7409
anından	-7410
▁Deməli	-7411
24	-7412
▁48	-7413
əndiyev	-7414
▁mütərəqqi	-7415
▁$	-7416
▁aləmdə	-7417
▁qoyduğu	-7418
▁nəzdində	-7419
ologiyanın	-7420
▁əlamətdar	-7421
▁а	-7422
ruc	-7423
▁Əbd	-7424
▁diqqətlə	-7425
▁filosof	-7426
▁predmet	-7427
əllənin	-7428
esi	-7429
▁şən	-7430
▁faktor	-7431
getika	-7432
▁kontekst	-7433
▁proseslərin	-7434
▁Molla	-7435
▁sahənin	-7436
▁Hörmətli	-7437
▁yerləşdiyi	-7438
▁oğl	-7439
▁Təşkilatı	-7440
yeni	-7441
▁mikro	-7442
▁Məhərrəm	-7443
▁edənlər	-7444
▁nif	-7445
intaq	-7446
▁Anad	-7447
▁sistemin	-7448
bom	-7449
▁səfərbər	-7450
▁aylıq	-7451
Tbilisi	-7452
ikdə	-7453
▁təqaüd	-7454
ağından	-7455
▁fərqləndir	-7456
təbər	-7457
▁önündə	-7458
▁paralel	-7459
▁Jurnal	-7460
▁işlərə	-7461
▁diqqətini	-7462
te	-7463
▁keş	-7464
▁sertifik	-7465
udur	-7466
ilmasi	-7467
▁almağa	-7468
▁(19	-7469
itorinq	-7470
evir	-7471
▁təkliflər	-7472
itik	-7473
yot	-7474
dığına	-7475
▁qarışıq	-7476
▁Prof	-7477
▁İz	-7478
▁məsələn	-7479
▁görülmüş	-7480
▁şəhərdə	-7481
ure	-7482
VQD	-7483
tiş	-7484
ələk	-7485
▁nas	-7486
landı	-7487
▁qadınlar	-7488
▁Bəli	-7489
acağına	-7490
▁tələblər	-7491
▁mənəviyyat	-7492
▁gost	-7493
▁YAP	-7494
▁əzab	-7495
▁mehriban	-7496
▁nom	-7497
▁boyiik	-7498
▁ümumiləşdir	-7499
▁guya	-7500
▁bilərəm	-7501
▁dilindən	-7502
▁Məm	-7503
▁İsra	-7504
▁yüngül	-7505
▁keyfiyyətli	-7506
▁emalı	-7507
▁kompüter	-7508
▁Səlim	-7509
əccü	-7510
▁qoc	-7511
Ermən	-7512
arəng	-7513
▁gəlmişdir	-7514
▁torpaqların	-7515
▁Yay	-7516
▁məhsulun	-7517
▁tir	-7518
▁təchizatı	-7519
ələş	-7520
▁məna	-7521
▁əyani	-7522
▁gördük	-7523
▁Pak	-7524
▁fit	-7525
▁tərif	-7526
ordin	-7527
▁məsələlərə	-7528
usiya	-7529
birini	-7530
▁dayandır	-7531
ılma	-7532
▁sayt	-7533
90	-7534
▁döş	-7535
▁təbliğat	-7536
▁əməkdaşları	-7537
▁Paşa	-7538
▁AZƏRTAC	-7539
anların	-7540
rab	-7541
▁bilməy	-7542
ləşdirmə	-7543
▁etdikdə	-7544
▁yenidənqur	-7545
saqq	-7546
▁Bilir	-7547
▁cərim	-7548
▁əməkdar	-7549
olik	-7550
▁Şəhid	-7551
▁istərdim	-7552
▁əlyaz	-7553
▁müttəfiq	-7554
▁Təsadüf	-7555
▁təsərrüfatının	-7556
▁1920-	-7557
▁mərasimində	-7558
▁Kal	-7559
▁öy	-7560
▁Qı	-7561
irov	-7562
▁sair	-7563
▁miqyasında	-7564
▁proqramları	-7565
▁deyim	-7566
▁hektar	-7567
verdiyev	-7568
Av	-7569
▁filologiya	-7570
han	-7571
▁yaradılmasına	-7572
75	-7573
▁qanuni	-7574
cy	-7575
▁13-	-7576
▁siyasətini	-7577
▁İy	-7578
▁istək	-7579
▁dediyi	-7580
▁işgüzar	-7581
▁binası	-7582
▁qərarlar	-7583
əssüf	-7584
▁ölkələrdən	-7585
▁etməkdə	-7586
▁kanal	-7587
▁ardınca	-7588
▁yazıçısı	-7589
had	-7590
lul	-7591
▁qüvvələrinin	-7592
▁Ter	-7593
▁geos	-7594
əcəklər	-7595
▁nor	-7596
▁mol	-7597
▁hövz	-7598
landiya	-7599
▁Cabbar	-7600
▁nəql	-7601
▁Her	-7602
▁köl	-7603
mışam	-7604
▁Günü	-7605
▁müstəqilliyinin	-7606
▁polkovnik	-7607
▁şöhrət	-7608
▁sərəncamı	-7609
▁oke	-7610
eşə	-7611
▁‘	-7612
▁əməli	-7613
▁ordeni	-7614
▁Allahın	-7615
▁təhlili	-7616
▁dünyası	-7617
▁bazasının	-7618
▁formasında	-7619
▁əməkdaşlığa	-7620
▁Cəmiyyətinin	-7621
əccüb	-7622
▁reklam	-7623
▁arxeoloji	-7624
▁ildir	-7625
▁dedikdə	-7626
▁pop	-7627
sələr	-7628
▁ibtidai	-7629
▁olunmasında	-7630
▁tapır	-7631
▁Ukrayn	-7632
▁məlumdur	-7633
etin	-7634
▁Bəxtiyar	-7635
▁Ankar	-7636
▁Mehdiyev	-7637
uşu	-7638
▁yüzlərlə	-7639
▁eşq	-7640
▁şif	-7641
▁foto	-7642
▁enerjisi	-7643
▁tədbirdə	-7644
çuluq	-7645
iliyinin	-7646
▁vaxtdan	-7647
rid	-7648
▁Axı	-7649
▁açır	-7650
▁etməliyik	-7651
rad	-7652
prezidenti	-7653
▁əhəmiyyətə	-7654
eae	-7655
vəti	-7656
▁Musa	-7657
▁müda	-7658
▁Doğru	-7659
▁Abdulla	-7660
▁ittiham	-7661
▁etibarilə	-7662
▁Mətbu	-7663
▁dayanır	-7664
▁500	-7665
▁qüvvədə	-7666
metr	-7667
▁varsa	-7668
▁vermir	-7669
▁dəstəsi	-7670
uzə	-7671
▁Var	-7672
▁alqış	-7673
▁artırmaq	-7674
▁Heyətinin	-7675
▁2.1.	-7676
▁olanlar	-7677
▁miş	-7678
▁qum	-7679
▁həft	-7680
▁dəhliz	-7681
▁sərnişin	-7682
▁Yeri	-7683
▁zorakı	-7684
▁3.1	-7685
▁1995-	-7686
▁memar	-7687
▁46	-7688
▁11-	-7689
▁Məz	-7690
▁elminin	-7691
▁Bi	-7692
▁Nəqliyyat	-7693
▁başladılar	-7694
▁Komissiyası	-7695
razı	-7696
tərəm	-7697
ambıq	-7698
ranzit	-7699
▁artist	-7700
▁əmlakın	-7701
▁vaxtlarda	-7702
▁Stan	-7703
▁yoluna	-7704
▁sonsuz	-7705
▁keçirilməsini	-7706
▁Ot	-7707
▁dildə	-7708
▁görüşdə	-7709
▁yazılan	-7710
▁görüşlər	-7711
▁olduqları	-7712
▁mübarizədə	-7713
▁9,	-7714
▁Sol	-7715
əyiş	-7716
▁maksimum	-7717
▁müntəzəm	-7718
vari	-7719
▁Rəssam	-7720
▁məzmunu	-7721
▁hissəsinə	-7722
ulla	-7723
▁konstruksiy	-7724
▁marşr	-7725
▁qismi	-7726
hum	-7727
▁dönəm	-7728
▁verməsi	-7729
▁bitkilər	-7730
▁gərginlik	-7731
▁kəsin	-7732
▁redaktor	-7733
▁ruhu	-7734
▁konsul	-7735
▁çalışırdı	-7736
▁qaydası	-7737
▁tərəqqi	-7738
▁proseslər	-7739
▁təşkilatının	-7740
▁Qeyri	-7741
qanun	-7742
▁XVIII	-7743
▁getmək	-7744
▁olmadığını	-7745
▁qadınların	-7746
▁Zaqafqaz	-7747
ren	-7748
▁bura	-7749
▁Xidməti	-7750
KS	-7751
iyyətlər	-7752
▁qazıntı	-7753
▁əvəzsiz	-7754
▁sada	-7755
▁Assosi	-7756
▁mövsüm	-7757
▁sözünü	-7758
▁mövzusu	-7759
ndə	-7760
▁xidmətə	-7761
▁işçilərinin	-7762
▁heyrət	-7763
▁fonunda	-7764
▁qurultay	-7765
ağır	-7766
▁rin	-7767
▁bəlli	-7768
▁Vaxt	-7769
▁Azer	-7770
▁Eldar	-7771
▁kəndin	-7772
▁görürük	-7773
▁mötəbər	-7774
gö	-7775
▁Bür	-7776
mələrinin	-7777
▁məqsədləri	-7778
▁qədəm	-7779
▁avtomat	-7780
▁zamanlar	-7781
▁maraqla	-7782
▁hissələri	-7783
▁aspekt	-7784
▁həvalə	-7785
▁tələbi	-7786
əfəkk	-7787
▁əriz	-7788
▁UNESCO	-7789
▁görülmüşdür	-7790
▁Hava	-7791
▁dial	-7792
▁rəhbərliyinin	-7793
▁per	-7794
▁çıxarır	-7795
▁gət	-7796
▁cinayətkar	-7797
görən	-7798
luğuna	-7799
ila	-7800
▁işçisi	-7801
▁18-	-7802
mdan	-7803
▁ağz	-7804
▁dollar	-7805
▁rayonda	-7806
▁konstitus	-7807
▁çatdırmaq	-7808
▁ortaq	-7809
▁qaydalarını	-7810
▁Sədr	-7811
qı	-7812
əbib	-7813
▁ziyan	-7814
▁Yüksək	-7815
▁dəhşətli	-7816
lədi	-7817
▁SƏRƏNCAMI	-7818
sevər	-7819
▁təxrib	-7820
tədqiqat	-7821
▁qu	-7822
▁kir	-7823
aktiv	-7824
20-	-7825
qat	-7826
▁Nikol	-7827
Ab	-7828
qu	-7829
▁Abşeron	-7830
▁çöl	-7831
▁şir	-7832
▁baza	-7833
▁işğalı	-7834
▁çətindir	-7835
Mü	-7836
▁be	-7837
▁Tələb	-7838
▁ağa	-7839
▁yada	-7840
▁1997-	-7841
▁Akademiyası	-7842
otek	-7843
▁bölgəsində	-7844
mırdı	-7845
▁qərarına	-7846
▁növbəsində	-7847
▁Assambley	-7848
▁Mərkəzində	-7849
.3	-7850
▁planlaşdır	-7851
▁narazı	-7852
▁bilmədi	-7853
▁Xüsusilə	-7854
şərq	-7855
▁açan	-7856
▁döyüşlərdə	-7857
▁Tehran	-7858
▁şahid	-7859
▁Hindistan	-7860
▁Qanunu	-7861
▁Ox	-7862
işir	-7863
▁buz	-7864
▁vurğulan	-7865
▁başı	-7866
▁barış	-7867
▁əd	-7868
▁genişlən	-7869
▁hüququna	-7870
▁salmaq	-7871
▁Vətəndaş	-7872
▁baxılması	-7873
▁təkliflərini	-7874
▁seçim	-7875
▁dolğun	-7876
▁dünyanı	-7877
▁ömrünün	-7878
▁tim	-7879
namənin	-7880
▁Konqres	-7881
▁hazırlayıb	-7882
odal	-7883
▁xatirə	-7884
▁sənayesi	-7885
▁qadir	-7886
▁texnika	-7887
ıra	-7888
▁gil	-7889
▁Sadıq	-7890
▁abidələri	-7891
▁gözləri	-7892
iləcək	-7893
▁siyahısı	-7894
▁RESPUBLİKASININ	-7895
▁taxıl	-7896
his	-7897
▁alternativ	-7898
AH	-7899
▁öt	-7900
▁sahəyə	-7901
▁kitabında	-7902
ırı	-7903
▁27-	-7904
▁yubileyi	-7905
▁gəldikdə	-7906
▁İnstitutunda	-7907
▁subhesablarının	-7908
yol	-7909
▁Bələd	-7910
▁işlənib	-7911
▁redaksiya	-7912
xi	-7913
▁erkən	-7914
▁42	-7915
ökumət	-7916
▁etimad	-7917
▁hazırlanan	-7918
buki	-7919
▁görüşü	-7920
▁yaradıcılığının	-7921
▁gözü	-7922
▁adlan	-7923
▁kimya	-7924
hər	-7925
▁buraya	-7926
▁iqlim	-7927
bari	-7928
▁şəhadət	-7929
gu	-7930
▁naz	-7931
▁yollar	-7932
▁sonu	-7933
▁hüququn	-7934
▁nəğ	-7935
▁dördüncü	-7936
▁təsirini	-7937
▁vicdan	-7938
▁*2.*3.*4.*5.*6	-7939
dəniz	-7940
ümlü	-7941
▁etsinlər	-7942
uru	-7943
▁verirlər	-7944
▁əmtə	-7945
▁kəşfiyyat	-7946
ƏL	-7947
ulmaz	-7948
▁Qrup	-7949
▁Qüvvələrinin	-7950
mənalı	-7951
umda	-7952
▁çəkilmiş	-7953
▁estetik	-7954
▁yam	-7955
▁Şair	-7956
▁çəkib	-7957
▁halında	-7958
ZİR	-7959
▁gəlirdi	-7960
LƏRİ	-7961
▁Qaydaları	-7962
ilməsindən	-7963
▁aparılmış	-7964
▁uca	-7965
mirdi	-7966
▁taxt	-7967
▁kəndinin	-7968
▁gələcəyi	-7969
▁layiqincə	-7970
gü	-7971
▁oğlunun	-7972
▁hi	-7973
▁Şimal	-7974
▁det	-7975
▁cüml	-7976
▁kamer	-7977
▁istiqamətləri	-7978
əyinə	-7979
ssar	-7980
▁cis	-7981
▁öhdəs	-7982
▁gəlmişkən	-7983
▁görülür	-7984
▁sabitlik	-7985
▁şəhərinə	-7986
▁yaradıldı	-7987
▁vəzifələrin	-7988
rov	-7989
atan	-7990
▁Teatrının	-7991
did	-7992
ingiz	-7993
▁Vladim	-7994
səyə	-7995
▁150	-7996
▁sizi	-7997
▁saxlanması	-7998
▁formalaşmasında	-7999
▁etdiyim	-8000
▁müəssisələrin	-8001
45	-8002
▁Tibb	-8003
▁mayın	-8004
▁işləyir	-8005
▁yaralan	-8006
▁İbrahimov	-8007
▁qrunt	-8008
▁İsmayılov	-8009
▁mühasir	-8010
▁Bolq	-8011
▁Dost	-8012
▁məharət	-8013
▁qismində	-8014
▁salınması	-8015
▁vs	-8016
▁Mart	-8017
▁NAZİR	-8018
ərik	-8019
▁planı	-8020
▁xalqımız	-8021
▁Görüşdə	-8022
▁Əhmədov	-8023
ont	-8024
matik	-8025
▁xərclər	-8026
▁çayının	-8027
▁fənn	-8028
asar	-8029
▁təp	-8030
essor	-8031
▁məsci	-8032
▁yayın	-8033
▁Sadə	-8034
ləşdirmək	-8035
Ax	-8036
▁Fondun	-8037
▁nax	-8038
ədəki	-8039
▁London	-8040
▁ii	-8041
casına	-8042
dırlar	-8043
dığından	-8044
▁amansız	-8045
▁müf	-8046
▁kütl	-8047
ulması	-8048
Qarabağ	-8049
▁Ermənistana	-8050
▁məntiq	-8051
▁ənənələri	-8052
▁olma	-8053
undament	-8054
▁istəyirdi	-8055
▁yaxınlarda	-8056
▁Ham	-8057
▁Müv	-8058
▁seçilmiş	-8059
▁əlaqəli	-8060
99	-8061
ilsiz	-8062
▁Yaxşı	-8063
vətən	-8064
▁Nəhayət	-8065
ruh	-8066
▁bilirdi	-8067
imdən	-8068
▁diaq	-8069
▁Laçın	-8070
▁oxuyur	-8071
erv	-8072
iyər	-8073
▁separ	-8074
▁məzar	-8075
lərimizə	-8076
▁mərhələ	-8077
▁minimum	-8078
ann	-8079
▁pad	-8080
▁Görün	-8081
▁olunmuşdu	-8082
Ağ	-8083
▁47	-8084
▁Ast	-8085
▁Nor	-8086
▁böyü	-8087
AŞ	-8088
▁sön	-8089
▁prokuror	-8090
▁Möh	-8091
▁faktlar	-8092
Heydər	-8093
▁Təsadüfi	-8094
▁standartlara	-8095
▁oradan	-8096
▁komissiyasının	-8097
▁Nəzər	-8098
asiyaya	-8099
dırılmış	-8100
▁55	-8101
▁mak	-8102
▁başında	-8103
▁1.1	-8104
▁Park	-8105
▁təmas	-8106
▁məktəbində	-8107
▁keçirilməsində	-8108
▁bilin	-8109
▁texnologiyaları	-8110
adam	-8111
▁missiy	-8112
ins	-8113
▁Səd	-8114
oks	-8115
duğunu	-8116
▁yaşına	-8117
▁Məcəlləsində	-8118
tion	-8119
▁Təəssüf	-8120
▁mineral	-8121
▁təəccüb	-8122
▁yanvarın	-8123
▁liman	-8124
▁hazırkı	-8125
▁sistemli	-8126
▁dəyərlərin	-8127
▁Mehdi	-8128
▁məcmu	-8129
▁obrazı	-8130
▁qayğısı	-8131
▁kompleksi	-8132
▁uzaqgörən	-8133
▁müzakirələr	-8134
AQ	-8135
çə	-8136
tmaq	-8137
▁şöbəsi	-8138
▁seçilməsi	-8139
ğının	-8140
ğından	-8141
▁Türkiyəyə	-8142
▁çevrilməsi	-8143
▁1.2.	-8144
▁islahat	-8145
▁gal	-8146
▁torpağın	-8147
gedən	-8148
▁Yerli	-8149
▁olunmur	-8150
OL	-8151
uri	-8152
▁17-	-8153
▁kab	-8154
▁örnək	-8155
çox	-8156
ləşən	-8157
▁qəd	-8158
▁Vahid	-8159
▁şəxsə	-8160
▁Dövlətin	-8161
▁bəziləri	-8162
aft	-8163
əlsəf	-8164
▁bioloji	-8165
▁kadrların	-8166
▁Bəy	-8167
ləyici	-8168
▁telek	-8169
▁Əsasnamə	-8170
▁Belarus	-8171
▁çır	-8172
▁sonuna	-8173
▁icrasını	-8174
▁xarakteri	-8175
▁adının	-8176
▁başlandı	-8177
▁hüququnun	-8178
endum	-8179
▁təsbit	-8180
▁məbləğdə	-8181
▁Xaç	-8182
▁dekabrın	-8183
▁Televiz	-8184
▁Fransanın	-8185
▁lirik	-8186
▁kub	-8187
▁Nəsimi	-8188
▁Həmi	-8189
▁məlumata	-8190
▁balaca	-8191
▁yaradılır	-8192
▁bayrağı	-8193
▁aktların	-8194
▁Adil	-8195
▁zərbə	-8196
▁alimlər	-8197
▁deb	-8198
▁insana	-8199
larımıza	-8200
▁Mikayıl	-8201
▁quruluşu	-8202
▁olarsa	-8203
▁seminar	-8204
▁Ordusunun	-8205
sn	-8206
▁sevindir	-8207
tmək	-8208
▁kər	-8209
təhsil	-8210
▁dayaq	-8211
ılmasını	-8212
antik	-8213
▁Nəsr	-8214
▁sosi	-8215
▁Leyla	-8216
▁ehtiva	-8217
▁təşəkkül	-8218
▁Mür	-8219
▁rəsmil	-8220
▁56	-8221
▁çeş	-8222
▁zamanın	-8223
▁toq	-8224
▁niyyət	-8225
▁10.	-8226
▁Xəst	-8227
▁yerlərində	-8228
etri	-8229
▁dəyişir	-8230
▁Məcəllənin	-8231
▁vəziyyətin	-8232
▁alaq	-8233
▁spes	-8234
aydı	-8235
▁sam	-8236
seç	-8237
ənə	-8238
▁etməsinə	-8239
▁çıxışında	-8240
▁oldum	-8241
▁abadlıq	-8242
▁toponim	-8243
▁sözündən	-8244
▁təzə	-8245
▁qurmaq	-8246
▁günləri	-8247
▁keçirdi	-8248
▁kompoz	-8249
▁bildiriş	-8250
XI	-8251
▁gördü	-8252
eterburq	-8253
▁üzündən	-8254
ity	-8255
An	-8256
▁Dan	-8257
▁paltar	-8258
ayiq	-8259
▁25-	-8260
▁70-	-8261
▁gələndə	-8262
▁deyirlər	-8263
▁xadimləri	-8264
▁işçiləri	-8265
▁mütəfəkk	-8266
▁xəbərdar	-8267
yana	-8268
▁xor	-8269
osunun	-8270
umuzun	-8271
▁xəzin	-8272
▁qoşunlarının	-8273
▁Ermənistanda	-8274
İM	-8275
▁lik	-8276
ləndirmə	-8277
▁araşdırma	-8278
aci	-8279
eksiya	-8280
▁fərqlənir	-8281
▁payız	-8282
ƏH	-8283
atma	-8284
▁Vladimir	-8285
▁14-	-8286
▁əhaliyə	-8287
▁ölkələrə	-8288
▁üf	-8289
▁Can	-8290
▁respublikamızda	-8291
▁tranzit	-8292
ovul	-8293
▁gətirdi	-8294
▁Administr	-8295
▁Fə	-8296
▁hesablan	-8297
▁ilham	-8298
▁Cəfərov	-8299
▁şərtləndir	-8300
▁yeniy	-8301
▁çıxarmaq	-8302
▁Mey	-8303
▁aprelin	-8304
▁Sor	-8305
▁Cavan	-8306
▁məskunlaş	-8307
▁məzmunda	-8308
▁fevralın	-8309
▁xəyan	-8310
▁Çingiz	-8311
▁dəyərlər	-8312
▁ərazisindən	-8313
▁işləyib	-8314
▁vətəndaşları	-8315
ƏSİ	-8316
▁guş	-8317
▁mərkəzləri	-8318
▁Ap	-8319
▁Müsəlman	-8320
▁avi	-8321
▁şöbə	-8322
▁Hərək	-8323
kərdə	-8324
▁məlumatı	-8325
▁işığ	-8326
▁düzən	-8327
düyünü	-8328
▁çoxdan	-8329
▁188	-8330
▁tac	-8331
▁bildi	-8332
▁əsərlərin	-8333
baz	-8334
▁300	-8335
▁İngiltərə	-8336
▁Nazim	-8337
izmə	-8338
▁verərək	-8339
▁işçilərin	-8340
avan	-8341
məsin	-8342
▁beyn	-8343
laya	-8344
▁Yaz	-8345
▁şə	-8346
▁ast	-8347
▁kəmiyyət	-8348
▁irs	-8349
▁Tərəflərin	-8350
▁potensialı	-8351
əyy	-8352
▁əziyyət	-8353
▁işıqlandır	-8354
▁Maq	-8355
▁ind	-8356
▁işlərini	-8357
▁münaqişə	-8358
▁Cəmiyyəti	-8359
öyüş	-8360
▁heyran	-8361
▁Xidmətinin	-8362
▁seyr	-8363
▁təyinatlı	-8364
▁Gürcüstanın	-8365
dəy	-8366
▁lib	-8367
Vətən	-8368
▁yatır	-8369
dəni	-8370
▁Mat	-8371
▁düst	-8372
▁danışmaq	-8373
▁geosiyasi	-8374
rək	-8375
▁bariz	-8376
▁istehsalat	-8377
▁əlifb	-8378
▁Ağayev	-8379
▁qəhrəmanlıq	-8380
ğur	-8381
▁adamın	-8382
▁silsil	-8383
▁həlledici	-8384
rul	-8385
▁Pl	-8386
Şərq	-8387
▁cüt	-8388
▁sül	-8389
▁effekt	-8390
▁85	-8391
▁razılığı	-8392
▁tərbiyəsi	-8393
▁özlərinin	-8394
▁diri	-8395
▁götürür	-8396
▁məhsulların	-8397
▁Nüm	-8398
▁regionun	-8399
ga	-8400
pro	-8401
▁Fu	-8402
▁yoxsa	-8403
▁vəzifəsini	-8404
▁rəsmiləşdir	-8405
▁süj	-8406
illiyin	-8407
▁övladı	-8408
▁çəkmək	-8409
▁hədiyyə	-8410
▁irsinin	-8411
▁şərəfinə	-8412
abi	-8413
▁hökmü	-8414
ülmüşdür	-8415
▁saxlayır	-8416
▁müqavimət	-8417
keç	-8418
çəl	-8419
▁Pər	-8420
▁Çar	-8421
oniya	-8422
▁çoxal	-8423
▁qanunla	-8424
35	-8425
nu	-8426
▁Adı	-8427
▁fundament	-8428
▁bölgələrdə	-8429
adaş	-8430
▁Sin	-8431
biri	-8432
masib	-8433
▁Sonralar	-8434
▁misilsiz	-8435
▁AD	-8436
▁binanın	-8437
eyhan	-8438
▁İdarəsi	-8439
afa	-8440
▁Onlardan	-8441
▁şərtləri	-8442
▁Ticarət	-8443
▁32-	-8444
▁dilin	-8445
▁modeli	-8446
▁anlayışı	-8447
tisas	-8448
▁hökumətin	-8449
▁sfer	-8450
▁Fikrət	-8451
▁fikrini	-8452
▁səyahət	-8453
▁bütövlüyünün	-8454
▁inkar	-8455
dəf	-8456
▁tapmaq	-8457
▁torpağa	-8458
▁vermişdi	-8459
oyunlu	-8460
▁buraxılış	-8461
36	-8462
▁rəmzi	-8463
▁yanlış	-8464
▁atm	-8465
▁artırır	-8466
pək	-8467
ılar	-8468
▁Radi	-8469
asiyaların	-8470
▁qarşıdur	-8471
▁təqdimatı	-8472
▁dənizi	-8473
26	-8474
▁qəsəbəsində	-8475
lasın	-8476
▁uçuş	-8477
▁göstərmiş	-8478
▁№-	-8479
ınca	-8480
31	-8481
▁Əy	-8482
▁amillər	-8483
▁ürəkdən	-8484
▁tərəfində	-8485
▁çevrilmiş	-8486
▁gördüm	-8487
▁məbəd	-8488
▁Sim	-8489
▁nəfəs	-8490
▁düşərg	-8491
].	-8492
▁vacibliyini	-8493
▁əlaqəsi	-8494
▁icrasına	-8495
▁kompozis	-8496
▁qoymuş	-8497
▁olmu	-8498
▁11.	-8499
▁Kən	-8500
▁əli	-8501
istanın	-8502
▁qadının	-8503
▁Nəs	-8504
▁Oruc	-8505
▁kəməri	-8506
▁Vəliyev	-8507
ze	-8508
cuq	-8509
▁Həbib	-8510
▁göstərə	-8511
▁..	-8512
▁23-	-8513
aliya	-8514
▁mühiti	-8515
▁piyada	-8516
▁üstə	-8517
alılar	-8518
sağlığı	-8519
lilərin	-8520
28	-8521
▁maye	-8522
udiy	-8523
▁ərazilərində	-8524
lışı	-8525
▁Zaman	-8526
▁müayinə	-8527
▁pill	-8528
▁person	-8529
▁Əfəndiyev	-8530
▁Növ	-8531
iliyin	-8532
▁danışır	-8533
▁mühasibat	-8534
▁şirkətləri	-8535
27	-8536
▁rit	-8537
▁1996-	-8538
▁Qərarı	-8539
▁təcrid	-8540
▁İranda	-8541
▁ayrılmış	-8542
pərəst	-8543
▁Kompl	-8544
▁açılır	-8545
▁Eks	-8546
▁həllində	-8547
▁ərazilərin	-8548
▁sabah	-8549
▁Le	-8550
▁yey	-8551
▁yetirmək	-8552
▁əlavələr	-8553
İT	-8554
▁diyar	-8555
▁Gəncəvi	-8556
▁minməsi	-8557
▁fürs	-8558
əssüm	-8559
kom	-8560
▁Ruh	-8561
▁Dədə	-8562
▁gümüş	-8563
▁orqanizm	-8564
▁canlandır	-8565
▁göstəriciləri	-8566
▁ehtiyatlarının	-8567
▁Orada	-8568
▁ədəbiyyatşünas	-8569
▁Müəllim	-8570
▁çıxışı	-8571
▁edildikdə	-8572
dab	-8573
▁sığın	-8574
▁pambıq	-8575
▁sərmayə	-8576
▁ədəbiyyatında	-8577
▁vəkil	-8578
▁qarşısına	-8579
▁əvvəlcədən	-8580
▁2021-	-8581
edil	-8582
orativ	-8583
▁İstehsal	-8584
▁qurumun	-8585
▁Tətb	-8586
▁bəyən	-8587
▁əsərlərini	-8588
▁cins	-8589
öhbəti	-8590
ətlərin	-8591
▁mahiyyətini	-8592
▁toz	-8593
▁edim	-8594
amızda	-8595
▁problemin	-8596
▁sel	-8597
▁dərslik	-8598
▁Fərmanının	-8599
▁Mix	-8600
▁keçdiyi	-8601
▁fən	-8602
▁yeraltı	-8603
▁dostu	-8604
▁şirkətinin	-8605
▁qayıdan	-8606
▁Kub	-8607
▁YUN	-8608
▁Dəst	-8609
diklərini	-8610
▁tələbələr	-8611
▁he	-8612
▁uşaqları	-8613
▁Mətbuat	-8614
29	-8615
▁qonş	-8616
▁komitəsinin	-8617
▁Şıx	-8618
eriya	-8619
▁üzünə	-8620
▁sektorunda	-8621
▁açdı	-8622
▁monitorinq	-8623
məmək	-8624
▁sxem	-8625
▁müdir	-8626
▁yarısında	-8627
▁caz	-8628
▁Əfq	-8629
▁Ümumdünya	-8630
afizə	-8631
▁dast	-8632
▁bazası	-8633
▁danışan	-8634
ulur	-8635
▁Tay	-8636
▁haldır	-8637
▁səmim	-8638
tual	-8639
ğına	-8640
əyev	-8641
▁meyar	-8642
▁məruzə	-8643
▁yayılmış	-8644
▁səciyyəvi	-8645
▁xüsusiyyəti	-8646
▁Nəcəf	-8647
▁çıxmaq	-8648
▁gələcəyə	-8649
▁video	-8650
▁deputat	-8651
▁pozuntu	-8652
hazırda	-8653
▁mahiyyət	-8654
▁xarakterik	-8655
▁Sen	-8656
▁tədbirlərinin	-8657
mamaq	-8658
▁qəbil	-8659
▁sənədli	-8660
▁birmənalı	-8661
▁tələbələrin	-8662
▁men	-8663
siyasında	-8664
▁mövcudluğu	-8665
▁hörmətli	-8666
▁potensialının	-8667
▁gələ	-8668
▁arvad	-8669
▁müddətə	-8670
▁saxlanılan	-8671
ibli	-8672
soru	-8673
▁ayrılmaz	-8674
orit	-8675
alığı	-8676
▁imkanlarının	-8677
▁müəssisəsi	-8678
▁yollarının	-8679
gan	-8680
▁Qırmızı	-8681
▁qüvvəsi	-8682
▁Yuxarıda	-8683
▁Federasiyasının	-8684
▁nah	-8685
adıcı	-8686
▁oğuz	-8687
▁qurumları	-8688
to	-8689
dem	-8690
▁pensiya	-8691
▁yaşadıq	-8692
▁dəyişik	-8693
▁idarəet	-8694
▁dayanıqlı	-8695
▁cəzalan	-8696
▁tikilib	-8697
▁Çempion	-8698
▁bo	-8699
▁65	-8700
▁yanacaq	-8701
▁yaranmışdır	-8702
.”	-8703
▁yal	-8704
▁əzəm	-8705
vadrat	-8706
▁taraz	-8707
▁dəyərləri	-8708
▁dünyasını	-8709
▁əsasları	-8710
▁tələbələri	-8711
▁obyektlərinin	-8712
▁möhür	-8713
▁işləmək	-8714
▁aparılıb	-8715
▁İKT	-8716
ləməyə	-8717
▁Kərimov	-8718
aqan	-8719
▁zəfər	-8720
▁əraziləri	-8721
▁yerlərinin	-8722
▁yaranmasına	-8723
lifi	-8724
▁harada	-8725
▁problemlərinin	-8726
qoq	-8727
larm	-8728
▁Röv	-8729
▁bün	-8730
▁doy	-8731
▁mətbəx	-8732
▁pan	-8733
▁siyahıya	-8734
▁tədqiqatçı	-8735
ANI	-8736
qun	-8737
▁düşmənin	-8738
▁?	-8739
usa	-8740
▁sərkərdə	-8741
:19	-8742
▁suyu	-8743
▁oynadı	-8744
▁Vol	-8745
▁parametr	-8746
▁olmas	-8747
▁monoqraf	-8748
▁(“	-8749
▁nur	-8750
▁Lit	-8751
▁tutduğu	-8752
▁yayılması	-8753
▁1988-	-8754
▁turizmin	-8755
▁zəhər	-8756
▁münaqişəsi	-8757
İB	-8758
gey	-8759
▁ədib	-8760
▁yağış	-8761
mağ	-8762
▁evdə	-8763
▁Sonda	-8764
▁qoyan	-8765
▁mənası	-8766
▁deyirəm	-8767
aceae	-8768
▁reji	-8769
ulan	-8770
▁təqib	-8771
▁terrorçu	-8772
▁olk	-8773
▁görünən	-8774
▁pərdə	-8775
▁əlinə	-8776
▁ölkəni	-8777
xur	-8778
▁dos	-8779
▁öhdə	-8780
icilər	-8781
▁mütəxəssislər	-8782
arlı	-8783
otel	-8784
rini	-8785
müs	-8786
▁yazmaq	-8787
▁sk	-8788
▁olmadıqda	-8789
gəç	-8790
▁Soveti	-8791
ıy	-8792
▁məkanında	-8793
qərb	-8794
▁ciz	-8795
▁rədd	-8796
▁Vergi	-8797
▁şeiri	-8798
▁nəfəri	-8799
▁qüdrət	-8800
▁ideyası	-8801
▁təntənəli	-8802
▁Hol	-8803
bəyov	-8804
▁yerin	-8805
müh	-8806
▁Müz	-8807
▁həmsəd	-8808
▁sahilində	-8809
▁ass	-8810
▁Üst	-8811
ua	-8812
Nəriman	-8813
▁evində	-8814
▁Federasiyası	-8815
▁Sah	-8816
▁rəf	-8817
mayacaq	-8818
▁martın	-8819
▁fədakar	-8820
▁əmri	-8821
▁Şirin	-8822
▁Avstriya	-8823
hökumət	-8824
▁ayrılan	-8825
▁İS	-8826
əliyə	-8827
▁neftin	-8828
ow	-8829
▁uçotu	-8830
▁sevgisi	-8831
▁prosesin	-8832
▁hazırlamaq	-8833
▁yarandı	-8834
▁sistemlərinin	-8835
▁from	-8836
▁iqtidar	-8837
alizasiya	-8838
▁Pedaqoji	-8839
bud	-8840
▁16-	-8841
▁Sığ	-8842
▁faş	-8843
▁bəndinin	-8844
▁indiyədək	-8845
▁ikisi	-8846
▁kilsə	-8847
▁Oper	-8848
▁məqalə	-8849
▁Tür	-8850
▁Şübh	-8851
▁başını	-8852
▁torpağı	-8853
ğal	-8854
▁VI	-8855
▁Səhmdar	-8856
▁işlədil	-8857
pg	-8858
idin	-8859
lana	-8860
▁süd	-8861
▁kral	-8862
▁silin	-8863
▁olduqlarını	-8864
▁Araşdır	-8865
miqyaslı	-8866
▁məsələlərdən	-8867
ütlə	-8868
▁Ana	-8869
▁QƏRARI	-8870
▁istintaq	-8871
▁hazırlığı	-8872
usi	-8873
▁tədqiqi	-8874
▁bilmirəm	-8875
▁layihələrinin	-8876
▁komandir	-8877
▁tarixdən	-8878
▁26-	-8879
▁prosesləri	-8880
▁Məhkəmə	-8881
▁doq	-8882
▁Hakimiyyətinin	-8883
▁IS	-8884
imizdən	-8885
▁yönəlmiş	-8886
rli	-8887
▁000	-8888
▁sənədin	-8889
▁fundamental	-8890
▁qəribə	-8891
▁bağç	-8892
▁Aprel	-8893
▁Maraq	-8894
▁uğursuz	-8895
▁Memorandum	-8896
▁orden	-8897
▁cərimə	-8898
▁çatdırıb	-8899
ərli	-8900
▁şahın	-8901
▁Gəncədə	-8902
▁Bat	-8903
▁imp	-8904
▁həyatına	-8905
▁sürətləndir	-8906
▁torpaqlarının	-8907
▁kimsə	-8908
▁regionların	-8909
doğ	-8910
▁sahəsinə	-8911
▁1.3.	-8912
▁iqtisad	-8913
▁bilməzdi	-8914
▁ədəbiyyatın	-8915
▁59	-8916
▁Res	-8917
▁gəldiyi	-8918
▁spesifik	-8919
▁yaradıcılığına	-8920
▁qeydiyyatı	-8921
şək	-8922
▁VII	-8923
▁gözləy	-8924
▁operativ	-8925
ümə	-8926
uculuq	-8927
▁qarşıda	-8928
▁formaları	-8929
▁sənayesinin	-8930
▁Əraz	-8931
▁aşağıda	-8932
▁kommersiya	-8933
▁Bərdə	-8934
▁Polşa	-8935
▁rejimi	-8936
▁kənddə	-8937
▁hissədə	-8938
▁Millətlər	-8939
▁maraqları	-8940
▁54	-8941
▁gora	-8942
▁ork	-8943
luğunda	-8944
▁borclu	-8945
▁suvarma	-8946
▁qoymaq	-8947
▁üzvi	-8948
▁riyaziyyat	-8949
▁hör	-8950
▁Mənə	-8951
▁elədi	-8952
▁qəhrəmanı	-8953
test	-8954
▁maaş	-8955
▁açılışı	-8956
▁kitabları	-8957
Azərbaycanın	-8958
▁demokratiya	-8959
▁olublar	-8960
▁gəlirlər	-8961
▁Özbəkistan	-8962
urt	-8963
▁gah	-8964
▁atılan	-8965
▁Təhmasib	-8966
▁dövrünə	-8967
düş	-8968
lini	-8969
▁187	-8970
ətənin	-8971
▁meyil	-8972
▁Qay	-8973
▁örtük	-8974
▁nəfərdən	-8975
▁müəssisənin	-8976
▁oxuc	-8977
ÜN	-8978
▁zar	-8979
▁şax	-8980
▁tədbirin	-8981
İD	-8982
verdi	-8983
▁staj	-8984
xilə	-8985
▁nüv	-8986
▁yuy	-8987
▁Sist	-8988
▁təşkilati	-8989
▁Qap	-8990
▁mindən	-8991
▁töhfələr	-8992
▁vəziyyətini	-8993
oteka	-8994
▁tərəfə	-8995
▁maddəsi	-8996
▁uğurları	-8997
▁rayonlarında	-8998
▁Ch	-8999
▁artan	-9000
▁müştər	-9001
▁gələrək	-9002
ırdım	-9003
▁qılınc	-9004
▁danışıb	-9005
▁XXI	-9006
▁rektoru	-9007
alari	-9008
▁çörək	-9009
▁Rumın	-9010
▁Həqiq	-9011
▁çıxması	-9012
▁durur	-9013
▁nədir	-9014
bax	-9015
▁58	-9016
▁süq	-9017
▁sinf	-9018
▁kvadrat	-9019
anm	-9020
oya	-9021
▁Sərhəd	-9022
▁qox	-9023
▁doğurur	-9024
▁aktris	-9025
▁ayrılır	-9026
▁Müqəddəs	-9027
linik	-9028
rinin	-9029
▁fərd	-9030
məliyik	-9031
▁böhr	-9032
▁Qəbələ	-9033
▁inkişafa	-9034
▁arzusu	-9035
▁inandır	-9036
▁tanınır	-9037
▁Ölkəmizdə	-9038
▁Fiz	-9039
▁zal	-9040
▁günlər	-9041
▁gözləyir	-9042
▁əsaslanır	-9043
▁doğuran	-9044
▁mərkəzinə	-9045
▁qoyulması	-9046
▁şəxsiyyətin	-9047
igar	-9048
▁müəssisəsinin	-9049
▁etmi	-9050
▁ünvanı	-9051
qin	-9052
▁dib	-9053
▁turn	-9054
▁iyulun	-9055
▁Qaç	-9056
▁çalışmışdır	-9057
ılaraq	-9058
▁əsaslandır	-9059
▁şagirdlərin	-9060
mişdilər	-9061
uzun	-9062
▁itk	-9063
▁filmin	-9064
▁toqquş	-9065
səm	-9066
▁Ək	-9067
▁Açıq	-9068
▁Sp	-9069
▁Don	-9070
▁Rob	-9071
▁sintez	-9072
▁qonaqlar	-9073
▁alınmışdır	-9074
əlayiq	-9075
▁salır	-9076
aza	-9077
məmişdir	-9078
▁abidəsi	-9079
▁bölüşdür	-9080
▁vəkili	-9081
▁səbəbindən	-9082
▁bölgələrində	-9083
ula	-9084
ƏTİ	-9085
▁3.1.	-9086
▁gətirmək	-9087
Hər	-9088
▁Yas	-9089
▁eləy	-9090
▁no	-9091
▁ağl	-9092
▁miqyasda	-9093
▁çəkilir	-9094
▁Liq	-9095
▁məmlək	-9096
bal	-9097
nost	-9098
kənar	-9099
ologiyasının	-9100
▁dəstə	-9101
▁köməy	-9102
▁çatan	-9103
▁oxumaq	-9104
▁ictimaiyyət	-9105
▁siqn	-9106
məramlı	-9107
▁qəzetində	-9108
▁məsuliyyəti	-9109
▁tədbirlərdə	-9110
▁Ener	-9111
▁Fəal	-9112
▁ilədək	-9113
▁dəyişən	-9114
▁müşavir	-9115
▁Port	-9116
▁Füzul	-9117
▁torpaqlar	-9118
▁heyət	-9119
▁keçərək	-9120
▁Rəşid	-9121
▁sultan	-9122
▁idarəsi	-9123
▁Cəmiyyətin	-9124
umer	-9125
istlər	-9126
▁rəhmət	-9127
▁biitiin	-9128
▁yadda	-9129
▁götürül	-9130
▁illərdən	-9131
▁məktəblərdə	-9132
▁xidmətlərinə	-9133
çusu	-9134
▁olim	-9135
▁həsrət	-9136
▁məskən	-9137
▁Şuşada	-9138
▁sözünün	-9139
▁rəss	-9140
▁xanı	-9141
▁əsirg	-9142
▁Abbasov	-9143
▁xatırlay	-9144
▁Əbu	-9145
▁Anadolu	-9146
▁müharibəsinin	-9147
po	-9148
ahab	-9149
▁Ordusu	-9150
▁Qüvvələri	-9151
▁Ümid	-9152
▁Məsəl	-9153
▁təhdid	-9154
▁şəhərə	-9155
▁göstərməyə	-9156
▁edin	-9157
▁qaldırmaq	-9158
▁Ra	-9159
▁vüs	-9160
▁geyin	-9161
▁rəngarəng	-9162
▁ərazisinin	-9163
isə	-9164
▁nov	-9165
▁Əbdül	-9166
▁nöqsan	-9167
▁böyükdür	-9168
▁vərdiş	-9169
▁məhsulu	-9170
▁sonlarında	-9171
kəs	-9172
▁yas	-9173
▁qırğın	-9174
edaqoq	-9175
lamağa	-9176
traf	-9177
▁lan	-9178
▁işarə	-9179
▁Təq	-9180
▁Yev	-9181
▁çatdı	-9182
▁mədəniyyətinə	-9183
▁Rəşad	-9184
▁həddi	-9185
▁dəyişdirilməsi	-9186
▁Çex	-9187
▁Tovuz	-9188
▁Agentliyi	-9189
37	-9190
üca	-9191
▁zək	-9192
▁əmi	-9193
▁ikən	-9194
▁qeydiyyata	-9195
▁cəza	-9196
▁nifrət	-9197
▁kitabda	-9198
▁albom	-9199
▁doğrusu	-9200
ləĢ	-9201
▁Ki	-9202
▁qarĢı	-9203
▁tikilmiş	-9204
ƏK	-9205
sınlar	-9206
▁ağsaqq	-9207
▁professoru	-9208
aqil	-9209
▁Ömər	-9210
▁marşrut	-9211
▁araşdırıl	-9212
▁lı	-9213
ruktiv	-9214
▁əsgəri	-9215
lamışdır	-9216
▁Görkəmli	-9217
▁Qarşı	-9218
ilməli	-9219
▁saxlanıl	-9220
▁şəxsləri	-9221
▁mühitinin	-9222
▁yüksəldilməsi	-9223
əzi	-9224
ovla	-9225
▁Ordub	-9226
▁külək	-9227
▁Halbuki	-9228
▁Yenə	-9229
▁abad	-9230
▁anda	-9231
▁orqanlarına	-9232
yub	-9233
▁Strat	-9234
▁Hökumət	-9235
▁dəyərlərə	-9236
▁prosesinə	-9237
▁alban	-9238
▁şəraitin	-9239
▁Fa	-9240
▁vəd	-9241
▁dəstələri	-9242
▁yaratmağa	-9243
▁qurğuların	-9244
▁evə	-9245
▁imzası	-9246
▁profil	-9247
▁quldur	-9248
▁çəkiliş	-9249
adağ	-9250
mişik	-9251
▁İmam	-9252
▁həftə	-9253
▁ömrü	-9254
▁tö	-9255
▁Sür	-9256
▁dünyəvi	-9257
▁Ermənilər	-9258
▁Statistika	-9259
sak	-9260
▁start	-9261
▁illəri	-9262
▁verdiyini	-9263
sinlər	-9264
▁bizdə	-9265
obu	-9266
tarix	-9267
▁incə	-9268
issoru	-9269
▁Regional	-9270
hq	-9271
oslav	-9272
▁iyirmi	-9273
▁sevən	-9274
▁dirçəl	-9275
▁bəhrələn	-9276
İYA	-9277
▁çı	-9278
əydi	-9279
karlar	-9280
eksik	-9281
▁olmuşlar	-9282
▁çatdırdı	-9283
▁sağlamlıq	-9284
aşıq	-9285
▁tutulub	-9286
▁57	-9287
▁qit	-9288
eziya	-9289
▁çağdaş	-9290
iyyati	-9291
▁gözəllik	-9292
▁qalmışdır	-9293
▁təklifi	-9294
▁manatdan	-9295
▁vəziyyətinə	-9296
▁çər	-9297
▁göv	-9298
zaman	-9299
▁refer	-9300
▁günlük	-9301
▁imkanlarını	-9302
yak	-9303
▁yadı	-9304
▁Natiq	-9305
▁İsrail	-9306
▁bunlara	-9307
▁Göründüyü	-9308
▁Teatrında	-9309
▁imzaladığı	-9310
▁siyasətinə	-9311
rd	-9312
▁şifahi	-9313
▁əyalət	-9314
ain	-9315
▁funk	-9316
▁bayraq	-9317
▁Ədalət	-9318
▁boz	-9319
▁bilirəm	-9320
▁Ölkədə	-9321
▁sözlərindən	-9322
oper	-9323
▁28-	-9324
▁Vas	-9325
▁çevik	-9326
▁birdən	-9327
▁YUNESKO	-9328
▁Avropaya	-9329
▁doqquz	-9330
▁yazılır	-9331
▁binasının	-9332
▁çalışıb	-9333
▁başlanan	-9334
▁büdcəsinin	-9335
▁hərf	-9336
▁ansam	-9337
▁məhəllə	-9338
▁qaydasında	-9339
▁Qırğ	-9340
▁istəyi	-9341
▁Kəlbəcər	-9342
▁Fil	-9343
Cənub	-9344
▁Mingəç	-9345
laşdırır	-9346
▁gəlmişdi	-9347
▁tabeliyində	-9348
▁kəsə	-9349
▁edildikdən	-9350
▁səlahiyyətləri	-9351
qir	-9352
asmda	-9353
lanın	-9354
▁mərd	-9355
▁koordin	-9356
▁fasiləsiz	-9357
▁60-	-9358
▁naxış	-9359
▁həqiqəti	-9360
▁Professor	-9361
▁Demokratik	-9362
▁şəraitinin	-9363
emat	-9364
▁araya	-9365
▁sülal	-9366
▁Qasımov	-9367
▁etmak	-9368
▁final	-9369
▁praktiki	-9370
▁prinsiplərinə	-9371
)”	-9372
AK	-9373
▁İrəv	-9374
▁baxır	-9375
▁ixtiyar	-9376
▁hesablanması	-9377
▁49	-9378
▁üzünü	-9379
▁Fərhad	-9380
▁Koreya	-9381
ləşdirir	-9382
▁Texniki	-9383
▁prosesini	-9384
▁Almaniyanın	-9385
cr	-9386
▁fen	-9387
▁yaşayıb	-9388
▁qazandığı	-9389
▁Fuad	-9390
lüyünü	-9391
▁qəzəb	-9392
▁dialekt	-9393
tl	-9394
▁meyvə	-9395
▁hörmətlə	-9396
▁nəzəriyyəsi	-9397
▁azərbaycançılıq	-9398
▁2.7	-9399
▁indiyə	-9400
▁<	-9401
vay	-9402
▁icraçı	-9403
▁Qarabağa	-9404
ye	-9405
▁bitirib	-9406
▁nəsi	-9407
Hüseyn	-9408
▁daşnak	-9409
▁görünüş	-9410
quluz	-9411
▁faktı	-9412
▁əməyi	-9413
▁Məhkəməsi	-9414
abı	-9415
dun	-9416
▁(1	-9417
▁təzahürü	-9418
▁özlərinə	-9419
▁tapa	-9420
▁ailənin	-9421
▁hamısını	-9422
▁1919-	-9423
▁onlarda	-9424
▁dövrə	-9425
▁Qo	-9426
anları	-9427
▁diş	-9428
▁ləri	-9429
axçıvan	-9430
asiyasına	-9431
ms	-9432
▁çıxarı	-9433
▁50-	-9434
▁gəliş	-9435
ifikasiya	-9436
ARİ	-9437
▁süf	-9438
əsindəki	-9439
▁hazırlanmasında	-9440
▁Sağ	-9441
▁XVI	-9442
▁mehman	-9443
▁mədəniyyətini	-9444
33	-9445
ürdü	-9446
▁pillə	-9447
siyaları	-9448
▁А	-9449
▁qazanmış	-9450
▁sahibkarlığın	-9451
▁inanc	-9452
▁vurub	-9453
▁sabitliyin	-9454
▁yerdən	-9455
▁Bülbül	-9456
▁komandiri	-9457
▁keçirilməsinin	-9458
▁Özü	-9459
▁rəssamı	-9460
olor	-9461
rika	-9462
▁rad	-9463
▁qazın	-9464
▁quraşdır	-9465
▁xidmətlərinin	-9466
deh	-9467
Gənc	-9468
salar	-9469
VI	-9470
▁90-	-9471
▁tic	-9472
duqdan	-9473
▁alması	-9474
▁feodal	-9475
▁prinsipial	-9476
▁Ul	-9477
▁turş	-9478
▁nisbət	-9479
▁kitabının	-9480
▁pap	-9481
▁alov	-9482
▁keçməsi	-9483
▁tərəfin	-9484
▁Əvvəlcə	-9485
▁etməkdir	-9486
ecər	-9487
atürk	-9488
▁Söhbət	-9489
▁artmasına	-9490
asət	-9491
luqla	-9492
sızlıq	-9493
▁etdirdi	-9494
▁görülməsi	-9495
▁səbəbləri	-9496
▁hazırlanır	-9497
▁məsələsinə	-9498
UL	-9499
▁obyektlərin	-9500
▁fiq	-9501
asıdır	-9502
▁Zaqat	-9503
▁bölünür	-9504
▁namizədi	-9505
işt	-9506
piada	-9507
▁tarixindən	-9508
▁Paşayev	-9509
▁istəyirik	-9510
▁sök	-9511
▁qaçır	-9512
▁Zərifə	-9513
▁Kommunist	-9514
▁məqalələr	-9515
▁çalışırlar	-9516
▁məktəblərin	-9517
▁kas	-9518
▁alimi	-9519
▁xəbəri	-9520
▁keçirib	-9521
▁teatrın	-9522
▁ixtisası	-9523
miĢdir	-9524
▁Palat	-9525
▁yaşan	-9526
▁çatır	-9527
iis	-9528
dəmir	-9529
▁təcili	-9530
alaraq	-9531
▁Oktyabr	-9532
▁gətirdiyi	-9533
����	-9534
▁hesabın	-9535
▁qurumların	-9536
.12	-9537
▁Müəyyən	-9538
▁sük	-9539
▁ünsür	-9540
▁korrup	-9541
▁müdaxilə	-9542
ureatı	-9543
▁2022-	-9544
▁proqramlar	-9545
▁optimal	-9546
▁təbiəti	-9547
▁xatırlat	-9548
▁edilməklə	-9549
▁iiz	-9550
▁Tağıyev	-9551
▁yayılmışdır	-9552
▁məsələdir	-9553
▁Pay	-9554
başına	-9555
idarə	-9556
▁müəllimlər	-9557
▁azadlıqlarının	-9558
obel	-9559
▁alınıb	-9560
.0	-9561
▁regionlarda	-9562
▁etsə	-9563
▁ölkəsi	-9564
▁türklərin	-9565
ilərdən	-9566
▁olunma	-9567
▁gəlinir	-9568
lərindəki	-9569
▁bilirlər	-9570
İYY	-9571
▁faal	-9572
▁payı	-9573
Kor	-9574
dov	-9575
orasiya	-9576
▁halları	-9577
▁xanəndə	-9578
biya	-9579
▁Soy	-9580
▁qəza	-9581
▁Katib	-9582
▁əməliyyatlar	-9583
▁süjet	-9584
▁intizam	-9585
▁təəssürat	-9586
▁maraqlıdır	-9587
th	-9588
şax	-9589
▁Həş	-9590
▁geni	-9591
▁İnan	-9592
▁edəcəyik	-9593
▁yenidənqurma	-9594
▁hesabı	-9595
▁qazanıb	-9596
▁musiqisi	-9597
▁qurumlar	-9598
əzz	-9599
▁Bey	-9600
▁tank	-9601
▁zənc	-9602
▁növlərinin	-9603
▁Bər	-9604
▁Rusiyaya	-9605
ünüz	-9606
▁həkk	-9607
▁sevimli	-9608
əcəb	-9609
məmməd	-9610
▁mühakim	-9611
▁qaydalarına	-9612
▁idmançı	-9613
▁avqustun	-9614
▁olmasından	-9615
sığ	-9616
ülər	-9617
▁bircə	-9618
servator	-9619
▁xarakteristik	-9620
dılmış	-9621
birinin	-9622
▁cəmiyyətə	-9623
▁universitetin	-9624
ue	-9625
▁diin	-9626
▁əməliyyatları	-9627
▁obyekti	-9628
▁çəkdiyi	-9629
▁1)	-9630
▁Çıx	-9631
▁cərr	-9632
▁kolxoz	-9633
▁yoxlam	-9634
▁tarixən	-9635
▁göndərdi	-9636
▁ziddiyyət	-9637
▁69	-9638
▁fəth	-9639
▁əsassız	-9640
▁qıs	-9641
▁İman	-9642
bucaq	-9643
▁İngilis	-9644
▁aylarında	-9645
▁Ağc	-9646
çiliyin	-9647
▁laureatı	-9648
46	-9649
ızın	-9650
▁Pey	-9651
▁Alim	-9652
▁____	-9653
▁Səfəv	-9654
▁biləcəyi	-9655
ƏY	-9656
▁Ceyh	-9657
▁kamil	-9658
naməsinin	-9659
▁sırasına	-9660
▁minnətdarlığını	-9661
▁Din	-9662
ribən	-9663
▁test	-9664
▁dövlətinə	-9665
▁rejissoru	-9666
ium	-9667
▁Eln	-9668
liklərinin	-9669
▁sul	-9670
Axund	-9671
▁müharibənin	-9672
▁21-	-9673
asinin	-9674
▁yaratmış	-9675
-1	-9676
ts	-9677
odu	-9678
▁dəqiqə	-9679
▁uydur	-9680
▁məsələdə	-9681
üstə	-9682
▁hala	-9683
▁xəyal	-9684
▁komissiyası	-9685
▁müəllimlərin	-9686
▁imperiyasının	-9687
▁aşağıdakılar	-9688
▁şüş	-9689
▁deməyə	-9690
▁amillərdən	-9691
sl	-9692
▁fabr	-9693
▁Tom	-9694
məkdədir	-9695
▁materialların	-9696
▁Vətənə	-9697
▁qalası	-9698
▁məktəbə	-9699
▁Respublikasına	-9700
▁41	-9701
əvəz	-9702
asiyasını	-9703
▁əla	-9704
▁lent	-9705
▁məqsədəuyğun	-9706
den	-9707
yet	-9708
dirdi	-9709
ərgin	-9710
▁vaxta	-9711
▁söylədi	-9712
alin	-9713
▁oynayan	-9714
▁uşaqlara	-9715
▁məqsədlər	-9716
asıb	-9717
▁Bunlardan	-9718
▁səviyyəsini	-9719
▁Qlobal	-9720
üyü	-9721
ərt	-9722
çiyə	-9723
.10	-9724
bəş	-9725
▁fikirləş	-9726
▁təbiətin	-9727
▁dənizinin	-9728
▁forum	-9729
▁göndərilir	-9730
▁axın	-9731
!”	-9732
▁salıb	-9733
ilmi	-9734
Böyük	-9735
▁Dörd	-9736
▁ması	-9737
▁gostar	-9738
▁köçkünlərin	-9739
▁müvəffəqiyyətlə	-9740
▁Dek	-9741
▁etməd	-9742
▁Tərtər	-9743
▁bölgüsü	-9744
▁ifasında	-9745
aşın	-9746
laşıb	-9747
▁Bankı	-9748
▁yaranıb	-9749
▁lət	-9750
lması	-9751
▁lərin	-9752
▁dəyişməsi	-9753
soy	-9754
▁2.2.	-9755
▁uşağın	-9756
▁Müqavil	-9757
▁edilməli	-9758
▁2)	-9759
▁2000	-9760
▁istehsalının	-9761
▁Dar	-9762
▁Dərbənd	-9763
▁Ölkənin	-9764
▁Əminəm	-9765
▁gəncləri	-9766
▁vəziyyətinin	-9767
▁mill	-9768
▁nəsr	-9769
▁xassə	-9770
▁alətləri	-9771
▁istiqaməti	-9772
▁Şək	-9773
▁120	-9774
▁Avt	-9775
▁dayanan	-9776
,0	-9777
azadə	-9778
▁anti	-9779
▁tükən	-9780
▁görüşüb	-9781
▁genişmiqyaslı	-9782
cam	-9783
asina	-9784
▁etmişəm	-9785
▁göndərilən	-9786
▁jurnalının	-9787
▁mini	-9788
▁dağıdı	-9789
▁marağı	-9790
▁reyestr	-9791
▁obyektləri	-9792
▁məsələlərinə	-9793
▁yapış	-9794
▁İmper	-9795
▁tuturdu	-9796
▁tədqiqatların	-9797
2)	-9798
▁qadar	-9799
▁müstəv	-9800
▁nöqteyi	-9801
▁möhkəmlən	-9802
▁göndərdiyi	-9803
▁möc	-9804
▁təqsir	-9805
▁metodik	-9806
ere	-9807
▁arv	-9808
▁tak	-9809
lədiyi	-9810
▁rəvayət	-9811
▁strukturu	-9812
▁olmamalıdır	-9813
▁plana	-9814
▁mühazir	-9815
▁edəcəklər	-9816
▁Mustafayev	-9817
▁tolerantlıq	-9818
axan	-9819
imcə	-9820
▁bəyanat	-9821
malarının	-9822
▁normaları	-9823
▁Göstər	-9824
▁bəndinə	-9825
▁sənədi	-9826
mamışdı	-9827
▁vəsaitin	-9828
▁səciyyələndir	-9829
▁Kön	-9830
▁Qazan	-9831
▁qərəz	-9832
▁belədir	-9833
▁atmosfer	-9834
diyin	-9835
eytinq	-9836
▁elektro	-9837
▁bə	-9838
arsa	-9839
▁varis	-9840
▁mühərr	-9841
▁Mübariz	-9842
▁olmuşam	-9843
ne	-9844
▁Təkcə	-9845
▁təqv	-9846
▁biç	-9847
▁Ailə	-9848
▁baxdı	-9849
▁qərarın	-9850
▁Alt	-9851
istanda	-9852
▁daşınması	-9853
▁mübarizəyə	-9854
▁yıx	-9855
▁tele	-9856
▁istədiyi	-9857
no	-9858
▁Akif	-9859
asport	-9860
▁amerik	-9861
▁məbləğində	-9862
baba	-9863
▁imiş	-9864
▁Fəxri	-9865
▁Vüqar	-9866
▁kabinet	-9867
▁tənqidi	-9868
avə	-9869
▁yuxu	-9870
▁burda	-9871
▁yazan	-9872
▁keçirməyə	-9873
▁maraqlarına	-9874
eir	-9875
▁repres	-9876
sur	-9877
▁tərənn	-9878
▁maraqlan	-9879
▁yerindən	-9880
əqət	-9881
iklər	-9882
▁Hamı	-9883
acağam	-9884
▁Döyüş	-9885
▁publik	-9886
▁sarayında	-9887
dırdı	-9888
ütləvi	-9889
▁Keçmiş	-9890
əmlək	-9891
▁Rafiq	-9892
▁müqəd	-9893
▁Tətbiq	-9894
▁sanitar	-9895
▁personaj	-9896
cisi	-9897
üntü	-9898
▁yur	-9899
▁Adam	-9900
▁təkam	-9901
▁reallıq	-9902
▁Nyu	-9903
▁Per	-9904
▁qanad	-9905
▁qüsur	-9906
▁dağlıq	-9907
▁poeziya	-9908
▁Fransada	-9909
uç	-9910
qara	-9911
▁sov	-9912
orlar	-9913
▁Div	-9914
▁Hüquqi	-9915
▁beləliklə	-9916
▁məntəqəsi	-9917
▁göstərirlər	-9918
▁Öl	-9919
▁etik	-9920
▁mətbuatda	-9921
▁məktəblərində	-9922
▁qorxu	-9923
izasiya	-9924
▁mənafey	-9925
▁bildirmək	-9926
▁partiyanın	-9927
▁yazılar	-9928
▁keyfiyyəti	-9929
▁qurtul	-9930
▁aparılmışdır	-9931
ola	-9932
▁180	-9933
▁Ziy	-9934
▁azaldılması	-9935
▁Pat	-9936
▁atıl	-9937
▁qabarıq	-9938
▁zərərli	-9939
▁Mingəçevir	-9940
şad	-9941
▁24-	-9942
▁inamla	-9943
▁yardımı	-9944
▁buğ	-9945
uslar	-9946
▁analiz	-9947
▁kn	-9948
▁Qiymət	-9949
▁pedaqoq	-9950
ızıl	-9951
▁şüca	-9952
▁Əsər	-9953
▁güllə	-9954
ıç	-9955
▁redaksiyada	-9956
▁hid	-9957
▁danışdı	-9958
▁Oqt	-9959
▁Zir	-9960
▁Ordu	-9961
▁ehtiyatları	-9962
▁türklər	-9963
▁tərəflər	-9964
▁hərəkətləri	-9965
Yeni	-9966
▁Rəy	-9967
▁Rövşən	-9968
▁notari	-9969
▁heyvanlar	-9970
▁tanrı	-9971
▁gördüy	-9972
▁evinə	-9973
▁açılışında	-9974
▁Qr	-9975
▁məl	-9976
▁kompleksinin	-9977
ster	-9978
▁məndən	-9979
▁müqaviləsinin	-9980
oji	-9981
▁əməyin	-9982
▁fərmanı	-9983
▁əməkdaşı	-9984
▁hesablama	-9985
▁iqtisadiyyatına	-9986
▁günümüz	-9987
▁Dağıstan	-9988
itam	-9989
iqad	-9990
▁And	-9991
▁alay	-9992
Kitabi	-9993
▁əxlaqi	-9994
▁hüququnu	-9995
▁sözlərin	-9996
▁Ön	-9997
▁Afrika	-9998
▁liberal	-9999
▁türkdilli	-10000
▁müəssisələr	-10001
▁müstəvi	-10002
▁qanunauyğun	-10003
ƏB	-10004
▁dövrünü	-10005
▁Konvensiyanın	-10006
sif	-10007
▁se	-10008
▁Atatürk	-10009
▁başçıları	-10010
▁təslim	-10011
▁Dünyada	-10012
dırılmasına	-10013
▁etdirmişdir	-10014
▁maraqlarını	-10015
▁gi	-10016
▁Sədri	-10017
▁ürəyi	-10018
▁məktəblər	-10019
▁yerləşdirilməsi	-10020
niz	-10021
▁atam	-10022
▁sona	-10023
ational	-10024
▁məktəbləri	-10025
▁reallaşdır	-10026
▁Zaqafqaziya	-10027
pic	-10028
▁kal	-10029
elyef	-10030
▁İlqar	-10031
▁Müəssis	-10032
aşı	-10033
▁99	-10034
▁13.	-10035
▁qram	-10036
▁ölkədən	-10037
▁proqramlarının	-10038
▁süm	-10039
▁yığı	-10040
▁əmsal	-10041
▁istifadəsinə	-10042
48	-10043
▁çoxşax	-10044
udu	-10045
ovest	-10046
▁yazar	-10047
ilməklə	-10048
▁Kolleg	-10049
gr	-10050
▁əmir	-10051
leytenant	-10052
▁rəqib	-10053
▁əsərdə	-10054
▁günlərində	-10055
▁çıxarılsın	-10056
▁Com	-10057
▁kob	-10058
▁Fövqəladə	-10059
▁ra	-10060
▁tah	-10061
▁Bəst	-10062
▁Xatır	-10063
▁ilahi	-10064
▁idarəçilik	-10065
day	-10066
əçi	-10067
▁etməy	-10068
▁Agentliyinin	-10069
ğuna	-10070
▁törə	-10071
▁dür	-10072
▁dönüş	-10073
▁ölkəsinin	-10074
dırma	-10075
▁olmasın	-10076
Müs	-10077
arda	-10078
osun	-10079
▁Azor	-10080
▁Sadəcə	-10081
▁banisi	-10082
▁Müdafiəsi	-10083
▁imperator	-10084
▁işlət	-10085
▁Şərqdə	-10086
▁gedirdi	-10087
▁gener	-10088
▁oynamışdır	-10089
▁strategiyasının	-10090
cıq	-10091
▁Qab	-10092
▁Sarı	-10093
▁əsrə	-10094
▁dilləri	-10095
▁orqanlar	-10096
▁işlənməsi	-10097
▁çalar	-10098
▁Respub	-10099
▁saxlayan	-10100
▁keyfiyyətinin	-10101
▁informasiyanın	-10102
▁epiz	-10103
▁içməli	-10104
▁tapşırılsın	-10105
məh	-10106
▁mit	-10107
▁yazmışdır	-10108
▁hazırlanıb	-10109
▁vasitələrin	-10110
▁aer	-10111
▁nun	-10112
▁düşündür	-10113
▁yardımçı	-10114
dırır	-10115
▁edəndə	-10116
▁surəti	-10117
▁elementləri	-10118
47	-10119
hi	-10120
▁aləmi	-10121
▁qəsəbə	-10122
▁Bayramov	-10123
▁alimləri	-10124
▁razılığa	-10125
qor	-10126
▁taraf	-10127
əcə	-10128
▁zülm	-10129
▁istismarı	-10130
ÖV	-10131
▁67	-10132
çülük	-10133
▁Təşkilat	-10134
▁qaranlıq	-10135
▁01	-10136
▁186	-10137
▁Lat	-10138
▁güclən	-10139
▁mühitə	-10140
▁qoyulur	-10141
▁arzulayıram	-10142
39	-10143
▁cərəy	-10144
▁İlyas	-10145
▁ensiklop	-10146
▁yarandığı	-10147
▁12.	-10148
▁taxta	-10149
▁dif	-10150
▁Nərimanov	-10151
▁müddətinə	-10152
▁nəticələrinin	-10153
▁İN	-10154
gahı	-10155
lizi	-10156
iĢ	-10157
▁Vəli	-10158
▁yaşat	-10159
▁icbari	-10160
▁mütəxəssislərin	-10161
▁Lis	-10162
▁Rəcəb	-10163
▁dolan	-10164
▁uzadı	-10165
▁ailəsində	-10166
pozis	-10167
▁torpaqlarımızın	-10168
iano	-10169
icisi	-10170
▁Ağır	-10171
▁Ceyhun	-10172
▁Cədvəl	-10173
▁ortalarında	-10174
▁ların	-10175
▁iclası	-10176
▁düşməsi	-10177
▁təsirli	-10178
▁narkotik	-10179
▁xatirəsinə	-10180
təs	-10181
▁Mük	-10182
▁Ənvər	-10183
▁aparıb	-10184
▁daşınmaz	-10185
▁aparılmasına	-10186
▁Do	-10187
andem	-10188
vanın	-10189
▁alış	-10190
ektron	-10191
▁ibadət	-10192
qab	-10193
▁68	-10194
ələd	-10195
avənd	-10196
▁nəşri	-10197
▁Cahangir	-10198
▁yazıçının	-10199
▁imzalanması	-10200
▁oğur	-10201
irdilər	-10202
▁diy	-10203
▁qoyun	-10204
asiyanı	-10205
▁maddədə	-10206
▁Rabitə	-10207
yət	-10208
saydı	-10209
▁Sənət	-10210
▁saldı	-10211
▁xammal	-10212
▁şəhərlərində	-10213
larinin	-10214
▁yüksəliş	-10215
▁sult	-10216
198	-10217
▁müşav	-10218
▁tayfa	-10219
▁çevrilən	-10220
▁ekspertiz	-10221
▁olanların	-10222
▁təhlükəsizliyin	-10223
uly	-10224
▁Allaha	-10225
▁Qanuna	-10226
▁Şuşanın	-10227
▁tərəfdaşlıq	-10228
▁kommunikasiya	-10229
▁Tar	-10230
▁bilmirdi	-10231
▁400	-10232
▁Dadaş	-10233
▁borcu	-10234
▁əsaslanaraq	-10235
erey	-10236
▁güll	-10237
▁oynam	-10238
▁olmağı	-10239
▁yəhudi	-10240
▁şərtlər	-10241
əffər	-10242
▁qoca	-10243
▁dəlil	-10244
▁Texnologiy	-10245
▁səsini	-10246
▁xalqımıza	-10247
▁Əkbər	-10248
▁ilində	-10249
▁mənasını	-10250
▁qanunvericiliyi	-10251
Cİ	-10252
tur	-10253
▁bölmə	-10254
▁şəxsiyyəti	-10255
▁Bolqarıstan	-10256
▁Komissiyasına	-10257
▁səviyyəsindən	-10258
omen	-10259
ğusu	-10260
▁Dir	-10261
▁kod	-10262
▁əyal	-10263
▁girov	-10264
▁təhqir	-10265
▁tələbat	-10266
▁Məlumdur	-10267
▁nümunələr	-10268
Məh	-10269
▁dinləy	-10270
▁tədbiri	-10271
▁rezident	-10272
▁yazıları	-10273
▁minə	-10274
▁bizimlə	-10275
▁etdirdiyi	-10276
▁təhsilə	-10277
ləşməsinə	-10278
▁olunduğunu	-10279
əşr	-10280
▁buxar	-10281
▁So	-10282
▁xalqını	-10283
▁hərəkatı	-10284
▁əsərinin	-10285
▁qətiyyətlə	-10286
akar	-10287
▁Liv	-10288
▁Şərif	-10289
▁qazandı	-10290
▁olunaraq	-10291
▁nəticələrini	-10292
▁Tən	-10293
▁xidmətinin	-10294
lisə	-10295
▁tün	-10296
▁əylən	-10297
▁təqdimat	-10298
rit	-10299
▁qəddar	-10300
▁yetkin	-10301
ln	-10302
üĢ	-10303
.”.	-10304
▁Arz	-10305
ediya	-10306
38	-10307
ner	-10308
▁Üçüncü	-10309
▁çıxarıb	-10310
asiyaları	-10311
▁təhlükəsi	-10312
▁türklərinin	-10313
▁polad	-10314
▁ordunun	-10315
▁çıxardı	-10316
jı	-10317
lon	-10318
▁alındı	-10319
▁yanğın	-10320
lüklə	-10321
▁ərsəyə	-10322
▁gətirilən	-10323
▁La	-10324
▁disk	-10325
▁ehtim	-10326
▁gücünü	-10327
▁qarovul	-10328
siyaların	-10329
▁Fin	-10330
▁ildönümü	-10331
▁Bin	-10332
▁şamil	-10333
▁Rzayev	-10334
▁qrafik	-10335
▁bildirirəm	-10336
▁abidələrinin	-10337
▁qəm	-10338
▁Oqtay	-10339
▁Şahin	-10340
▁qurulmuş	-10341
▁Bul	-10342
▁nem	-10343
erlər	-10344
▁2014-201	-10345
▁öhdəsindən	-10346
▁nəyə	-10347
tament	-10348
▁ictimaiyyəti	-10349
▁seh	-10350
▁İns	-10351
▁hami	-10352
tarlıq	-10353
▁Ölkəmizin	-10354
▁dağıl	-10355
▁tarif	-10356
▁əsrdən	-10357
▁üsulları	-10358
eninq	-10359
▁işdən	-10360
▁nikah	-10361
▁olunmasının	-10362
▁kosmik	-10363
▁doğrudan	-10364
▁Nəsrəddin	-10365
▁Gürcüstanda	-10366
▁80-	-10367
▁QHT	-10368
▁şam	-10369
▁4.2.	-10370
▁düzəliş	-10371
▁kəmərinin	-10372
udilər	-10373
▁çəkdi	-10374
▁sülhün	-10375
sist	-10376
▁xəstə	-10377
▁buradan	-10378
▁bölgə	-10379
▁oxuyub	-10380
▁qəlbində	-10381
▁ədəbiyyatda	-10382
ropa	-10383
▁Kir	-10384
▁baxıl	-10385
▁özümü	-10386
▁müstəmlək	-10387
▁hissəsidir	-10388
="	-10389
▁GÖ	-10390
blem	-10391
▁tanınması	-10392
bri	-10393
atin	-10394
▁xron	-10395
▁yamac	-10396
▁padşah	-10397
▁populyar	-10398
▁verdilər	-10399
▁TÜR	-10400
▁hesablam	-10401
▁qalmışdı	-10402
kl	-10403
.19	-10404
▁çıxart	-10405
ener	-10406
▁Cor	-10407
▁ipək	-10408
▁İstər	-10409
▁qoyulmuşdur	-10410
▁bacarığı	-10411
▁təcavüzkar	-10412
▁təsdiqləyir	-10413
▁Türkmənistan	-10414
▁hüz	-10415
▁araşdırılması	-10416
dırım	-10417
▁köçürül	-10418
▁Şübhəsiz	-10419
▁kommunist	-10420
Təh	-10421
▁şid	-10422
▁Ərdə	-10423
▁dəftər	-10424
dıqlarını	-10425
▁gənclərə	-10426
▁hökmdarı	-10427
▁perspektivləri	-10428
▁vətəndaşlarının	-10429
larıdır	-10430
▁Pakistan	-10431
▁vurğulamışdır	-10432
▁Əzim	-10433
▁önünə	-10434
▁davamı	-10435
▁İstanbulda	-10436
▁verilməsini	-10437
▁bəşəriyyətin	-10438
FA	-10439
▁hə	-10440
urum	-10441
▁ASC	-10442
lüyündə	-10443
▁Şəmkir	-10444
▁qurulan	-10445
▁silsilə	-10446
▁ölkələrlə	-10447
▁tariximizin	-10448
▁məsuliyyətli	-10449
▁meyv	-10450
▁prepar	-10451
▁Bunların	-10452
rü	-10453
▁97	-10454
cadan	-10455
▁Qacar	-10456
▁salan	-10457
▁siyasətində	-10458
mrə	-10459
rix	-10460
sel	-10461
▁Bəş	-10462
▁qırx	-10463
▁Zəfər	-10464
▁hadisələrə	-10465
▁məlumatlandır	-10466
▁rəis	-10467
▁becər	-10468
▁içəri	-10469
mark	-10470
dinin	-10471
▁qoru	-10472
▁üfüq	-10473
kredit	-10474
▁asanlıqla	-10475
▁çəkilməsi	-10476
▁Necə	-10477
▁bəşəri	-10478
▁çəkilib	-10479
▁səviyyəyə	-10480
▁Hadi	-10481
▁ərazinin	-10482
ras	-10483
▁talan	-10484
▁Məmmədova	-10485
▁XVII	-10486
▁Qələb	-10487
▁qiymətləri	-10488
▁Şuranın	-10489
iyasından	-10490
▁salınmış	-10491
▁kafedrasının	-10492
fiq	-10493
sat	-10494
▁digərləri	-10495
iyyot	-10496
▁asas	-10497
US	-10498
▁Qus	-10499
▁vətəndaşlıq	-10500
kov	-10501
səl	-10502
▁Hikmət	-10503
▁liderin	-10504
▁hazırlanmışdır	-10505
oban	-10506
▁ölən	-10507
ttifaq	-10508
obustan	-10509
▁Mehman	-10510
umanitar	-10511
ellyasiya	-10512
▁hüquqlarını	-10513
▁layihələndir	-10514
so	-10515
tp	-10516
▁14.	-10517
▁bənddə	-10518
▁səhnəyə	-10519
▁Sərəncamın	-10520
▁qətiyyətli	-10521
▁maraqlandır	-10522
həm	-10523
rəh	-10524
sar	-10525
▁Çal	-10526
▁aktı	-10527
▁Sənin	-10528
▁ideyaları	-10529
▁Na	-10530
▁Avrasiya	-10531
kür	-10532
▁nəc	-10533
▁günündə	-10534
▁mənbələri	-10535
▁portret	-10536
▁səfərdə	-10537
▁Naxçıvanın	-10538
udə	-10539
əllim	-10540
ensiya	-10541
▁Demək	-10542
idrogen	-10543
▁Qaradağ	-10544
▁Vilayət	-10545
▁komissiya	-10546
▁şanlı	-10547
▁hazırladığı	-10548
iqat	-10549
▁sap	-10550
▁düstur	-10551
▁hakimiyyətin	-10552
▁4.1	-10553
▁buy	-10554
▁Məni	-10555
▁meydanç	-10556
▁yarımada	-10557
▁+	-10558
▁şərab	-10559
▁reytinq	-10560
▁95	-10561
▁hazırlaş	-10562
▁İstifadə	-10563
▁Nobel	-10564
usundan	-10565
▁vurğulay	-10566
▁MM	-10567
▁qəzəl	-10568
▁sütun	-10569
▁mənimsən	-10570
zam	-10571
ilməyə	-10572
iyevin	-10573
▁timsal	-10574
▁Sərəncamına	-10575
ia	-10576
▁mov	-10577
▁ruhunda	-10578
▁illərdir	-10579
▁qabağında	-10580
▁cansağlığı	-10581
asion	-10582
▁bərki	-10583
▁vəziyyətdən	-10584
▁22-	-10585
▁kövr	-10586
▁mexaniki	-10587
▁zəl	-10588
▁çatıb	-10589
▁reallaş	-10590
▁Ac	-10591
▁əmtəə	-10592
▁Əliyevi	-10593
▁Sovetlər	-10594
▁təqribən	-10595
▁fakültəsinin	-10596
▁sözügedən	-10597
▁dedim	-10598
▁strategiyası	-10599
▁eksper	-10600
▁Yek	-10601
▁təĢ	-10602
▁mobil	-10603
▁Məcnun	-10604
▁sui	-10605
▁başçısına	-10606
ica	-10607
▁Təc	-10608
▁qurb	-10609
▁İlkin	-10610
▁göstərici	-10611
▁seçkilərdə	-10612
49	-10613
kop	-10614
▁ictimaiyyətinə	-10615
erk	-10616
▁Beh	-10617
▁Bək	-10618
▁ləz	-10619
▁xəyanət	-10620
▁tutulmuşdur	-10621
ümkün	-10622
mədiyi	-10623
əvinin	-10624
▁'	-10625
əfa	-10626
lıların	-10627
▁sözlərini	-10628
▁paşa	-10629
▁bilirik	-10630
▁Tac	-10631
bədii	-10632
▁vahidi	-10633
▁hərəkatının	-10634
▁salon	-10635
▁təriq	-10636
▁ehtiramla	-10637
▁etmişdilər	-10638
▁referendum	-10639
şal	-10640
çılığın	-10641
▁Qurbanov	-10642
▁müsabiqə	-10643
▁ixtisaslı	-10644
▁olduğumuz	-10645
▁sahələrin	-10646
▁formalaşmasına	-10647
▁İx	-10648
▁boyn	-10649
▁xitam	-10650
▁alimin	-10651
▁ölümü	-10652
▁oturub	-10653
mamalıdır	-10654
▁ayrılması	-10655
▁qanunları	-10656
▁kanalizasiya	-10657
eyli	-10658
▁Təz	-10659
▁sinə	-10660
▁bilərsiniz	-10661
▁Nəb	-10662
▁nəsə	-10663
işəhər	-10664
▁Ekologiya	-10665
▁Qəhrəmanı	-10666
▁verməlidir	-10667
▁məzh	-10668
▁ahəng	-10669
▁Layihə	-10670
▁zamanlarda	-10671
▁məktəblərinin	-10672
3)	-10673
▁Tez	-10674
▁türb	-10675
▁hədiyy	-10676
▁bütövlüyünü	-10677
IR	-10678
▁nən	-10679
▁aksiy	-10680
▁süxur	-10681
▁məqamda	-10682
PA	-10683
▁Kin	-10684
▁açılan	-10685
▁redaksiy	-10686
▁ayağa	-10687
aqon	-10688
▁proqramının	-10689
ate	-10690
dal	-10691
▁mac	-10692
sixoloji	-10693
enn	-10694
▁bilib	-10695
▁Füzulinin	-10696
▁qəbiristan	-10697
▁bitirdikdən	-10698
▁nümunəsidir	-10699
▁KO	-10700
▁ın	-10701
xanlı	-10702
▁saxt	-10703
iyində	-10704
▁serial	-10705
Ər	-10706
▁ümumtəhsil	-10707
▁baxmaq	-10708
▁bünövr	-10709
▁binalar	-10710
rus	-10711
anin	-10712
▁dart	-10713
▁sarayı	-10714
▁səsvermə	-10715
▁məharətlə	-10716
▁funksional	-10717
iti	-10718
▁Cey	-10719
▁Rəq	-10720
▁qalibi	-10721
▁alimlərin	-10722
mın	-10723
▁KAB	-10724
▁Xos	-10725
▁cəbhə	-10726
▁məcburiyyətində	-10727
linə	-10728
▁önə	-10729
▁otuz	-10730
▁diviz	-10731
▁fərqi	-10732
▁kobud	-10733
▁tələs	-10734
▁Sosialist	-10735
▁sahələrinə	-10736
▁siyahısına	-10737
ÜK	-10738
▁gəldilər	-10739
▁Beş	-10740
▁Yunanıstan	-10741
cn	-10742
▁Bit	-10743
▁mes	-10744
▁damar	-10745
▁51	-10746
afat	-10747
.2.1.	-10748
▁1970-	-10749
▁Əmlak	-10750
▁almışdı	-10751
▁3.2.	-10752
▁Siyahı	-10753
▁hücuma	-10754
▁vurğulayan	-10755
▁hissələrinin	-10756
dilmiş	-10757
▁Yəqin	-10758
▁qatıl	-10759
▁Qaraq	-10760
▁Müsabiq	-10761
▁əsaslarını	-10762
▁mərhələsinə	-10763
▁vətəndaşlar	-10764
Rəs	-10765
▁sanb	-10766
▁etmişik	-10767
▁söhbəti	-10768
▁özbək	-10769
məsələn	-10770
▁Komissar	-10771
▁başlamışdı	-10772
mo	-10773
▁atom	-10774
pirant	-10775
▁Ondan	-10776
▁görəndə	-10777
▁qızın	-10778
▁qoyulub	-10779
▁NAZİRLƏR	-10780
▁qərargah	-10781
▁verməklə	-10782
▁liderimiz	-10783
▁oxuculara	-10784
▁sahibləri	-10785
karı	-10786
▁yararlı	-10787
▁sürgün	-10788
▁ET	-10789
▁lif	-10790
siyasına	-10791
▁cavabdeh	-10792
▁rejiminin	-10793
mn	-10794
▁vul	-10795
▁məsi	-10796
▁aydan	-10797
▁istehsalçı	-10798
iyinə	-10799
müşdü	-10800
▁Hazır	-10801
▁süqut	-10802
iversal	-10803
▁olmamış	-10804
▁xeyriyyə	-10805
▁təminatının	-10806
neçə	-10807
▁jurn	-10808
orun	-10809
▁bır	-10810
▁qoyuldu	-10811
▁bölməsinin	-10812
▁Ha	-10813
▁Çay	-10814
▁Məşədi	-10815
▁inşası	-10816
▁66	-10817
▁lob	-10818
Türkiyə	-10819
▁qoymuşdur	-10820
▁qabiliyyət	-10821
▁statistika	-10822
▁sahəsindəki	-10823
İNET	-10824
▁dostları	-10825
ümüş	-10826
Ceyhan	-10827
sti	-10828
▁sen	-10829
eqativ	-10830
▁yazılıb	-10831
çərişəhər	-10832
▁Vergilər	-10833
▁ermənilərə	-10834
▁sərhədləri	-10835
▁Səs	-10836
▁amili	-10837
▁yolux	-10838
eliorasiya	-10839
▁düşər	-10840
▁vurdu	-10841
▁KABİNET	-10842
ADƏ	-10843
▁Boy	-10844
enes	-10845
olla	-10846
▁Ordubad	-10847
▁MR	-10848
landir	-10849
▁həmsədr	-10850
▁mənfəət	-10851
ürlər	-10852
əşəkkil	-10853
▁olunsun	-10854
irli	-10855
▁işıqlı	-10856
▁müdaxil	-10857
▁Fəxr	-10858
▁atan	-10859
▁böyüy	-10860
▁bacısı	-10861
▁yetirilir	-10862
▁nəticələrinə	-10863
beh	-10864
günə	-10865
▁istəmir	-10866
MA	-10867
▁yiik	-10868
▁ifaçı	-10869
▁pasport	-10870
▁qalması	-10871
▁52	-10872
çulu	-10873
▁ağıllı	-10874
rip	-10875
▁etməyən	-10876
▁mütəfəkkir	-10877
▁―	-10878
▁ur	-10879
▁təv	-10880
▁başda	-10881
▁köməkçisi	-10882
▁pozulmasına	-10883
▁Komissiyanın	-10884
▁Ti	-10885
▁Onda	-10886
▁bişir	-10887
▁kredi	-10888
▁əməkh	-10889
▁olunmu	-10890
▁hündürlüyü	-10891
41	-10892
aspi	-10893
▁çin	-10894
▁ekspon	-10895
▁bağlanmış	-10896
▁vasitəsinin	-10897
ık	-10898
raj	-10899
dıran	-10900
▁miin	-10901
▁açmaq	-10902
▁təhrif	-10903
▁kifayətlən	-10904
▁kü	-10905
▁zəb	-10906
gəc	-10907
▁miist	-10908
▁məhlul	-10909
▁sürəti	-10910
▁rəhbərliyinə	-10911
lic	-10912
▁çıxa	-10913
▁tatar	-10914
olunmaz	-10915
▁yenilən	-10916
▁rüş	-10917
▁vətənə	-10918
▁imzalamaq	-10919
▁reallaşdırıl	-10920
Qur	-10921
▁cam	-10922
.2.2.	-10923
▁aşiq	-10924
▁qısam	-10925
▁deməli	-10926
▁ədliyyə	-10927
▁invest	-10928
▁Kur	-10929
▁rep	-10930
ilərini	-10931
▁arı	-10932
Milli	-10933
əlavə	-10934
▁ayn	-10935
uşdur	-10936
▁Ətraf	-10937
▁yetirən	-10938
▁müxalifət	-10939
▁müqavilənin	-10940
▁duyur	-10941
▁unudulmaz	-10942
edia	-10943
ikinti	-10944
▁idmanın	-10945
▁manatadək	-10946
elo	-10947
xüsus	-10948
▁sırf	-10949
▁Həmrəy	-10950
▁güzəştli	-10951
▁götürülmüş	-10952
▁rayonlarda	-10953
▁tend	-10954
▁Yardım	-10955
▁Bakıdan	-10956
▁etdirib	-10957
▁Əlizadə	-10958
▁İspaniya	-10959
baij	-10960
dirsə	-10961
▁ədəbiyyata	-10962
arat	-10963
məyəcək	-10964
▁operator	-10965
ibəy	-10966
▁qrupa	-10967
▁mərhum	-10968
▁romanı	-10969
▁etməyin	-10970
▁76	-10971
▁Qoy	-10972
▁Düşünür	-10973
İZ	-10974
▁dad	-10975
▁Polad	-10976
▁Vahab	-10977
▁çatmaq	-10978
▁Yəh	-10979
▁kodu	-10980
▁rinin	-10981
▁Ģəhər	-10982
▁Maarif	-10983
▁Yazıçı	-10984
▁əcnəbi	-10985
▁işlərində	-10986
▁məsələsini	-10987
▁büdcəsindən	-10988
axanı	-10989
▁etməsini	-10990
▁vəzifələrini	-10991
▁qabiliyyətinin	-10992
▁doğum	-10993
▁qarşısı	-10994
▁istifada	-10995
▁türkləri	-10996
layn	-10997
▁əzm	-10998
ayəndə	-10999
▁əlaqədardır	-11000
▁Alı	-11001
ıncaq	-11002
lərimi	-11003
▁gizlət	-11004
▁Rəyasət	-11005
▁büdcəsi	-11006
▁gənclik	-11007
▁göstərilmiş	-11008
▁kəndlərində	-11009
▁qiymətləndirmə	-11010
alda	-11011
▁nəsli	-11012
osional	-11013
▁Masallı	-11014
▁nı	-11015
iqlal	-11016
▁İvan	-11017
Naxçıvan	-11018
▁Mərkəzin	-11019
▁nümunəvi	-11020
lakı	-11021
▁zorla	-11022
▁Tamaşa	-11023
▁uzaqlaş	-11024
▁idarəsinin	-11025
▁məsləhətləş	-11026
▁qaydalarının	-11027
▁did	-11028
▁xiyab	-11029
▁Nov	-11030
▁fas	-11031
▁başladığı	-11032
▁Ərz	-11033
ımdan	-11034
▁icar	-11035
▁yaradacaq	-11036
▁inqilabi	-11037
▁qrupları	-11038
▁energetika	-11039
İQ	-11040
▁mo	-11041
▁Qış	-11042
▁uşağı	-11043
▁İnqilab	-11044
▁maliyyələş	-11045
▁partiyalar	-11046
duqları	-11047
▁əsirgəm	-11048
▁miqyaslı	-11049
▁vəzifəsindən	-11050
siyada	-11051
▁dövri	-11052
▁düşmənə	-11053
▁tərəflərin	-11054
▁xoşbəxtlik	-11055
enk	-11056
▁verilmir	-11057
▁müharibəyə	-11058
tiq	-11059
alma	-11060
ılırdı	-11061
▁törətdiyi	-11062
Azərbaycanda	-11063
afi	-11064
▁dözüm	-11065
▁konven	-11066
▁sakini	-11067
yəm	-11068
amiq	-11069
▁bag	-11070
▁Sankt	-11071
icilərin	-11072
▁mübarizənin	-11073
▁temp	-11074
▁saxlaya	-11075
air	-11076
▁lis	-11077
estri	-11078
▁VIII	-11079
▁text	-11080
▁bom	-11081
▁Zaqatala	-11082
eyə	-11083
▁far	-11084
▁Niyaz	-11085
sığorta	-11086
▁Məlumat	-11087
▁etməkdədir	-11088
▁Sib	-11089
▁Gözəl	-11090
▁yavaş	-11091
▁funksiyası	-11092
▁məntəqələri	-11093
▁xərclərinin	-11094
”)	-11095
▁hür	-11096
▁2.4.	-11097
▁Diqq	-11098
▁tale	-11099
▁povest	-11100
▁Müharibə	-11101
▁Yaradıcı	-11102
▁turistlərin	-11103
azan	-11104
mışıq	-11105
▁çıxışları	-11106
▁bitkilərin	-11107
lüyünə	-11108
▁Bəhram	-11109
▁xeyrinə	-11110
▁atır	-11111
▁latın	-11112
▁xarab	-11113
▁əlini	-11114
▁qanunu	-11115
▁səslən	-11116
▁yarısı	-11117
▁qayıdış	-11118
▁əlaməti	-11119
rof	-11120
▁abidələr	-11121
▁tənzimlən	-11122
▁Eş	-11123
▁evin	-11124
üləcək	-11125
▁küçəsi	-11126
▁tərənnüm	-11127
▁münasibətini	-11128
▁durum	-11129
▁texnikası	-11130
▁mərkəzinin	-11131
▁məntəqələrində	-11132
▁oyan	-11133
alarin	-11134
▁Qırğızı	-11135
▁Xəzərin	-11136
▁ssenari	-11137
▁ətrafındakı	-11138
OY	-11139
eviç	-11140
▁Qol	-11141
▁müc	-11142
▁Babək	-11143
▁torpaqlarını	-11144
▁üzündə	-11145
ildiyini	-11146
▁çoxşaxəli	-11147
▁maraqlarının	-11148
iliyinə	-11149
▁varlıq	-11150
▁hərəkətə	-11151
▁irəliləyiş	-11152
Ədə	-11153
▁Lider	-11154
▁müraciəti	-11155
XC	-11156
buri	-11157
▁Elxan	-11158
dəfəlik	-11159
▁fizika	-11160
▁şeirlərində	-11161
ayə	-11162
duğ	-11163
tərək	-11164
▁Muğam	-11165
▁tanıt	-11166
lərdəki	-11167
▁Sığorta	-11168
▁haqqmda	-11169
▁sistemini	-11170
▁Proqramının	-11171
▁fəaliyyətindən	-11172
▁düĢ	-11173
▁İbn	-11174
▁qaydalar	-11175
▁meydanında	-11176
▁məlumatlara	-11177
çular	-11178
ikanın	-11179
kəndər	-11180
▁məhkəməyə	-11181
▁məsələlərdə	-11182
LU	-11183
evin	-11184
üyün	-11185
▁Dini	-11186
▁allah	-11187
▁fermer	-11188
▁gücünə	-11189
▁yaşadıqları	-11190
▁gimn	-11191
▁Salman	-11192
▁geoloji	-11193
▁krediti	-11194
▁birliyinin	-11195
eksi	-11196
İran	-11197
ələm	-11198
▁Şab	-11199
▁Bəstəkar	-11200
▁filmlər	-11201
▁adlarını	-11202
▁mətbuatın	-11203
▁KP	-11204
▁2014	-11205
əliyəm	-11206
▁əqli	-11207
ayırma	-11208
▁sənətkarın	-11209
▁ları	-11210
▁bölgənin	-11211
▁verilməsinə	-11212
▁ictimaiyyətin	-11213
▁fəz	-11214
▁idim	-11215
▁müddətli	-11216
rap	-11217
▁açaraq	-11218
▁hadisəsi	-11219
.2.1	-11220
▁orda	-11221
▁keçmək	-11222
▁Sentyabr	-11223
▁üzərindəki	-11224
▁rəhbərlərinin	-11225
▁sank	-11226
▁Keçən	-11227
▁karyer	-11228
▁mənalı	-11229
▁söyləy	-11230
▁faciəsi	-11231
▁müqabil	-11232
▁məhsullar	-11233
▁han	-11234
Rusiya	-11235
▁köklü	-11236
▁qənaət	-11237
▁genişlənməsi	-11238
AV	-11239
uv	-11240
▁Sak	-11241
▁öyrət	-11242
▁qanunlar	-11243
▁müddəalar	-11244
▁kı	-11245
▁ekstr	-11246
▁Mədəni	-11247
▁bildirilir	-11248
▁göndərilməsi	-11249
▁IX	-11250
▁bəndi	-11251
▁sonda	-11252
▁Moskvaya	-11253
▁timsalında	-11254
iter	-11255
▁Rasim	-11256
▁Rəhimov	-11257
▁kəndinə	-11258
fər	-11259
▁Hansı	-11260
▁prospekt	-11261
▁sanballı	-11262
Bay	-11263
entin	-11264
ələnir	-11265
▁sənətin	-11266
▁göndərir	-11267
▁xərclərin	-11268
▁ed	-11269
▁Ust	-11270
▁hor	-11271
bəşəri	-11272
▁genetik	-11273
▁regionunda	-11274
▁imzalandığı	-11275
▁işləməyə	-11276
▁Qət	-11277
▁milyondan	-11278
▁dünyasında	-11279
inski	-11280
layış	-11281
▁qurulub	-11282
▁bilməmiş	-11283
▁rəhbərinin	-11284
▁qazanmışdır	-11285
▁Cəbh	-11286
▁sürən	-11287
▁aralarında	-11288
▁kitabların	-11289
▁niyyətində	-11290
ddin	-11291
▁üzərindən	-11292
AF	-11293
tn	-11294
▁qi	-11295
▁bağır	-11296
▁evləri	-11297
▁eşidən	-11298
▁sırada	-11299
Bak	-11300
▁kq	-11301
▁Talıb	-11302
▁əqidə	-11303
▁jurnalı	-11304
▁rbaycan	-11305
▁Almaniyada	-11306
▁qəlbi	-11307
▁185	-11308
əqədər	-11309
▁vəzifəyə	-11310
▁edildiyini	-11311
▁işləmişdir	-11312
▁laq	-11313
çilərə	-11314
▁səhnədə	-11315
DİR	-11316
lax	-11317
▁Güney	-11318
▁savad	-11319
▁40-	-11320
▁kölg	-11321
▁amal	-11322
▁Orxan	-11323
▁rabit	-11324
▁Robert	-11325
▁çəkisi	-11326
▁artırıl	-11327
kal	-11328
▁nda	-11329
▁yürüt	-11330
▁Asiyada	-11331
▁qəsəbəsi	-11332
▁heyvanların	-11333
asional	-11334
▁göründüyü	-11335
▁düşünülmüş	-11336
gun	-11337
▁Bas	-11338
▁Kər	-11339
tinin	-11340
▁qalmaq	-11341
▁Oyunlarının	-11342
▁önc	-11343
▁qrupun	-11344
▁tutmaq	-11345
▁________	-11346
▁nəzarətdə	-11347
▁texnologiyalar	-11348
eçen	-11349
▁Zeyn	-11350
▁Nəzarət	-11351
▁Mirzəyev	-11352
▁fərqlənən	-11353
▁keçmişdir	-11354
▁müəllifidir	-11355
▁Emin	-11356
▁Ziya	-11357
▁eləm	-11358
▁fondu	-11359
▁tərəfdarı	-11360
32	-11361
▁qapalı	-11362
▁şahzadə	-11363
▁qardaşlıq	-11364
▁Adət	-11365
▁satı	-11366
adılar	-11367
▁aşıl	-11368
▁veter	-11369
▁abidələrin	-11370
▁istəyirlər	-11371
▁əsərlərindən	-11372
▁iradəsi	-11373
▁ustalıq	-11374
▁övladları	-11375
▁cil	-11376
▁arayış	-11377
▁birləşdirir	-11378
▁İç	-11379
aqdan	-11380
▁yerlərə	-11381
▁Oyunları	-11382
▁istiqamətlərdə	-11383
34	-11384
▁Musiq	-11385
▁qurult	-11386
▁Nizaminin	-11387
çar	-11388
▁paş	-11389
əcəyəm	-11390
▁dolayı	-11391
jor	-11392
▁pir	-11393
▁sət	-11394
əndən	-11395
▁etiqad	-11396
▁Növbəti	-11397
▁möhtərəm	-11398
▁çatmışdır	-11399
ərsə	-11400
▁Abb	-11401
▁Ben	-11402
▁Far	-11403
▁nəq	-11404
▁Arxiv	-11405
▁Ağcab	-11406
▁norma	-11407
▁bizdən	-11408
▁bazarında	-11409
▁adamlarının	-11410
▁tənəzz	-11411
▁tətbiqini	-11412
▁insani	-11413
▁Macarıstan	-11414
----	-11415
▁5.1	-11416
▁ayı	-11417
▁qav	-11418
ləridir	-11419
▁imperiyası	-11420
▁О	-11421
▁77	-11422
▁ok	-11423
▁dünən	-11424
▁nüfuzu	-11425
▁oxuyan	-11426
▁tərəfinə	-11427
▁Azorbaycan	-11428
▁Kamil	-11429
▁kişilər	-11430
▁qayıdır	-11431
▁konfransı	-11432
▁süv	-11433
▁nələr	-11434
▁metodu	-11435
▁yarpaq	-11436
xa	-11437
▁Ail	-11438
▁şer	-11439
▁madan	-11440
liklərin	-11441
▁konfransda	-11442
▁BDU	-11443
▁Xoş	-11444
▁səhm	-11445
▁1980-	-11446
▁Zakir	-11447
ilərkən	-11448
▁başlanğıcı	-11449
icat	-11450
▁Trans	-11451
▁zərif	-11452
▁satışı	-11453
▁məzmunlu	-11454
▁olmamışdır	-11455
▁29-	-11456
▁Miq	-11457
▁nömrə	-11458
▁raket	-11459
iyyənin	-11460
▁neqativ	-11461
▁aspirant	-11462
▁qurğular	-11463
▁sahibinin	-11464
▁özünüidarə	-11465
▁seçkilərində	-11466
urun	-11467
▁sərgisi	-11468
▁nəfərlik	-11469
▁qərarların	-11470
▁zənginləşdir	-11471
▁göstəricisidir	-11472
lülük	-11473
▁çeşid	-11474
▁oluruq	-11475
▁müddəaları	-11476
▁başqalarının	-11477
▁Sət	-11478
▁qəzetin	-11479
▁simf	-11480
▁surs	-11481
▁tədr	-11482
urdular	-11483
▁apardı	-11484
▁arvadı	-11485
ld	-11486
avər	-11487
götür	-11488
▁qanı	-11489
▁topl	-11490
ələnmiş	-11491
▁tərəfdə	-11492
▁yolların	-11493
▁nəsillərə	-11494
Xalq	-11495
inqton	-11496
▁ruhunu	-11497
▁yaradılmasının	-11498
İst	-11499
▁imi	-11500
▁Şura	-11501
▁Şəhr	-11502
▁baxıb	-11503
ota	-11504
dərə	-11505
▁qopar	-11506
▁MS	-11507
aşırı	-11508
▁barmaq	-11509
▁məfkur	-11510
▁Şəhərin	-11511
landırılması	-11512
▁cənn	-11513
▁yarp	-11514
▁Şəkil	-11515
▁evinin	-11516
▁hüceyr	-11517
▁pandem	-11518
DN	-11519
…………	-11520
▁ġah	-11521
▁xəlif	-11522
arbaycan	-11523
▁söyləmək	-11524
▁yollarını	-11525
çub	-11526
ləşdi	-11527
▁repert	-11528
▁uşaqlıq	-11529
▁gur	-11530
▁yel	-11531
▁azdır	-11532
▁Bağırov	-11533
▁varlığı	-11534
▁müsahibə	-11535
▁istehsalın	-11536
avar	-11537
▁İsf	-11538
▁izol	-11539
▁rüsum	-11540
▁Elektrik	-11541
▁söyləyib	-11542
LM	-11543
ils	-11544
▁Os	-11545
ıĢ	-11546
çal	-11547
ləşib	-11548
▁Pros	-11549
əbbəti	-11550
oj	-11551
▁ağız	-11552
▁efir	-11553
▁məsələsində	-11554
▁qorunmasına	-11555
abəy	-11556
itiv	-11557
▁Dep	-11558
▁qanunvericiliyə	-11559
.5	-11560
▁zəbt	-11561
▁tacir	-11562
▁əcnəb	-11563
ilərinə	-11564
▁xəttinin	-11565
▁toxunulmaz	-11566
▁probleminin	-11567
ker	-11568
▁br	-11569
▁kv	-11570
üllü	-11571
▁elmə	-11572
▁alsaq	-11573
▁teatrı	-11574
▁suallar	-11575
Ay	-11576
uzu	-11577
▁gözlə	-11578
▁Xocavənd	-11579
▁hazırlay	-11580
▁ölkəmizi	-11581
▁İnternet	-11582
▁mütəşəkkil	-11583
▁məsələlərlə	-11584
Hac	-11585
▁sort	-11586
▁qazanmaq	-11587
▁iştirakçılarına	-11588
▁Sülh	-11589
▁till	-11590
▁cinsi	-11591
▁türkc	-11592
▁məkanda	-11593
▁məktubu	-11594
68	-11595
INDA	-11596
▁Vik	-11597
çisinin	-11598
▁gözləm	-11599
▁hələlik	-11600
▁işlərdən	-11601
▁sabiq	-11602
▁dinlən	-11603
▁səyləri	-11604
▁öyrənir	-11605
▁qaytarılması	-11606
▁gecik	-11607
▁qrupuna	-11608
▁nəqliyyatı	-11609
▁88	-11610
▁Latv	-11611
▁Cavanşir	-11612
▁Bilirsiniz	-11613
Mir	-11614
▁1969-	-11615
▁qatar	-11616
▁status	-11617
▁avtomatik	-11618
▁gerçəkləşdir	-11619
▁me	-11620
▁Kanada	-11621
▁zərurət	-11622
▁alınaraq	-11623
ııı	-11624
▁Haqq	-11625
▁Parisdə	-11626
▁mübahisə	-11627
▁Azarbaycanda	-11628
təbəli	-11629
▁gizlə	-11630
▁mənbə	-11631
▁öldürül	-11632
▁ümumxalq	-11633
▁zəman	-11634
▁rezerv	-11635
▁Qubadlı	-11636
//	-11637
til	-11638
▁adım	-11639
▁ucuz	-11640
▁hamının	-11641
aqi	-11642
çün	-11643
dova	-11644
ulun	-11645
▁Kamran	-11646
▁ideologiy	-11647
▁alınmasına	-11648
▁birdəfəlik	-11649
▁çətinliklər	-11650
ten	-11651
▁makro	-11652
▁ümumən	-11653
▁döyüşdə	-11654
Peterburq	-11655
▁…	-11656
▁Kül	-11657
▁mallar	-11658
▁yapon	-11659
▁çiyin	-11660
▁Qurult	-11661
▁oyunun	-11662
▁istismara	-11663
zəl	-11664
▁kimə	-11665
▁rest	-11666
ederal	-11667
erməni	-11668
▁dolaş	-11669
▁gələni	-11670
▁məscidi	-11671
▁savadlı	-11672
▁binaların	-11673
▁adlandırılan	-11674
aqa	-11675
niya	-11676
▁üstündən	-11677
▁hesablanır	-11678
▁quraşdırılması	-11679
▁78	-11680
▁qop	-11681
▁balans	-11682
▁karboh	-11683
▁şöhrətli	-11684
▁donan	-11685
▁büruzə	-11686
▁nəticəyə	-11687
▁təcrübəli	-11688
ine	-11689
▁idrak	-11690
▁antrop	-11691
▁orqanın	-11692
▁göstərməsi	-11693
▁illərindən	-11694
▁Xuda	-11695
▁açılıb	-11696
▁məsafə	-11697
▁sərişt	-11698
ilsin	-11699
▁balet	-11700
▁boşal	-11701
▁üçü	-11702
adanın	-11703
▁Muzeyinin	-11704
▁texnologiya	-11705
▁İrana	-11706
▁başdan	-11707
RO	-11708
amp	-11709
fil	-11710
▁Tim	-11711
▁vəhşilik	-11712
▁mənbələrdə	-11713
▁verəcəkdir	-11714
▁məqaləsində	-11715
tu	-11716
▁Za	-11717
▁aşı	-11718
▁prinsiplər	-11719
sis	-11720
acak	-11721
Rəsul	-11722
▁Axundov	-11723
▁reaksiya	-11724
▁dəstəsinin	-11725
yi	-11726
▁so	-11727
▁110	-11728
▁daima	-11729
▁birləşməsi	-11730
▁alınmalıdır	-11731
▁tət	-11732
mişdim	-11733
məməsi	-11734
misiniz	-11735
ger	-11736
▁Rəf	-11737
essual	-11738
▁təkid	-11739
▁dəyişikliklərin	-11740
▁Qən	-11741
▁Turan	-11742
▁yenicə	-11743
▁mövzuda	-11744
▁güv	-11745
▁qəh	-11746
▁yadi	-11747
▁əngəl	-11748
▁törədilən	-11749
▁əsaslandırıl	-11750
▁təşkilatlarda	-11751
▁yaradılmasını	-11752
▁dosent	-11753
▁Hakimiyyəti	-11754
▁dəstəklənməsi	-11755
duqda	-11756
ocalı	-11757
▁məsafədə	-11758
▁tamaşaya	-11759
lig	-11760
əkmə	-11761
▁bəzək	-11762
▁karbon	-11763
▁faizini	-11764
indo	-11765
▁bölm	-11766
▁töhfəsini	-11767
▁th	-11768
▁Doğrudur	-11769
▁lisenziya	-11770
▁müqavilələr	-11771
co	-11772
▁neç	-11773
▁Qədir	-11774
▁qruplar	-11775
▁sərvəti	-11776
▁seçkiləri	-11777
▁əməkdaşlığ	-11778
BN	-11779
nm	-11780
har	-11781
▁Xəl	-11782
▁Anlaşma	-11783
▁illərinin	-11784
▁minnətdarlığ	-11785
XX	-11786
▁azər	-11787
▁bölməsi	-11788
▁2020	-11789
▁xəbərdarlıq	-11790
ll	-11791
baç	-11792
yat	-11793
▁istef	-11794
▁nəcib	-11795
▁rolunun	-11796
▁şəbəkəsi	-11797
▁siyasətçi	-11798
▁hazırlayır	-11799
▁başçılarının	-11800
azil	-11801
elli	-11802
tərb	-11803
▁təqvim	-11804
▁Rayonun	-11805
▁Prokuror	-11806
▁görüşündə	-11807
▁minnətdarlıq	-11808
▁ifşa	-11809
▁keyfiyyətləri	-11810
edic	-11811
▁İkin	-11812
▁fotoş	-11813
▁bunlardan	-11814
65	-11815
fəz	-11816
seçkil	-11817
▁Görünür	-11818
▁00	-11819
▁Od	-11820
▁Xar	-11821
▁torpaqlarda	-11822
▁Ġs	-11823
▁pas	-11824
▁çiy	-11825
Qafqaz	-11826
▁Kredit	-11827
▁təkamül	-11828
▁bilmişdir	-11829
▁müharibədə	-11830
▁əlamətləri	-11831
ora	-11832
▁84	-11833
▁coş	-11834
▁yağı	-11835
ensial	-11836
lindən	-11837
▁sarsı	-11838
▁sində	-11839
▁axının	-11840
▁yerlər	-11841
▁aydınlıq	-11842
▁hissləri	-11843
Sən	-11844
ole	-11845
▁bulud	-11846
▁General	-11847
▁məhəbbəti	-11848
▁Say	-11849
maddi	-11850
ametri	-11851
▁Ramaz	-11852
▁budaq	-11853
▁əcdad	-11854
▁demişdi	-11855
▁Təbiət	-11856
▁Noyabr	-11857
▁radikal	-11858
▁hesablanmış	-11859
▁xana	-11860
▁Mixail	-11861
▁pulsuz	-11862
▁qazanan	-11863
larımızdan	-11864
▁Peyğəmbər	-11865
▁magistral	-11866
▁Xəy	-11867
alların	-11868
▁relyef	-11869
▁aktları	-11870
▁yaşamağa	-11871
▁Ömr	-11872
▁Ayrı	-11873
▁münbit	-11874
▁həvəslə	-11875
▁olduğum	-11876
▁inşaat	-11877
▁mühitdə	-11878
▁məhdudiyyət	-11879
▁səlahiyyəti	-11880
▁imzalanmışdır	-11881
ydı	-11882
▁87	-11883
ırdıq	-11884
▁işlədiyi	-11885
▁idarəçiliy	-11886
nd	-11887
ərdim	-11888
▁boğaz	-11889
▁ənənə	-11890
▁yerlik	-11891
▁buradakı	-11892
▁istedadı	-11893
▁şi	-11894
▁çadır	-11895
▁KABİNETİNİN	-11896
▁imkanlarından	-11897
▁Sonrakı	-11898
▁yeniləş	-11899
▁keçdikcə	-11900
İST	-11901
▁Forumu	-11902
▁ipoteka	-11903
▁tətbiqinə	-11904
▁Est	-11905
▁isa	-11906
▁land	-11907
▁beşinci	-11908
▁tapşırığı	-11909
:1	-11910
lot	-11911
▁bö	-11912
▁almaqla	-11913
ləndirici	-11914
▁nəzəriyyə	-11915
▁İsmayıllı	-11916
dirə	-11917
▁XII	-11918
Mədən	-11919
▁Slov	-11920
▁karvan	-11921
▁əminəm	-11922
▁bilməsi	-11923
▁kapitan	-11924
▁yəhudilər	-11925
▁edilməsindən	-11926
▁yaradıcılığını	-11927
▁Fr	-11928
▁Həz	-11929
▁sut	-11930
▁şaq	-11931
▁Əbülfəs	-11932
▁evlən	-11933
örp	-11934
əmişə	-11935
▁Koroğlu	-11936
▁humanist	-11937
▁yarımçıq	-11938
▁dövriyyəsi	-11939
▁ictimaiyyətə	-11940
▁təsərrüfatında	-11941
edik	-11942
isin	-11943
▁Nar	-11944
söhbət	-11945
▁64	-11946
▁lək	-11947
▁Muzeyi	-11948
▁kişinin	-11949
▁təşəkkürünü	-11950
tun	-11951
▁Atam	-11952
▁Faiq	-11953
▁tapşırığ	-11954
▁kollektivi	-11955
EC	-11956
▁illiyinə	-11957
▁seçilmişdir	-11958
çalı	-11959
▁sey	-11960
▁təcavüzü	-11961
iyalarının	-11962
▁PREZİDENTİ	-11963
iquq	-11964
masa	-11965
▁Rauf	-11966
▁bağlam	-11967
▁hamımız	-11968
▁yeniyet	-11969
▁təyinatı	-11970
▁şəhərindəki	-11971
şid	-11972
ronom	-11973
▁Tikinti	-11974
▁etmədən	-11975
▁arasinda	-11976
▁maddələrində	-11977
▁göstərilmişdir	-11978
▁600	-11979
▁Den	-11980
darma	-11981
▁alma	-11982
baijan	-11983
▁Şamil	-11984
lərdəndir	-11985
▁köməklik	-11986
▁təcəssüm	-11987
ıc	-11988
▁Yaşar	-11989
▁sayını	-11990
▁Sonradan	-11991
▁tikilməsi	-11992
▁keçirildiyi	-11993
bəz	-11994
ladım	-11995
▁rastlaş	-11996
▁azalması	-11997
▁təşkilinə	-11998
▁mərkəzlərinin	-11999
▁havanın	-12000
AC	-12001
▁aqro	-12002
▁sıradan	-12003
▁hissənin	-12004
iyyən	-12005
▁Braz	-12006
▁Əlaq	-12007
ağımız	-12008
▁vüsət	-12009
▁şəbəkə	-12010
ıza	-12011
ordan	-12012
iyyatı	-12013
▁xatirəsi	-12014
▁olunmayan	-12015
▁Müstəqillik	-12016
▁vilayətinin	-12017
HAM	-12018
▁Bayr	-12019
▁aralı	-12020
▁Qəhrəman	-12021
▁____________	-12022
▁qiymətləndirir	-12023
6;	-12024
şəhər	-12025
ilərdə	-12026
▁Elnur	-12027
▁məzhəb	-12028
▁bədbəxt	-12029
▁imtiyaz	-12030
▁kəndindən	-12031
▁sahibliyi	-12032
▁bölməsində	-12033
▁millətlərin	-12034
▁ölkələrindən	-12035
▁yaradılmasında	-12036
oman	-12037
▁Tap	-12038
▁qaş	-12039
▁antik	-12040
▁Aralıq	-12041
▁çəkmiş	-12042
▁qurucusu	-12043
▁verildiyi	-12044
▁kəsiş	-12045
▁mətlə	-12046
▁kompens	-12047
▁ƏS	-12048
▁qın	-12049
ğunda	-12050
▁Teatrı	-12051
▁dizayn	-12052
▁mitinq	-12053
▁xadimlərinin	-12054
▁ərazilərinin	-12055
▁standartlarına	-12056
usan	-12057
atdan	-12058
▁Səhər	-12059
▁üzvüdür	-12060
asiyasında	-12061
▁Qaydaların	-12062
▁müəllimləri	-12063
şi	-12064
▁ris	-12065
tarixi	-12066
▁Sərvət	-12067
▁örtüyü	-12068
▁müddətinin	-12069
▁artırılmasına	-12070
▁63	-12071
_____	-12072
▁Qısa	-12073
▁yüksəldil	-12074
▁çıxmışdır	-12075
▁publisistik	-12076
▁taq	-12077
▁2009	-12078
▁Radio	-12079
iman	-12080
Molla	-12081
Əsrin	-12082
▁ailəsinin	-12083
▁miqrasiya	-12084
▁Bütöv	-12085
▁Depar	-12086
▁Saray	-12087
▁sayıl	-12088
▁törədən	-12089
▁şöbəsinə	-12090
bo	-12091
göl	-12092
mis	-12093
▁quq	-12094
▁yerinin	-12095
▁ediləcəkdir	-12096
▁cah	-12097
▁Bazar	-12098
▁həcmdə	-12099
▁Nümayəndə	-12100
lant	-12101
▁4.1.	-12102
▁Düzdür	-12103
▁gəlmir	-12104
▁açıqlam	-12105
▁Ağcabədi	-12106
▁islahatları	-12107
OC	-12108
ƏF	-12109
pol	-12110
▁sövq	-12111
▁Vasif	-12112
▁Norveç	-12113
▁Xaçmaz	-12114
▁toplaş	-12115
▁Humanitar	-12116
▁emosional	-12117
▁görüşləri	-12118
▁münasibətlərini	-12119
▁Fili	-12120
▁divan	-12121
▁möcüz	-12122
▁məkanı	-12123
▁analitik	-12124
▁Televiziya	-12125
▁Se	-12126
ağım	-12127
▁peyk	-12128
▁Cəmil	-12129
▁Nəsib	-12130
▁sümük	-12131
▁Gələcək	-12132
▁birinc	-12133
▁Cavidin	-12134
▁fəlakət	-12135
məmişdi	-12136
▁ölkədir	-12137
▁mübarizəsi	-12138
com	-12139
▁istədi	-12140
▁hesabatı	-12141
▁Məmmədquluz	-12142
▁Bah	-12143
▁düşülür	-12144
▁orkestr	-12145
▁mükafatına	-12146
nan	-12147
əngli	-12148
▁sında	-12149
▁vokal	-12150
▁leksik	-12151
▁Kitabda	-12152
▁itkilər	-12153
▁doktorluq	-12154
▁zəhmətkeş	-12155
▁komissiyanın	-12156
▁firq	-12157
▁sars	-12158
▁ikili	-12159
▁artımı	-12160
▁platform	-12161
▁Şurasına	-12162
▁gözlərini	-12163
▁müsəlmanların	-12164
▁səhifələrində	-12165
▁Kəs	-12166
aqlıq	-12167
▁Kons	-12168
▁küçə	-12169
▁gətirə	-12170
▁həyati	-12171
▁olacağını	-12172
▁cib	-12173
▁eni	-12174
▁Səfir	-12175
ilməmiş	-12176
liyevin	-12177
▁ustası	-12178
▁çatmış	-12179
▁Protokol	-12180
▁gözlənilən	-12181
▁müsəlmanlar	-12182
▁Vaş	-12183
▁düşünürəm	-12184
▁şəhərlərdə	-12185
▁tikintisinə	-12186
▁nef	-12187
▁avtob	-12188
▁vergisi	-12189
▁sosialist	-12190
▁Konservator	-12191
▁qurumlarının	-12192
▁əhəmiyyətlidir	-12193
▁gülüş	-12194
▁düşməni	-12195
▁qızılbaş	-12196
▁sənətinə	-12197
06	-12198
▁qoĢ	-12199
lavyan	-12200
▁knyaz	-12201
▁mətni	-12202
▁Avqust	-12203
▁Geor	-12204
▁Atası	-12205
▁şəkli	-12206
▁transform	-12207
oid	-12208
omin	-12209
ilmir	-12210
▁saxta	-12211
▁vərəs	-12212
▁zirvə	-12213
indədir	-12214
▁itirmiş	-12215
▁ictimaiyyətinin	-12216
gənc	-12217
▁Hüm	-12218
▁imtah	-12219
▁verilə	-12220
▁Şərqin	-12221
▁ümumbəşəri	-12222
danı	-12223
▁simvol	-12224
▁Naxçıvana	-12225
▁şim	-12226
▁tədar	-12227
▁Şirvanşah	-12228
▁Siyas	-12229
▁Şairin	-12230
01	-12231
sah	-12232
▁miih	-12233
▁Tr	-12234
▁gəlişi	-12235
▁vaxtından	-12236
▁formalaşdırıl	-12237
▁yorul	-12238
laşdıran	-12239
▁Konstan	-12240
▁Mərasim	-12241
▁dolları	-12242
▁Prezidentimiz	-12243
▁atıb	-12244
▁müsa	-12245
▁irsin	-12246
▁Ərdoğ	-12247
▁Ekspert	-12248
▁deyərlər	-12249
▁didərgin	-12250
▁şad	-12251
▁dərdi	-12252
▁Çıxış	-12253
▁sənətkarlıq	-12254
AĞ	-12255
ovski	-12256
▁giin	-12257
▁Xəbər	-12258
▁baxan	-12259
▁opera	-12260
▁bayatı	-12261
▁mənims	-12262
▁maddələrinə	-12263
mod	-12264
viş	-12265
▁xəs	-12266
▁əlli	-12267
▁illərlə	-12268
▁dəyərinin	-12269
▁üsulla	-12270
▁ansambl	-12271
▁seçilib	-12272
▁dövründən	-12273
▁kəndlilər	-12274
səh	-12275
kəndi	-12276
▁İpək	-12277
qanuni	-12278
▁faciə	-12279
▁aktlar	-12280
▁qayıda	-12281
▁hadisənin	-12282
ct	-12283
ullah	-12284
▁Krım	-12285
▁ezam	-12286
▁frak	-12287
▁çırp	-12288
▁gülüm	-12289
amanlıq	-12290
▁Əsgərov	-12291
▁dramaturq	-12292
▁tədbirlərə	-12293
▁vəsaitlərinin	-12294
▁Tut	-12295
öhrət	-12296
▁Qars	-12297
edilməz	-12298
▁xatırladır	-12299
müv	-12300
əcik	-12301
▁Qax	-12302
▁Van	-12303
▁ilah	-12304
▁Məhəm	-12305
▁təmizlənməsi	-12306
her	-12307
ayir	-12308
Allah	-12309
hisar	-12310
▁yaradıcısı	-12311
lank	-12312
▁axını	-12313
▁sevdiyi	-12314
▁öp	-12315
▁artıb	-12316
lardakı	-12317
larımızda	-12318
▁dramaturg	-12319
▁dayandırıl	-12320
skaya	-12321
▁birincisi	-12322
▁gedişində	-12323
io	-12324
▁ül	-12325
imza	-12326
▁Erman	-12327
▁tapan	-12328
▁riyazi	-12329
▁Qobustan	-12330
▁müstəvidə	-12331
▁ölkələrinə	-12332
▁köçürülməsi	-12333
▁hüdudlarından	-12334
abir	-12335
▁soruşdu	-12336
▁komandanı	-12337
▁şəhərləri	-12338
▁qonaqpərvər	-12339
İr	-12340
▁350	-12341
nəzəri	-12342
▁instan	-12343
malıdırlar	-12344
▁Ümumilikdə	-12345
▁səbəblərdən	-12346
laĢ	-12347
alim	-12348
▁Nuru	-12349
▁Hacıbəyli	-12350
▁yara	-12351
▁Nigar	-12352
▁kollek	-12353
▁konfransın	-12354
kommunikasiya	-12355
əməz	-12356
▁miras	-12357
▁davamçısı	-12358
EYD	-12359
▁To	-12360
adov	-12361
ress	-12362
sovet	-12363
▁suya	-12364
▁tərzdə	-12365
▁konqres	-12366
▁tədarük	-12367
▁yaranma	-12368
▁olmaqdan	-12369
▁cümləsində	-12370
▁mədə	-12371
▁bəndə	-12372
▁mərhəm	-12373
▁istiqam	-12374
▁şagirdləri	-12375
ita	-12376
ıltı	-12377
▁Balak	-12378
▁parça	-12379
▁nəfərə	-12380
▁aləmində	-12381
▁əzəmətli	-12382
▁yaşayırlar	-12383
▁Nam	-12384
▁Ankara	-12385
67	-12386
▁Jan	-12387
▁viz	-12388
▁Fevr	-12389
▁xiis	-12390
▁qabul	-12391
▁açıldı	-12392
▁hekayə	-12393
▁əsərini	-12394
▁hadisədir	-12395
▁tad	-12396
dirir	-12397
▁satın	-12398
▁keçirirlər	-12399
▁FƏR	-12400
▁sind	-12401
aqların	-12402
▁döyüşə	-12403
▁Forumunun	-12404
▁Mor	-12405
dilar	-12406
▁alda	-12407
▁Forum	-12408
▁subyektiv	-12409
iyim	-12410
▁sək	-12411
▁bəzəd	-12412
▁intib	-12413
▁sinfi	-12414
iyaziyyat	-12415
▁teleqram	-12416
yiş	-12417
▁Qəbul	-12418
▁ssenar	-12419
▁Qaydası	-12420
▁fəlsəfəsi	-12421
▁xanlığının	-12422
▁musiqisinin	-12423
▁birləşmələri	-12424
85	-12425
Or	-12426
▁184	-12427
▁Eht	-12428
▁Bakıdakı	-12429
umlu	-12430
▁molek	-12431
▁səthi	-12432
▁vuran	-12433
▁sektoru	-12434
▁gözəlliyi	-12435
▁Tat	-12436
▁xətləri	-12437
▁Demokrat	-12438
DM	-12439
▁af	-12440
uvar	-12441
▁Tanr	-12442
ələrimiz	-12443
▁komandası	-12444
İF	-12445
vəli	-12446
▁Tol	-12447
▁hayata	-12448
▁universal	-12449
▁3)	-12450
oqram	-12451
▁etib	-12452
əlsəfi	-12453
▁Həmid	-12454
▁tanışlıq	-12455
▁əlaqələrini	-12456
▁şiş	-12457
▁Xətalar	-12458
▁kadrlar	-12459
▁oynamış	-12460
sh	-12461
enko	-12462
otip	-12463
oğrul	-12464
▁əldən	-12465
▁mütali	-12466
▁qapısı	-12467
▁Problem	-12468
▁Tiflisdə	-12469
▁həmvətən	-12470
▁artmışdır	-12471
▁icrasının	-12472
▁sənayenin	-12473
ÜŞ	-12474
▁qətli	-12475
▁Respublikanın	-12476
otal	-12477
▁eşidil	-12478
▁yazısı	-12479
▁Məmmədovun	-12480
▁61	-12481
▁179	-12482
▁Vüs	-12483
▁Bələdiyyə	-12484
▁olmayacaq	-12485
▁yataqlarının	-12486
ƏŞ	-12487
ett	-12488
▁vətəni	-12489
▁oynayıb	-12490
▁separat	-12491
▁çağırır	-12492
▁divarları	-12493
▁zəruridir	-12494
vənd	-12495
▁ağr	-12496
▁yaşaması	-12497
▁İq	-12498
Qərb	-12499
▁kursu	-12500
▁təməli	-12501
▁aviasiya	-12502
▁məqsədli	-12503
▁mərhələyə	-12504
▁2.6.	-12505
▁Qoşun	-12506
▁planet	-12507
▁turnir	-12508
▁gətirilməsi	-12509
▁rayonlarının	-12510
▁vəzifələrdən	-12511
rol	-12512
oloqlar	-12513
▁başçılığı	-12514
▁qalıqları	-12515
fl	-12516
▁professional	-12517
madığı	-12518
▁təzyiqi	-12519
▁konstruktiv	-12520
▁kasıb	-12521
▁sənətə	-12522
▁Rəsulzadə	-12523
▁məlumatın	-12524
▁infrastrukturun	-12525
mümkün	-12526
▁içinə	-12527
▁diaqnost	-12528
▁sahələrini	-12529
təpə	-12530
▁Vida	-12531
▁1989-	-12532
▁Tamaş	-12533
▁uğram	-12534
▁vaxtaşırı	-12535
▁mayor	-12536
▁ölməz	-12537
▁gözdən	-12538
▁nəfərin	-12539
məlidirlər	-12540
▁ölkəsində	-12541
▁xatirəsini	-12542
▁AXC	-12543
▁Haq	-12544
▁pilot	-12545
▁Hesabat	-12546
▁mexanizmi	-12547
▁səhnəsində	-12548
ziz	-12549
▁qə	-12550
atür	-12551
▁Pap	-12552
▁1000	-12553
▁Binə	-12554
▁situ	-12555
▁nailiyyətləri	-12556
▁tədqiqatçılar	-12557
▁dayandırılması	-12558
▁bak	-12559
insan	-12560
▁Zati	-12561
▁Zülf	-12562
▁nasos	-12563
▁harmon	-12564
▁zəncir	-12565
▁qurğuları	-12566
▁qərarları	-12567
▁toplanması	-12568
4)	-12569
şə	-12570
▁79	-12571
▁Elmir	-12572
▁bəndin	-12573
▁tarixçi	-12574
vestisiya	-12575
▁aparıldı	-12576
▁dialoqun	-12577
▁təmizləmə	-12578
▁yaşayırdı	-12579
▁məlumatına	-12580
▁vətəndaşlığı	-12581
alyan	-12582
▁əski	-12583
▁Artur	-12584
▁Məqsəd	-12585
▁monqol	-12586
▁−	-12587
▁ləv	-12588
▁Şəf	-12589
▁unikal	-12590
▁Xüsusən	-12591
▁şərəflə	-12592
▁Fərmanında	-12593
▁dairəsinin	-12594
▁təşkilatçı	-12595
▁_	-12596
lur	-12597
▁adında	-12598
▁artill	-12599
▁Konfransı	-12600
▁təsirindən	-12601
▁Oyunlarında	-12602
▁temperaturu	-12603
▁İLƏ	-12604
▁Dipl	-12605
▁trib	-12606
▁bibli	-12607
malarına	-12608
▁orqanına	-12609
▁nazirliyin	-12610
▁qabiliyyətinə	-12611
onda	-12612
onavir	-12613
sosial	-12614
▁yerit	-12615
▁olunduq	-12616
▁2.3.	-12617
lanaraq	-12618
ullayev	-12619
▁halına	-12620
▁kəndli	-12621
▁arxalan	-12622
55	-12623
▁qurub	-12624
aliləri	-12625
▁debeti	-12626
pe	-12627
▁qismət	-12628
▁formalaşmış	-12629
▁proseslərinin	-12630
▁dövlətlərarası	-12631
▁req	-12632
▁İşin	-12633
▁otağı	-12634
eynalxalq	-12635
▁Bankının	-12636
▁dönəmində	-12637
▁sənədlərinin	-12638
Əh	-12639
hədi	-12640
aciyər	-12641
▁göstərərək	-12642
▁heyvandarlıq	-12643
şar	-12644
larini	-12645
▁dağlar	-12646
▁mənbələr	-12647
▁sularının	-12648
▁vasitələr	-12649
▁danışarkən	-12650
▁haqqındakı	-12651
aki	-12652
▁ney	-12653
▁Əməl	-12654
sərhəd	-12655
▁beynəl	-12656
▁çoxluğu	-12657
▁Sərvətlər	-12658
2;	-12659
sü	-12660
▁yaĢ	-12661
▁yaşa	-12662
▁Goran	-12663
▁qurur	-12664
▁kitabını	-12665
▁tələbəsi	-12666
▁bölmələri	-12667
▁ustalıqla	-12668
ision	-12669
▁edan	-12670
▁Adətən	-12671
▁mübadilə	-12672
▁oynadığı	-12673
▁Əvvəllər	-12674
▁tutulmalıdır	-12675
dav	-12676
▁hip	-12677
▁rah	-12678
▁şeylər	-12679
▁toxunan	-12680
▁romantik	-12681
▁İskəndər	-12682
▁diqqətinə	-12683
-201	-12684
lacaq	-12685
▁aren	-12686
▁məcm	-12687
▁rəmz	-12688
▁alıcı	-12689
▁onlann	-12690
▁Düşünürəm	-12691
▁Layihənin	-12692
▁olmasıdır	-12693
▁layihəsini	-12694
▁verilməlidir	-12695
XV	-12696
nl	-12697
els	-12698
idmət	-12699
▁bölgüs	-12700
▁müştərək	-12701
▁vəsaitləri	-12702
▁məsələlərinin	-12703
3;	-12704
▁qül	-12705
▁tat	-12706
duqca	-12707
▁Fərid	-12708
▁stajı	-12709
▁simpoz	-12710
▁təsnifat	-12711
▁orqanların	-12712
▁yetirilməsinə	-12713
texn	-12714
Əmək	-12715
▁250	-12716
▁Göyçə	-12717
əyindən	-12718
▁onlayn	-12719
quruculuq	-12720
▁zərurəti	-12721
▁Karl	-12722
▁xəzinə	-12723
▁sektorun	-12724
▁söyləyir	-12725
Ermənistan	-12726
▁əməliyyatı	-12727
▁mədr	-12728
▁qaran	-12729
ülüstan	-12730
▁deport	-12731
▁birliyin	-12732
▁çalışırıq	-12733
▁Hüseynzadə	-12734
▁bitirmişdir	-12735
BM	-12736
antı	-12737
cası	-12738
işik	-12739
▁qolu	-12740
▁yönəlt	-12741
ilərindən	-12742
▁münasibətlərdə	-12743
▁yə	-12744
▁rüt	-12745
asini	-12746
▁Opera	-12747
▁Sərgi	-12748
▁kontekstində	-12749
oba	-12750
▁Ta	-12751
iqam	-12752
▁burj	-12753
▁masa	-12754
▁həddindən	-12755
▁к	-12756
▁182	-12757
matur	-12758
üyünün	-12759
umental	-12760
▁boşluq	-12761
▁140	-12762
▁Sanki	-12763
▁ocağı	-12764
▁uğurlara	-12765
At	-12766
zət	-12767
▁Qu	-12768
qoyunlu	-12769
▁tapmış	-12770
▁diqqətin	-12771
▁sığortası	-12772
ilaf	-12773
ğımız	-12774
▁XIII	-12775
müəyyən	-12776
▁Zəngilan	-12777
▁həcminin	-12778
▁yüklərin	-12779
▁başlanması	-12780
▁qabiliyyətini	-12781
▁Co	-12782
▁Qərib	-12783
▁etdirməyə	-12784
▁qrupların	-12785
▁erməniləri	-12786
▁Rej	-12787
▁sem	-12788
▁Əmr	-12789
▁Qardaş	-12790
▁edənlərin	-12791
▁şagirdlər	-12792
▁razılaşdır	-12793
▁müqabilində	-12794
▁Sov	-12795
▁yır	-12796
▁üzr	-12797
▁Şöb	-12798
▁dəri	-12799
▁söyləyən	-12800
▁yaxındır	-12801
▁bütünlüklə	-12802
▁təhsilinin	-12803
):	-12804
inm	-12805
▁oks	-12806
▁Kiyev	-12807
▁Zirvə	-12808
▁xaricdən	-12809
▁boya	-12810
▁halı	-12811
▁yarad	-12812
▁Rumıniya	-12813
▁bilmirlər	-12814
rüb	-12815
▁ilo	-12816
ümüzü	-12817
▁Həmişə	-12818
allah	-12819
▁Polş	-12820
▁Xorvat	-12821
▁dairəvi	-12822
▁fondunun	-12823
▁Ölüm	-12824
▁Onları	-12825
▁Hüquqları	-12826
▁xəstəliyi	-12827
▁məqalələri	-12828
EM	-12829
şt	-12830
▁2010	-12831
▁işsiz	-12832
▁qəfil	-12833
▁hökmran	-12834
▁teatrının	-12835
▁Əfqanıstan	-12836
▁Ger	-12837
odrat	-12838
▁Xeyr	-12839
ğundan	-12840
▁Samir	-12841
▁termini	-12842
lanmışdır	-12843
pen	-12844
Əli	-12845
ləməsi	-12846
▁1917-	-12847
▁Fəqət	-12848
▁ideyalar	-12849
▁vilayəti	-12850
ümün	-12851
▁Xoy	-12852
▁əmsalı	-12853
▁nazirin	-12854
▁tanıyan	-12855
▁gəlirləri	-12856
▁həmkarlar	-12857
▁nəzarətin	-12858
▁vasitələrlə	-12859
asiz	-12860
▁süfr	-12861
▁Müşfiq	-12862
▁bənzərsiz	-12863
▁Ermənistanla	-12864
öhnə	-12865
▁hind	-12866
açəkmə	-12867
▁Şərur	-12868
▁gedişi	-12869
▁Azarbay	-12870
▁qayıtdı	-12871
▁Fəaliyyət	-12872
▁bazarının	-12873
▁Gəncəvinin	-12874
▁hazırlanmasına	-12875
▁oraya	-12876
▁İşğal	-12877
▁sübuta	-12878
▁dilimizin	-12879
▁tutmuşdur	-12880
Mər	-12881
işə	-12882
oku	-12883
▁SİY	-12884
▁rub	-12885
▁açar	-12886
▁nüvə	-12887
▁Komitə	-12888
▁Müslüm	-12889
mühafizə	-12890
▁işlərlə	-12891
mül	-12892
uza	-12893
siyasını	-12894
▁şəbəkəsinin	-12895
-2	-12896
▁maşının	-12897
▁onillik	-12898
▁şairlər	-12899
▁obrazını	-12900
▁gözə	-12901
▁əzbər	-12902
ediyası	-12903
▁niyyəti	-12904
▁dünyasına	-12905
▁məxsusdur	-12906
▁fəaliyyətlə	-12907
▁edi	-12908
▁natic	-12909
▁qalacaq	-12910
▁Ada	-12911
▁Moldova	-12912
▁borcunu	-12913
▁İkincisi	-12914
▁çıxarılan	-12915
▁yazılmışdır	-12916
61	-12917
▁ISBN	-12918
▁İLHAM	-12919
▁tikilən	-12920
▁toplusu	-12921
▁götürülür	-12922
▁resursları	-12923
▁gücləndirmək	-12924
falt	-12925
▁Tanın	-12926
▁nişanı	-12927
▁zamanında	-12928
dəm	-12929
rəf	-12930
▁Ün	-12931
▁Şükür	-12932
▁qadını	-12933
▁Azadlıq	-12934
▁müğənni	-12935
▁müdafiəsinin	-12936
▁törətdikləri	-12937
▁nəyi	-12938
▁Nəsir	-12939
▁ekspedi	-12940
▁gəlincə	-12941
▁qərarının	-12942
▁İsmayılın	-12943
▁mədəniyyətə	-12944
▁ənənələrini	-12945
▁torpaqlarında	-12946
▁təşkilatlarla	-12947
ildikdə	-12948
▁arasmda	-12949
▁ildönüm	-12950
▁həqiqətləri	-12951
▁prinsiplərini	-12952
▁məntəqələrinin	-12953
MANI	-12954
▁düç	-12955
▁yon	-12956
▁olmazdı	-12957
▁türkmən	-12958
▁səbəbini	-12959
▁qabaqcadan	-12960
▁İŞ	-12961
ölüm	-12962
▁Sir	-12963
▁1960-	-12964
▁Xatırla	-12965
▁şeirində	-12966
▁maddələri	-12967
▁xidmətlərindən	-12968
▁DÖV	-12969
antin	-12970
▁hazir	-12971
▁bazarı	-12972
▁əsaslar	-12973
▁haqqının	-12974
▁yığıncaq	-12975
▁malikdirlər	-12976
ket	-12977
ərincə	-12978
▁Xətai	-12979
▁ikincisi	-12980
▁("	-12981
radan	-12982
▁doğan	-12983
▁klinik	-12984
▁oxumuş	-12985
▁bildirdilər	-12986
69	-12987
▁ita	-12988
Avropa	-12989
▁landş	-12990
▁Sergey	-12991
▁Vaxtilə	-12992
▁taleyini	-12993
▁verilirdi	-12994
▁şaxələndir	-12995
EL	-12996
lsr	-12997
vəz	-12998
▁hədsiz	-12999
▁müşaviri	-13000
▁əməlləri	-13001
▁kəndlərdə	-13002
▁proseslərə	-13003
▁etməlidirlər	-13004
▁Me	-13005
▁ritm	-13006
▁etnos	-13007
▁səfərə	-13008
▁sədaqət	-13009
lərimizdən	-13010
▁məhkəmənin	-13011
▁nümunələrinin	-13012
▁Dov	-13013
▁kəndə	-13014
▁hücumu	-13015
▁ayından	-13016
▁tikilir	-13017
▁milyonlarla	-13018
▁Pa	-13019
etinq	-13020
▁1.4.	-13021
▁edilmi	-13022
▁ruslar	-13023
▁binaları	-13024
hət	-13025
▁Gəmi	-13026
▁atəşə	-13027
▁Müraci	-13028
▁fikrinə	-13029
▁bağlanması	-13030
▁nəşriyyatı	-13031
Tur	-13032
bala	-13033
otrop	-13034
▁filmdə	-13035
▁hiiquq	-13036
▁düşmüşdür	-13037
▁qaydalara	-13038
▁qeydiyyatdan	-13039
▁Ağam	-13040
asiyalı	-13041
▁Xalqın	-13042
▁yaralı	-13043
▁çərşən	-13044
▁yaşadan	-13045
▁mahnıları	-13046
gim	-13047
urov	-13048
ışıq	-13049
▁dük	-13050
▁nöqtəsi	-13051
▁qətiyyən	-13052
▁Həqiqətən	-13053
▁üzvlərinə	-13054
çat	-13055
▁Ro	-13056
ehli	-13057
▁yerlərdən	-13058
▁Ob	-13059
▁2023-	-13060
▁çıxaraq	-13061
▁Hüseynova	-13062
▁olunmaqla	-13063
▁ərazisindəki	-13064
▁74	-13065
▁Sel	-13066
ekvat	-13067
lanmaq	-13068
▁darmada	-13069
▁başlanmışdır	-13070
▁düzəlt	-13071
▁məqamı	-13072
▁getdiyi	-13073
▁çöküntü	-13074
psixoloji	-13075
▁ödənilən	-13076
▁törədilmiş	-13077
iim	-13078
Tarix	-13079
▁ailədə	-13080
▁yetərincə	-13081
▁Aparatının	-13082
hy	-13083
▁Ül	-13084
▁Xəz	-13085
▁Səid	-13086
▁həyət	-13087
▁sevir	-13088
müsəlman	-13089
▁Tbilisi	-13090
▁dayanıb	-13091
▁əsaslarla	-13092
▁şeirlərini	-13093
İnsan	-13094
malara	-13095
▁gövdə	-13096
▁nisbi	-13097
▁Britaniyanın	-13098
▁karbohidrogen	-13099
▁ident	-13100
▁kabel	-13101
▁eksperim	-13102
▁Ermənilərin	-13103
▁əməkdaşlarının	-13104
ASAN	-13105
▁raq	-13106
▁rəisinin	-13107
78	-13108
▁Səud	-13109
▁söykənən	-13110
ərə	-13111
▁şeyx	-13112
▁Namiq	-13113
▁mesaj	-13114
▁ləvazim	-13115
iyyətindən	-13116
▁fotoşəkil	-13117
▁problemlərini	-13118
osp	-13119
iliya	-13120
▁ağlı	-13121
▁görkəm	-13122
▁aləminin	-13123
▁mütəxəssisləri	-13124
▁Şəx	-13125
▁Gədə	-13126
▁verdim	-13127
malarını	-13128
▁olunmaq	-13129
▁ədalətsiz	-13130
Ba	-13131
▁abzas	-13132
▁görmə	-13133
▁muzeyi	-13134
▁ömrünü	-13135
▁olsaydı	-13136
▁məqamlar	-13137
▁əkinçilik	-13138
abilit	-13139
▁yurdu	-13140
▁geriyə	-13141
▁Kitabın	-13142
▁Məzahir	-13143
▁çatdıqdan	-13144
rın	-13145
abul	-13146
▁Zav	-13147
▁qut	-13148
▁göst	-13149
▁köməkçi	-13150
itin	-13151
ynuz	-13152
▁güb	-13153
▁mun	-13154
▁Andr	-13155
▁okean	-13156
▁Bankın	-13157
▁Vətənin	-13158
▁təsdiqi	-13159
çel	-13160
▁telekan	-13161
Dağ	-13162
LARI	-13163
▁moh	-13164
qayırma	-13165
▁Sistem	-13166
▁intern	-13167
▁əməkhaqq	-13168
▁şirkətlərinin	-13169
▁yun	-13170
▁rəngi	-13171
▁əsgərləri	-13172
başı	-13173
salma	-13174
▁əsil	-13175
▁polit	-13176
▁Yevlax	-13177
▁əşyalar	-13178
▁metodları	-13179
▁yekunlarına	-13180
dm	-13181
ÖEN	-13182
▁tütün	-13183
▁soz	-13184
imark	-13185
Təhsil	-13186
larındakı	-13187
▁genişləndirmək	-13188
ruq	-13189
▁bilməyib	-13190
▁Şəhidlər	-13191
▁xəstəlikləri	-13192
▁sik	-13193
▁sami	-13194
▁Əksinə	-13195
▁işarəsi	-13196
▁şirkətin	-13197
▁Nazirliyin	-13198
▁möhkəmlənməsinə	-13199
▁Lu	-13200
▁Fəl	-13201
▁XIV	-13202
▁istifadənin	-13203
▁Em	-13204
giin	-13205
▁düym	-13206
▁ruhuna	-13207
▁deyəndə	-13208
▁əhalini	-13209
▁Zeynalov	-13210
▁diametri	-13211
▁konstitusiya	-13212
▁tüf	-13213
▁Litva	-13214
▁Viktor	-13215
▁qüvvət	-13216
▁həcmində	-13217
▁һ	-13218
▁Mo	-13219
▁siy	-13220
▁Pyot	-13221
çiliyə	-13222
▁şirkətlər	-13223
▁Bilməlidir	-13224
▁qurğularının	-13225
▁əməliyyatlarına	-13226
▁130	-13227
bulaq	-13228
▁düçar	-13229
▁qazma	-13230
▁kitaba	-13231
▁kilsəsi	-13232
▁Afrik	-13233
▁Kapit	-13234
▁etdirilib	-13235
▁Azerbaijan	-13236
▁vəsaitlərin	-13237
▁əməliyyatların	-13238
UM	-13239
LƏT	-13240
▁eda	-13241
▁atdı	-13242
larımı	-13243
▁türkcə	-13244
▁qurulmasına	-13245
▁hadisələrdən	-13246
▁partiyaların	-13247
əmiz	-13248
▁Bədə	-13249
ilərlə	-13250
▁sayına	-13251
▁repertuar	-13252
▁nəticələrə	-13253
▁investisiyalar	-13254
▁73	-13255
▁Dəh	-13256
▁köy	-13257
▁yükü	-13258
▁Şeir	-13259
▁Suriya	-13260
▁Müvafiq	-13261
▁qazanır	-13262
▁qurulur	-13263
OS	-13264
mey	-13265
sual	-13266
▁Məmmədə	-13267
▁olduqdan	-13268
▁İnsanlar	-13269
▁zonasında	-13270
boyu	-13271
▁MƏR	-13272
▁Qafqaza	-13273
rux	-13274
▁Qüd	-13275
▁Dövr	-13276
▁Maked	-13277
▁adama	-13278
▁vanda	-13279
▁sürdüyü	-13280
▁halların	-13281
▁çatdırılıb	-13282
vent	-13283
▁Qusar	-13284
▁menec	-13285
▁səltən	-13286
▁oxumağa	-13287
▁reqlament	-13288
▁bərabərdir	-13289
▁müstəmləkə	-13290
▁Assambleyasının	-13291
▁qərib	-13292
▁varlı	-13293
▁formal	-13294
▁olmasaydı	-13295
▁azadlıqdan	-13296
▁proqramların	-13297
▁Ata	-13298
▁mış	-13299
▁ucqar	-13300
▁prosesdə	-13301
▁vətəndaşın	-13302
əddü	-13303
▁jpg	-13304
durlar	-13305
▁adlar	-13306
▁bölgəsinin	-13307
▁çə	-13308
▁Qoru	-13309
▁mağaz	-13310
▁sükut	-13311
▁vəhşi	-13312
▁çıxara	-13313
▁edirdim	-13314
▁çalışmış	-13315
▁rat	-13316
▁sex	-13317
çubaş	-13318
▁FƏRMANI	-13319
▁Müzəffər	-13320
▁tapşırıqlar	-13321
▁jurnalistlər	-13322
mum	-13323
yax	-13324
York	-13325
lami	-13326
ələy	-13327
▁halq	-13328
▁köhn	-13329
lərindəndir	-13330
▁Məsələləri	-13331
▁məsələlərini	-13332
ayar	-13333
▁nəm	-13334
vermə	-13335
▁dəxi	-13336
▁şeirin	-13337
▁Musayev	-13338
▁bül	-13339
ızdan	-13340
▁Asif	-13341
▁Qala	-13342
▁dəyişib	-13343
▁narahatlıq	-13344
MƏD	-13345
tın	-13346
unə	-13347
▁19.	-13348
▁formalı	-13349
▁tərəvəz	-13350
▁müalicəsi	-13351
▁cəhətləri	-13352
▁Xatırladaq	-13353
▁pak	-13354
▁xari	-13355
▁Əsədov	-13356
▁sənədlərdə	-13357
▁xoşməramlı	-13358
İl	-13359
▁GÖR	-13360
▁2012	-13361
▁təĢkil	-13362
▁İnsanın	-13363
Nərimanov	-13364
publisist	-13365
▁günahsız	-13366
▁ziyalılar	-13367
▁vasitələrdən	-13368
▁72	-13369
omet	-13370
▁Nax	-13371
Xocalı	-13372
▁avadanlıqlar	-13373
▁Eləcə	-13374
▁blank	-13375
▁oyunu	-13376
▁yüzil	-13377
▁atdığı	-13378
▁rəqəmsal	-13379
▁Amerikada	-13380
▁məiş	-13381
▁immun	-13382
▁işlərdə	-13383
3.2.	-13384
indiki	-13385
▁andan	-13386
▁maqnit	-13387
▁olursa	-13388
▁vulkan	-13389
▁getməyə	-13390
▁qeydlər	-13391
▁dövlətdə	-13392
▁kəmərləri	-13393
▁normalarına	-13394
oza	-13395
tixar	-13396
▁Qafar	-13397
layırdı	-13398
▁dərinlik	-13399
▁faaliyyat	-13400
▁söylədiyi	-13401
▁namizədlik	-13402
fik	-13403
▁Arzu	-13404
işləri	-13405
▁Müqav	-13406
▁baytarlıq	-13407
3.1.	-13408
camn	-13409
▁Elman	-13410
ictimai	-13411
▁cavabı	-13412
▁növbət	-13413
▁varisi	-13414
▁birləşm	-13415
▁ifaçısı	-13416
▁jurnalistika	-13417
▁yoxlanılması	-13418
yetnam	-13419
▁üslubu	-13420
▁limanın	-13421
▁formalaşır	-13422
▁müharibəsindən	-13423
▁Yel	-13424
▁qam	-13425
▁itkin	-13426
▁səbir	-13427
▁Məktəbi	-13428
▁fenomen	-13429
▁olubdur	-13430
▁istiqamətləndir	-13431
▁71	-13432
liliyi	-13433
bəylinin	-13434
▁Şirkəti	-13435
▁obrazlar	-13436
▁yaxşıdır	-13437
▁nüfuzunun	-13438
▁darmadağın	-13439
əsas	-13440
▁vak	-13441
▁Peşə	-13442
mıĢdır	-13443
▁səliq	-13444
▁firavan	-13445
▁səhmdar	-13446
▁təyyarə	-13447
▁bazarlarına	-13448
▁dəyişiklikləri	-13449
iyat	-13450
▁çıl	-13451
▁briq	-13452
▁Mükaf	-13453
estetik	-13454
▁zavodu	-13455
▁xanlığı	-13456
▁doldurul	-13457
▁etdirərək	-13458
▁bildirirdi	-13459
▁infrastrukturu	-13460
▁EA	-13461
▁1,5	-13462
▁Maks	-13463
▁atrib	-13464
▁saysız	-13465
▁suları	-13466
▁bağlamaq	-13467
▁dünyadan	-13468
▁şəhərindən	-13469
▁dəstəkləyir	-13470
▁vəzifələrindən	-13471
….	-13472
eld	-13473
▁pa	-13474
liya	-13475
mizm	-13476
▁Gər	-13477
▁muz	-13478
▁alver	-13479
iyindən	-13480
▁Salyan	-13481
▁qarniz	-13482
▁təlimat	-13483
▁yanaşır	-13484
▁yolundan	-13485
▁Ukraynanın	-13486
▁istehlakçı	-13487
akov	-13488
▁qrant	-13489
▁Səttar	-13490
▁qızlar	-13491
▁lərinin	-13492
▁Üstəlik	-13493
aət	-13494
əxav	-13495
▁bük	-13496
▁Vurğun	-13497
▁döndər	-13498
▁qayıdıb	-13499
iyyətləri	-13500
▁çatdırır	-13501
▁funksiyaları	-13502
▁avrop	-13503
▁buğda	-13504
▁asfalt	-13505
▁zərərin	-13506
▁götürmək	-13507
▁sertifikat	-13508
▁^	-13509
▁cəhəti	-13510
▁Əsərin	-13511
▁mahnısı	-13512
▁ailəsinə	-13513
▁qısamüddətli	-13514
laşdırılmasına	-13515
▁Cəmi	-13516
▁qaya	-13517
▁arası	-13518
▁vurur	-13519
lamışdı	-13520
laşdırıcı	-13521
▁Albaniya	-13522
▁Dövlətdə	-13523
▁qoyuluşu	-13524
▁Vaşinqton	-13525
▁obyektlər	-13526
▁xaqan	-13527
▁ödəmək	-13528
▁Goranboy	-13529
▁sakinlərinin	-13530
req	-13531
▁AŞ	-13532
▁Xər	-13533
▁teat	-13534
▁nahiy	-13535
▁Filmin	-13536
▁nazirlik	-13537
med	-13538
top	-13539
▁dostum	-13540
▁Standart	-13541
▁faktları	-13542
▁Maraqlıdır	-13543
▁müharibədən	-13544
▁konfransında	-13545
▁15.	-13546
▁rın	-13547
▁etmələri	-13548
▁haqqinda	-13549
▁strukturunun	-13550
▁Sav	-13551
▁əri	-13552
▁etməz	-13553
ladılar	-13554
▁hüquqlar	-13555
▁Türkiyədən	-13556
Meh	-13557
sas	-13558
atir	-13559
üklü	-13560
▁bey	-13561
▁iti	-13562
▁axar	-13563
▁sinin	-13564
Bizim	-13565
təraş	-13566
landiy	-13567
▁bulaq	-13568
▁sürüş	-13569
▁şaquli	-13570
▁Partiya	-13571
▁siyasətə	-13572
▁fakültəsini	-13573
baya	-13574
▁Boz	-13575
▁tas	-13576
▁arxe	-13577
Koroğlu	-13578
▁hissəyə	-13579
▁vermədi	-13580
▁yayılan	-13581
▁səfərləri	-13582
pp	-13583
▁91	-13584
▁Sif	-13585
▁tapıl	-13586
istifadə	-13587
▁çevirmək	-13588
▁keyfiyyətcə	-13589
.10.	-13590
▁olmuĢ	-13591
▁Aşağıdakı	-13592
▁amerikalı	-13593
▁həmrəylik	-13594
▁rayonları	-13595
zil	-13596
▁Pav	-13597
▁Sual	-13598
▁tünd	-13599
▁epizod	-13600
Şahdəniz	-13601
▁haqları	-13602
▁konsepsiyası	-13603
çın	-13604
▁um	-13605
▁105	-13606
▁səyy	-13607
▁müəllimə	-13608
▁müddətdən	-13609
▁təşkilində	-13610
▁tənzimləyən	-13611
▁təmsilçiləri	-13612
SM	-13613
ÜM	-13614
fur	-13615
oni	-13616
▁Urm	-13617
▁emalat	-13618
▁yazmağa	-13619
▁dalğalan	-13620
MİŞ	-13621
olma	-13622
adlar	-13623
▁yığım	-13624
ilmədən	-13625
▁həddən	-13626
▁bacaran	-13627
▁binasında	-13628
:18	-13629
efer	-13630
ikul	-13631
▁125	-13632
▁Abi	-13633
▁yığış	-13634
▁səadət	-13635
▁Təbrizdə	-13636
▁formasının	-13637
▁prezidentinin	-13638
▁М	-13639
0.0	-13640
qızı	-13641
▁dev	-13642
▁nan	-13643
▁dönə	-13644
mirlər	-13645
▁Camal	-13646
▁surət	-13647
▁yumşaq	-13648
▁əmanət	-13649
▁təəssüb	-13650
▁qazı	-13651
▁assosi	-13652
▁düşdüyü	-13653
▁İştirak	-13654
dini	-13655
▁dəb	-13656
▁Kart	-13657
▁həndə	-13658
nasında	-13659
▁tenden	-13660
▁artırdı	-13661
▁edirsiniz	-13662
▁imkanlardan	-13663
▁0.	-13664
▁Kap	-13665
▁are	-13666
▁ARDN	-13667
▁uzanan	-13668
▁əmlakı	-13669
▁çevrilmişdi	-13670
▁müəyyənləşdirir	-13671
undakı	-13672
əmişdir	-13673
▁eyniləşdir	-13674
30-	-13675
Tər	-13676
▁öyrə	-13677
▁muzeyin	-13678
▁Ensiklop	-13679
▁Kitabxana	-13680
▁göstərəcək	-13681
▁münasibətlə	-13682
▁xəstəliklərin	-13683
▁soydaşlarımızın	-13684
vili	-13685
ğunluq	-13686
▁kontr	-13687
▁digəri	-13688
Elektron	-13689
▁sədrliyi	-13690
▁dəstəkləy	-13691
▁xatirələri	-13692
IV	-13693
ağz	-13694
▁62	-13695
yuter	-13696
▁tamin	-13697
▁qətnamə	-13698
▁fakültəsində	-13699
▁səfirliyinin	-13700
alam	-13701
▁xəta	-13702
▁Həkim	-13703
▁görürəm	-13704
▁diasporunun	-13705
▁keyfiyyətinə	-13706
sünüz	-13707
▁Klub	-13708
▁Elmar	-13709
▁deyiləm	-13710
▁qalaraq	-13711
▁maksimal	-13712
▁hərəkətlər	-13713
▁incəsənəti	-13714
▁müsabiqənin	-13715
▁suda	-13716
istanı	-13717
dığınız	-13718
▁minillik	-13719
▁yararsız	-13720
▁bilirsiniz	-13721
▁Mer	-13722
LƏRİN	-13723
ümüzə	-13724
▁spir	-13725
▁Aqrar	-13726
▁görməyə	-13727
▁mənzərə	-13728
▁qənaətə	-13729
▁dəyərini	-13730
▁(200	-13731
▁otel	-13732
▁Tacik	-13733
▁dağıt	-13734
▁stansiyası	-13735
▁vəzifələrə	-13736
▁qloballaşma	-13737
▁jurnalistlərin	-13738
▁98	-13739
itekt	-13740
▁icarə	-13741
▁məzarı	-13742
▁Agentliyin	-13743
zav	-13744
▁2.7.	-13745
.12.20	-13746
alizmin	-13747
luğundan	-13748
▁adekvat	-13749
▁gəldiyini	-13750
▁hüquqların	-13751
▁edilmə	-13752
▁dəyişdi	-13753
▁mənimlə	-13754
Ədəbiyyat	-13755
▁təqdirəlayiq	-13756
▁resurslarının	-13757
St	-13758
İc	-13759
▁160	-13760
▁azalır	-13761
Təd	-13762
üfət	-13763
▁Fer	-13764
▁ləq	-13765
▁diləy	-13766
▁Qərbin	-13767
▁aparılmalıdır	-13768
ızda	-13769
▁Deput	-13770
▁iclasda	-13771
▁istiqamətlər	-13772
▁avadanlıqların	-13773
ew	-13774
qoy	-13775
▁ts	-13776
ktor	-13777
▁Put	-13778
▁faz	-13779
▁cəbhədə	-13780
▁toplanmış	-13781
▁qurulmuşdur	-13782
▁funksiyasını	-13783
▁məhkəməsinin	-13784
KSOY	-13785
▁Kiş	-13786
irvan	-13787
▁Dünən	-13788
▁Komitənin	-13789
▁tədqiqatları	-13790
▁ədəbiyyatına	-13791
▁Eh	-13792
▁varmı	-13793
▁Stalin	-13794
▁anasının	-13795
▁notariat	-13796
▁başlaması	-13797
▁müəssisələrinə	-13798
▁əhəmiyyətindən	-13799
ləqan	-13800
▁kərpic	-13801
▁dedilər	-13802
▁sınaqdan	-13803
▁ətrafına	-13804
▁Sentyabrın	-13805
6)	-13806
part	-13807
yoru	-13808
▁2016,	-13809
▁lokal	-13810
▁ikiqat	-13811
▁stabil	-13812
lərimizdə	-13813
▁vurğulamaq	-13814
▁qanunlarının	-13815
▁31-	-13816
▁şeyə	-13817
fəlsəfi	-13818
müvafiq	-13819
▁edəcəyi	-13820
▁platfor	-13821
lanmasına	-13822
▁xatırlayır	-13823
▁İçərişəhər	-13824
gov	-13825
ular	-13826
▁100-	-13827
▁kürd	-13828
▁Əbdür	-13829
▁ölçüsü	-13830
▁Ərdəbil	-13831
▁Göstərilən	-13832
1]	-13833
Gün	-13834
▁Borc	-13835
▁qast	-13836
▁görürdü	-13837
▁əlilliyi	-13838
▁yaradırdı	-13839
▁zəngindir	-13840
nən	-13841
▁Ah	-13842
oport	-13843
▁Bəhr	-13844
▁edam	-13845
▁sint	-13846
▁Məcid	-13847
▁sürücü	-13848
▁simvolu	-13849
▁çıxdığı	-13850
▁Komissiya	-13851
▁tələblərini	-13852
▁torpaqlarına	-13853
▁təşkilatlara	-13854
şan	-13855
▁con	-13856
▁bela	-13857
▁künc	-13858
▁Elşən	-13859
▁güləş	-13860
▁Dəstəyi	-13861
▁tanıyır	-13862
▁zirvəsinə	-13863
▁aşağıdakılardır	-13864
millət	-13865
▁Ramil	-13866
▁fi	-13867
▁New	-13868
əngiz	-13869
▁Flor	-13870
▁ayın	-13871
▁Mahnı	-13872
▁Onlara	-13873
▁bürünc	-13874
əməlidir	-13875
▁qəzasında	-13876
▁avadanlığın	-13877
▁potensialını	-13878
62	-13879
IVQD	-13880
təsi	-13881
layıram	-13882
▁Düşmən	-13883
▁armatur	-13884
[...]
